!
!"
!).
"
")
"),
").
",
".
":
";
">
"?
#
$
%
%)
%),
%).
&
'
')
').
(
("
('
()
(*)
)
),
).
):
);
)?
*
+
,
,"
-
->
.
."
/
/_
0
1
1000
1049
1701
1791
1795
1809
1815
1831
1834
1842
1843
1848
1864
1866
1867
1868
1871
1872
1873
1877
1882
1884
1888
2
2000
2002
2005
2008
2009
2010
2267
2366
2369
2370
2371
2373
2374
2375
3
3000
4
5
5000
6
7
8
9
:
:"
:\
;
=
="
=>
>
?
?!
?"
@
A
AA
AAD
AB
ABS
AC
ACE
ACH
ACHT
ACTA
AD
ADA
ADC
ADE
ADER
ADI
ADO
ADOS
ADS
ADSL
AE
AEA
AES
AF
AFP
AFTA
AG
AGA
AGB
AGEN
AGO
AI
AIDS
AIM
AIS
AKP
AL
ALDE
ALE
ALLE
ALS
AM
ANDER
ANGE
ANN
ANSI
ANT
AO
AOL
AP
API
APS
APT
AQ
ARCA
ARD
ARDO
ARE
ARS
ART
ARTE
AS
ASA
ASF
ASIC
ASSE
AT
ATEN
ATION
ATS
ATV
AU
AUF
AUS
AV
AVC
AVEN
AX
Aaron
Ab
Abb
Abbe
Abdullah
Aber
Abonnement
Absolute
Abteilung
Account
Acqua
Acryl
Action
Activ
Ad
Adapter
Add
Admin
Administration
Admiral
Adobe
Adopt
Adresse
Advanced
Advisor
Af
Affiliate
Afrika
Afrikaner
Ag
Agenda
Agent
Agentur
Agrar
Agreement
Air
Airbus
Ak
Akademie
Aktion
Aktiv
Aktivitäten
Aktuell
Aktuelle
Al
Alarm
Alaska
Alb
Alba
Alberg
Alberto
Album
Alessandro
Alexandra
Alexandria
Alexis
Alfons
Alfred
Algeri
Algorithm
Ali
Alicante
All
Allan
Alle
Allerg
Allgemeine
Alp
Alpes
Alpha
Alphabet
Alpine
Als
Also
Alt
Alter
Although
Alumn
Am
Amanda
Ambassador
Ambiente
America
American
Amerika
Amerikan
An
Analyse
Analyst
Anatoli
Anatomi
Anbieter
And
Andere
Andorra
Andrej
André
Andy
Anfrage
Ang
Angebot
Angebote
Angela
Angelo
Anglais
Angola
Angriff
Anhänger
Animation
Anker
Anlagen
Anleitung
Ant
Anti
Antico
Antigua
Antiqu
Antivirus
Antoine
Antwerpen
Antworten
Anwendungen
Anzeige
Anzeigen
Apache
Apartamentos
Aparthotel
Apartment
App
Apparat
Appartement
Applikation
April
Aquarium
Ar
Arabi
Arb
Arbeitgeber
Arbeits
Arc
Arch
Archi
Archiv
Archive
Arco
Arena
Arg
Aristotel
Arm
Armstrong
Army
Arnold
Arr
Arrangement
Array
Art
Artemis
Artikel
Artists
Ass
Assa
Assessment
Asset
Assistent
Astronomi
Atelier
Atlantik
Atlantis
Atm
Attack
Attribute
Auch
Auckland
Audi
Audio
Auditori
Auf
Aufbau
Aufgabe
Aufgaben
Aug
Augsburg
August
Aureli
Aurora
Aus
Ausführung
Ausgabe
Ausstattung
Austausch
Australian
Australien
Auswahl
Auth
Authority
Auto
Autobahn
Automat
Automatik
Automation
Automobile
Automotive
Autonomi
Autor
Avatar
Aventura
Axel
Azur
B
BA
BAE
BAG
BAR
BAS
BB
BC
BD
BE
BEG
BEI
BEN
BER
BERG
BET
BF
BG
BH
BI
BIOS
BIT
BL
BLE
BM
BN
BO
BODY
BP
BR
BRE
BRIC
BRIDGE
BS
BSD
BSE
BSP
BT
BURG
BUS
BW
Babylon
Back
Backup
Bad
Baden
Bahamas
Bahn
Bahrain
Bal
Balear
Ball
Baltic
Baltimore
Ban
Band
Bank
Banking
Baptist
Bar
Barrier
Barry
Bas
Base
Based
Bass
Batch
Batterie
Bau
Bay
Be
Beam
Bearbeiten
Bearbeitung
Becker
Beethoven
Befestigung
Beginn
Begleit
Behind
Bei
Beiträge
Bekleidung
Bel
Belarus
Beleuchtung
Belieb
Ben
Benchmark
Benedikt
Benz
Ber
Berber
Bereich
Berg
Bergamo
Bericht
Berichte
Berlin
Besonder
Best
Bestands
Bestseller
Bet
Betreu
Betriebssystem
Better
Bewertung
Bi
Bibliothek
Big
Bike
Bilbao
Bild
Bilder
Billy
Binary
Bio
Biografi
Biographi
Bistro
Bit
Bitte
Bitter
Bl
Black
Blackjack
Blanc
Blanca
Blanche
Blau
Block
Blog
Blu
Blue
Bo
Board
Boeing
Bohu
Bombard
Bomber
Bon
Bonus
Book
Bookmark
Boot
Bosni
Bot
Botswana
Bottom
Bou
Boulevard
Box
Br
Bra
Branding
Brands
Brasil
Brasilia
Bravo
Breite
Bremen
Brent
Brescia
Bretagne
Bri
Brief
Brille
Bring
Bristol
Britannia
British
Bro
Broadcast
Broadway
Brock
Browser
Bruce
Brun
Bruno
Brussels
Bryan
Brücke
Bu
Buch
Buddhis
Budget
Bueno
Buffet
Builder
Bulletin
Bundes
Bundestag
Bundle
Bungalow
Bur
Burma
Burundi
Bus
Business
Butler
Button
Buttons
Buy
By
Byte
Bürgermeister
Büro
C
CA
CAD
CAM
CAN
CAO
CASE
CAT
CBS
CC
CCC
CCD
CCP
CCS
CD
CDC
CDM
CDS
CDU
CE
CEE
CEF
CEPT
CES
CET
CF
CG
CH
CHE
CHEN
CHER
CHR
CI
CIA
CID
CIP
CIS
CK
CKER
CL
CLUB
CM
CMS
CN
CNN
CNS
CO
COD
COM
CON
CORE
COS
CP
CPI
CPU
CQ
CR
CROSS
CS
CSI
CSR
CSU
CT
CV
CW
CX
Cabo
Cabrio
Cache
Caesar
Café
Cagliari
Cairo
Cal
Calder
Call
Calvin
Cam
Cameron
Camp
Camper
Campos
Can
Canadian
Cannabis
Cannes
Canyon
Cap
Captain
Capture
Car
Caravan
Card
Cardiff
Care
Cargo
Caroline
Carrier
Cartoon
Casa
Casablanca
Case
Casino
Castellan
Castello
Castillo
Casting
Catania
Catch
Catering
Cathedral
Catherine
Center
Central
Centre
Century
Certified
Cette
Ch
Channel
Chaos
Char
Charles
Chart
Charter
Charts
Chase
Chat
Chateau
Check
Chef
Chemical
Chester
Chi
Chief
China
Chip
Chips
Chirurgi
Chongqing
Christ
Christina
Christine
Chrysler
Circuit
Cisco
Citizen
City
Ciudad
Clara
Class
Classe
Claude
Claudia
Click
Client
Climate
Clip
Clique
Clock
Clone
Club
Cluster
Co
Coca
Code
Codes
Col
Cola
Colin
Colonia
Color
Columbus
Com
Comedy
Comfortable
Comics
Commander
Commerce
Community
Comp
Compil
Complete
Compliance
Composite
Computer
Computing
Con
Concierge
Configuration
Conflict
Connect
Connector
Constitution
Consumer
Container
Contemporary
Content
Continental
Control
Controller
Convention
Cookie
Copy
Cor
Core
Corneli
Corporate
Couch
Couleur
Coupon
Courtyard
Cowboy
Crash
Creme
Crew
Cricket
Cristina
Croatia
Crop
Crown
Cube
Cultural
Cup
Curso
Cô
D
DA
DAC
DAI
DAN
DAP
DAX
DB
DC
DD
DE
DEC
DEM
DEMI
DEN
DER
DEU
DF
DG
DHC
DHL
DI
DIG
DING
DIR
DIS
DK
DL
DLL
DM
DMA
DNS
DO
DOS
DP
DR
DRIVE
DS
DSG
DSL
DSP
DSS
DT
DTM
DUNG
DV
DVB
DVD
DX
Dakar
Dam
Dame
Dan
Dank
Danke
Dante
Dar
Darwin
Das
Data
Date
Dateien
Datenbank
Datum
Davidson
Day
Dayton
De
Deal
Debug
Deck
Decken
Deep
Default
Defense
Deklar
Dekoration
Del
Delphi
Delta
Demand
Demo
Democrac
Demonstration
Den
Dennis
Dental
Depend
Depot
Depression
Der
Derby
Des
Design
Designer
Desk
Desktop
Dessert
Deut
Deutsch
Deutsche
Deutschland
Deze
Di
Dia
Diagnostic
Dialog
Diana
Die
Dienst
Dienste
Dienstleister
Dienstleistungen
Diese
Digital
Dimitri
Dinner
Dinosaur
Dir
Direktor
Dis
Disc
Discovery
Disk
Diskon
Disneyland
Display
Distributor
Distrikt
Diverse
Dmitr
Do
Doc
Doctor
Documentation
Dokument
Dokumentar
Dokumentation
Dolce
Dollar
Domain
Domenic
Domin
Domingo
Dominique
Domino
Don
Donner
Dor
Down
Download
Dr
Dresd
Drive
Druck
Drucker
Du
Dubr
Duke
Dump
Dungeon
Dur
Dutch
DÜ
E
EACH
EAD
EAR
EC
ECC
ECE
ECHO
ECHT
ECK
ECO
ECR
ECU
ED
EDER
EDO
EE
EF
EFA
EFF
EG
EGEN
EGL
EH
EHS
EI
EIN
EINE
EIT
EL
ELA
ELE
ELL
ELLE
EM
EMA
EMAS
EMS
EN
END
ENDE
ENE
ENER
ENIA
ENN
ENS
ENST
ENT
EO
EON
EOS
EP
EQ
ER
ERA
ERE
EREN
ERGE
ERGO
ERK
ERKE
ERLIN
ERN
ERP
ERS
ERT
ES
ESA
ESAR
ESE
ESF
ESM
ESS
ESSE
ESSEN
EST
ET
ETF
ETH
ETI
ETON
ETS
ETTE
EU
EUR
EW
EX
EXE
EZ
Earl
Early
Eastern
Eben
Eclipse
Economics
Economist
Economy
Ecuador
Ed
Edgar
Edinburgh
Edit
Edition
Editor
Eduard
Eduardo
Ef
Effects
Eigenschaft
Ein
Eindhoven
Eine
Einführung
Einheit
Einstellungen
Eintrag
El
Elefant
Elegant
Element
Elemente
Elements
Elisabeth
Elliot
Em
Email
Emanuel
Emission
Emmanuel
Emotion
Empfehlung
Empire
Empor
En
End
Energie
Engagement
Engine
Engineering
England
Englisch
Enhance
Enjoy
Enrique
Ensemble
Ent
Enterprise
Entry
Entwickler
Environmental
Epidemi
Episode
Epson
Er
Era
Erasmus
Erdogan
Ergebnisse
Ergonomi
Ericsson
Erika
Erinnerung
Eritre
Erk
Ernest
Ernst
Ersatzteil
Erscheinung
Erste
Erweiter
Erweiterung
Es
Escape
Espresso
Essay
Est
Esta
Establ
Estrel
Etat
Ethno
Etikett
Euro
Europa
Europe
European
Evaluation
Evans
Event
Events
Everest
Everything
Ex
Exception
Exempl
Exhibition
Existen
Exit
Exp
Expedition
Expert
Export
Exposition
Express
Expression
Extern
Extra
F
FA
FAO
FAQ
FB
FBI
FC
FCO
FD
FDA
FE
FEN
FET
FF
FG
FH
FI
FIL
FIN
FK
FL
FLEX
FM
FO
FON
FOR
FORD
FORM
FP
FR
FRE
FRONT
FRS
FS
FSA
FT
FTA
FTP
FW
FX
FY
FZ
Fa
Fach
Fahr
Fahrzeuge
Fake
Faktor
Fakult
Falken
Fall
Familie
Fan
Fans
Farb
Farben
Farmer
Fast
Fax
February
Federic
Fedor
Feed
Feel
Fel
Felix
Ferdinand
Feri
Ferienwohnung
Ferienwohnungen
Fernando
Fertigung
Fest
Festival
Festplatte
Feuchtigkeit
Fi
Fiat
Fiction
Fidel
Fiesta
Figue
File
Files
Film
Filter
Filters
Finale
Financial
Finanz
Find
Finder
Fira
Fire
Firenze
Firm
Firma
First
Fl
Flag
Flags
Flamen
Flaming
Flamm
Flasche
Flash
Flex
Flexible
Flickr
Florent
Florian
Flott
Flug
Flugzeug
Fluid
Flyer
Flying
Focus
Fokus
Folie
Following
Fonds
Font
Fontaine
Food
For
Force
Foreign
Forex
Forge
Form
Format
Formation
Formular
Fort
Fortune
Forum
Forums
Forward
Foto
Fotogalerie
Fotografie
Fotos
Fr
Fra
Frag
Fragment
Fraktion
Frame
Francesco
Franchise
Frank
Frankreich
Französisch
François
Free
Freedom
Freelance
Freestyle
Frei
Freiheit
Freitag
Freunde
Freundschaft
Fri
Friendly
Fries
Fritz
Front
Fuchs
Fuel
Fuer
Fujitsu
Funktion
Funktionen
Fussball
Future
För
Für
G
GA
GALI
GAP
GARANT
GAS
GATT
GB
GC
GCC
GE
GEA
GEL
GEM
GEN
GER
GES
GEST
GF
GH
GHz
GI
GIF
GIS
GK
GL
GLI
GM
GMO
GMP
GNU
GO
GOLF
GP
GR
GROUP
GS
GT
GUE
GUS
GV
GX
Gal
Galerie
Gall
Game
Gamma
Gandhi
Gang
Ganze
Gar
Garantie
Garmin
Garni
Garten
Gary
Gas
Gast
Gastronomie
Gate
Gateway
Ge
Gebraucht
Gehäuse
Gelb
Geld
Gelände
Gem
Gemüse
Gen
Gender
Genealog
General
Generation
Generator
Genesis
Geneva
Genom
Genre
Geo
Geometri
Ger
Gerald
Gerard
Germain
German
Geschäftsführer
Get
Getriebe
Gewerkschaft
Gewinne
Gewinnspiel
Ghana
Gi
Giardin
Gibraltar
Gigant
Gilbert
Giorgio
Girona
Gitarre
Giuseppe
Gl
Glamour
Glas
Glasgow
Glauben
Global
Gloria
Gloss
Gluco
Glücksspiel
Go
Gold
Golden
Golf
Good
Google
Gottes
Government
Gr
Gracia
Grad
Graf
Graffiti
Graham
Granada
Grand
Gratul
Gravit
Gre
Green
Gregori
Grimm
Gro
Groningen
Group
Groß
Grund
Grundschule
Grupo
Gruppe
Größe
Gründe
Gründer
Grüne
Gu
Guard
Guatemala
Guide
Guido
Guinea
Gujarat
Gut
Gymnasium
Gymnasti
Günstige
Günter
Günther
H
HA
HAF
HAL
HAUS
HC
HCP
HD
HDTV
HE
HEN
HG
HI
HIN
HK
HL
HM
HMI
HNE
HOTEL
HOW
HP
HR
HS
HT
HTC
HTML
HU
HV
Ha
Habitat
Hacker
Haf
Haiti
Hal
Hall
Hampshire
Hampton
Hand
Handicap
Handling
Handy
Hannah
Har
Harbour
Hardware
Harley
Harrison
Harry
Harvard
Hassan
Haus
Haustier
He
Head
Header
Headset
Heavy
Hebe
Heidelberg
Heim
Heinrich
Helikopter
Henderson
Hepat
Her
Heraus
Herbert
Heritage
Herr
Hersteller
Herz
Hessen
Hi
Hier
High
Highland
Highlight
Highway
Hil
Hilfe
Hilton
Himalaya
Hinweis
Hiroshima
History
Hit
Hitachi
Ho
Hoch
Hoffman
Hol
Holding
Holmes
Holocaust
Holstein
Holy
Home
Honduras
Hop
Hor
Horizontal
Host
Hostal
Hosting
Hot
Hotel
Hoteles
Hoteller
Hotels
House
How
Howard
However
Hub
Huber
Hubert
Hudson
Hugh
Hugo
Human
Hyde
Hygiene
Hyper
Hypno
Hypothe
Hz
Hôtel
Höf
I
IA
IAN
IAS
IATA
IB
IBO
IC
ICA
ICAN
ICC
ICE
ICH
ICHE
ICHT
ICO
ICON
ICS
ID
IDE
IDS
IE
IEC
IEEE
IEN
IER
IES
IF
IFA
IFF
IFT
IG
IGE
IGEN
IGN
IH
IHR
II
III
IKT
IL
ILO
IM
IMA
IMAGE
IME
IMF
IMM
IMO
IMP
IN
INA
IND
INE
INEN
INER
INFORMATION
ING
INGTON
INI
INTERNATIONAL
IO
ION
IP
IPA
IPC
IPO
IPS
IRA
IRC
IRD
IRE
IRG
IS
ISA
ISE
ISI
ISIS
ISO
ISP
ISS
IST
IT
ITA
ITE
ITER
ITES
ITI
ITO
ITS
ITTE
IU
IV
IX
IZEN
Ibiza
Ich
Icon
Id
Ideen
Identity
Idio
If
Ignor
Igor
Ihr
Il
Illustrator
Im
Image
Images
Imam
Immobilie
Imp
Impact
Impl
Implementation
Import
Impressum
In
Include
Inclusive
Independence
Index
Indi
Indoor
Industrie
Inf
Infektion
Info
Informatik
Information
Ing
Inglés
Initial
Initiat
Initiative
Inline
Innen
Innova
Input
Insel
Inserat
Insight
Install
Installer
Institut
Instrument
Instruments
Integer
Integr
Integrated
Intel
Intelligent
Inter
Interactive
Interface
Internal
International
Internet
Interpretation
Interval
Intervention
Interviews
Invalid
Invest
Ion
Irish
Is
Isabell
Islam
Isle
Israel
Ist
It
Italia
Italie
Italienisch
J
JAX
JET
JI
JPEG
JPG
Ja
Jack
Jacques
Jade
Jaguar
Jak
James
Jan
January
Japan
Jardin
Jasmin
Jason
Java
Javascript
Javier
Je
Jean
Jeep
Jefferson
Jeffrey
Jennifer
Jensen
Jeremy
Jerry
Jessica
Jet
Jets
Jetzt
Jh
Jimmy
Jo
Jobs
Johannesburg
John
Johnny
Joint
Jonas
Jonathan
Joomla
Jorge
José
Journal
Jubiläum
Jugend
Jugosl
Jul
July
Jun
Junk
Just
Jährige
K
KA
KAU
KB
KBA
KD
KDE
KE
KEI
KEN
KEY
KF
KG
KI
KING
KIP
KK
KLM
KM
KOM
KONTAKT
KORE
KP
KR
KS
KT
KTOR
KW
KZ
Ka
Kabel
Kabinet
Kaf
Kal
Kaliningrad
Kalkul
Kam
Kambo
Kamera
Kampagne
Kan
Kanal
Kanon
Kansas
Kanton
Kap
Kapitel
Kar
Kara
Karaman
Karaoke
Karate
Karel
Karib
Karlov
Karneval
Kart
Karte
Karton
Kat
Katalog
Kategorie
Katrin
Kaufen
Kaufman
Ke
Kein
Kenn
Kenneth
Kensington
Kentucky
Ker
Kevin
Key
Ki
Kind
Kinder
King
Kino
Kir
Kirsch
Kit
Klasse
Klassiker
Klaus
Klavier
Klebe
Kleidung
Klein
Kleine
Klick
Klima
Knights
Know
Knowledge
Ko
Kode
Koffer
Kol
Kolleg
Kollektion
Kollektiv
Kolumbi
Kom
Kombination
Kommand
Kommen
Kommission
Komor
Kompatibil
Kompetenz
Komponente
Komponenten
Kon
Konferenz
Kongo
Kont
Kontakt
Konto
Kontrolle
Konven
Konzentration
Konzept
Konzern
Kop
Kor
Korean
Korrek
Kosovo
Kost
Kostenlose
Kostenloser
Kr
Kraftstoff
Krebs
Kredit
Kreditkarte
Kreis
Krimi
Krise
Kroati
Krone
Ku
Kuchen
Kultur
Kunden
Kunst
Kur
Kurs
Kurse
Kurz
Kuwait
Kö
L
LA
LAB
LAC
LAF
LAN
LAND
LB
LC
LD
LDR
LE
LEGO
LEI
LEN
LEO
LEON
LER
LET
LEX
LEY
LG
LI
LICH
LICK
LIE
LIM
LINE
LINK
LKW
LM
LN
LOG
LON
LOS
LOSE
LP
LR
LSA
LT
LTC
LUNG
LUS
LUX
LV
LW
LX
LY
LZ
La
Lab
Label
Labels
Labor
Labs
Ladies
Lager
Laguna
Laminat
Lan
Land
Lang
Langue
Larry
Las
Laser
Last
Latte
Lauf
Lautsprecher
Layer
Layout
Le
Leadership
Learning
Leave
Leg
Legacy
Leh
Lei
Leiden
Leistung
Leistungs
Leitung
Lenovo
Leonardo
Leone
Leopard
Leopold
Les
Levant
Level
Li
Liban
Liber
Liberty
Licht
Lido
Liebe
Liechtenstein
Lied
Liefer
Lieferung
Liege
Life
Light
Limburg
Line
Linie
Link
Links
Linux
Lisboa
List
Listen
Listing
Lite
Liter
Lithium
Live
Lloyd
Lo
Lobby
Locations
Locker
Loco
Log
Logic
Logistic
Logo
Loire
Lokomotiv
London
Look
Lorenzo
Los
Lost
Lotus
Louise
Lounge
Lovely
Loyal
Lu
Luc
Luft
Lukas
Lunch
Lux
Luxury
LÄ
Läs
López
Lösungen
M
MA
MAC
MAL
MAN
MANN
MAP
MAT
MATIC
MAX
MB
MC
MD
ME
MEA
MEN
MES
MEZ
MF
MG
MHz
MI
MIC
MIDI
MIK
MIND
MIT
ML
MM
MMER
MMO
MMS
MN
MO
MOO
MOS
MP
MPEG
MPP
MR
MS
MSN
MT
MTP
MTS
MTU
MTV
MU
MUS
MV
MX
MZ
Ma
Maastricht
Mac
Macintosh
Madam
Made
Madeira
Madison
Madonna
Madur
Maestro
Mag
Magazin
Magnesium
Mahmu
Mai
Mail
Main
Maker
Making
Mal
Malaga
Malawi
Malmö
Malware
Man
Management
Manager
Mandarin
Mandat
Manila
Mannheim
Manufacturing
Map
Mapping
Maps
Maqui
Mar
Marcos
Marcus
Margarita
Marianne
Marie
Marine
Marion
Maritim
Mark
Marke
Marker
Marketing
Markt
Markus
Marques
Marrakech
Marriott
Mart
Marten
Martin
Martínez
María
Mas
Maschine
Mass
Massage
Massiv
Master
MasterCard
Mastercard
Material
Math
Matrix
Matthew
Matthi
Mau
Maurice
Mauritius
Max
Maximum
May
Mayor
Maß
McM
Me
Med
Medi
Media
Medikamente
Medina
Meditation
Meer
Mehr
Mein
Meine
Meisterschaft
Mel
Melodi
Membran
Memorial
Men
Mengen
Menü
Mer
Mercure
Meridi
Mes
Messing
Meta
Metal
Meter
Method
Methode
Methyl
Metro
Metz
Mexik
Mi
Michael
Michel
Michele
Michelle
Migrant
Mikro
Mikrofon
Mil
Military
Millennium
Milliarden
Millionen
Min
Minder
Mini
Minimum
Mining
Minister
Minsk
Minute
Miranda
Mission
Mississippi
Missouri
Mit
Mitchell
Mitglied
Mitglieds
Mitsubishi
Mix
Mo
Mobil
Mobile
Mobilität
Mobiltelefon
Modal
Mode
Modell
Modem
Moderator
Moderne
Modul
Module
Modus
Mohamed
Mohammad
Mohammed
Mol
Mon
Monaco
Monica
Monika
Monitor
Monitoring
Monopol
Monro
Mont
Montal
Montenegro
Montgomery
Montpellier
Mor
Morph
Mos
Moscow
Motor
Motorola
Moulin
Mozilla
Mu
Mule
Multi
Multiplayer
Munich
Murphy
Murray
Mus
Museo
Museum
Music
Musik
Must
Mustang
My
MySQL
Myanmar
Mysteri
Má
Märk
Möglichkeit
Mü
Münster
N
NA
NACH
NAT
NB
NC
NCC
ND
NDEN
NDON
NE
NEN
NER
NES
NET
NF
NG
NH
NIC
NIK
NIS
NL
NN
NO
NOME
NOVA
NP
NR
NS
NSC
NSS
NT
NV
NX
NZ
Na
Nach
Nachfolge
Name
Namibia
Nancy
Nathan
National
Nations
Native
Natur
Navigation
Navigator
Ne
Near
Neil
Nein
Net
Network
Networking
Networks
Netzwerk
Neu
Neue
Nevada
New
Newcastle
News
Newsletter
Nexus
Ni
Nicaragua
Nicholas
Nicht
Nicolas
Nicole
Nie
Niedersachsen
Niels
Nikon
Niveau
No
Noch
Noise
Nord
Norden
Nordic
Norm
Normal
Normandi
Northern
Norweg
Nostalgi
Not
Notes
Notre
Nottingham
Nous
November
Novotel
Nr
Nu
Nuev
Nuevo
Null
Nummer
Nuov
Nur
Nutzer
Nylon
Nächste
Nürnberg
O
OCH
ODA
ODER
OECD
OEL
OEM
OF
OGA
OGG
OK
OL
OLA
OLAN
OLED
OM
ON
ONA
ONE
OOL
OP
OPC
OPEN
OPS
OR
ORF
ORK
ORT
OS
OSS
OT
OTE
OW
OX
OY
Ob
Ober
Objekt
Objektiv
Observator
October
Odysse
Of
Off
Office
Official
Offline
Offset
Oh
Ohio
Okt
Olivier
Olympic
Olympus
Oman
Omar
On
One
Online
Ontario
Opel
Open
Opera
Operation
Opt
Optik
Option
Optional
Or
Oracle
Orbit
Orchid
Ord
Org
Organ
Organisation
Original
Orion
Ornament
Oro
Ort
Oskar
Ost
Out
Output
Overlay
Owen
Owner
P
PA
PACK
PAD
PAM
PARIS
PART
PC
PCB
PCC
PCI
PCM
PD
PDA
PDF
PE
PEC
PEL
PER
PF
PG
PGA
PH
PI
PID
PJ
PK
PKK
PKR
PL
PLO
PLP
PM
PN
PNG
PO
POL
PP
PPC
PPE
PPP
PR
PRESS
PRINC
PRO
PRODUKT
PROG
PRS
PS
PSE
PSI
PSN
PSP
PT
PV
PY
Pa
Pablo
Pack
Packaging
Pad
Page
Pak
Paket
Pal
Palau
Palermo
Palette
Palmer
Pan
Panama
Pandora
Panel
Panzer
Paolo
Pap
Par
Para
Parade
Paraguay
Parameter
Paris
Park
Parking
Parkplatz
Parlament
Parlamentar
Parliament
Parque
Part
Partition
Partner
Partnership
Party
Pas
Pascal
Pass
Passage
Passiv
Pat
Patent
Patio
Patricia
Paul
Pauschal
Pause
Pavel
Pay
PayPal
Payment
Pays
Pe
Peking
Pen
Pendant
Penis
Per
Perfekt
Performance
Period
Permanent
Perry
Person
Personal
Perspektiv
Perth
Peso
Peter
Pf
Pfa
Ph
Phantom
Phase
Philippe
Philosophi
Phone
Phosph
Photo
Phuket
Piazz
Pic
Picasso
Piemont
Pierre
Pietro
Pigment
Pike
Pilot
Pin
Pistol
Pitch
Pittsburgh
Pix
Pla
Plan
Planet
Plat
Plattform
Platz
Play
Player
Players
Playlist
Playstation
Please
Plugin
Plus
Po
Point
Pokal
Poker
Pol
Polen
Poli
Politik
Politiker
Poly
Polymer
Pony
Pool
Poor
Pop
Population
Popup
Port
Portal
Portrait
Position
Positive
Post
Power
Pr
Pra
Pre
Preis
Preise
Premiere
Press
Presse
Prestige
Preview
Pri
Primera
Print
Prinz
Privacy
Privat
Privileg
Prix
Pro
Problem
Probleme
Processing
Producer
Produkt
Produkten
Prof
Profil
Profile
Profit
Progno
Programm
Programme
Progressive
Projekt
Projektor
Promotions
Proof
Propaganda
Prophe
Prospekt
Prosper
Prostitu
Prot
Protestant
Protokoll
Prototyp
Provence
Provider
Providers
Provision
Proxy
Prozessor
Präsen
Präsentation
Präsident
Psychiatr
Pub
Publikation
Puebl
Puerto
Pulver
Puma
Punkt
Punta
Pyramid
Q
QA
QE
QF
QS
Qu
Qua
Quad
Qualifikation
Qualität
Quart
Quartier
Que
Quelle
Query
Quest
Quiz
Quote
Qué
R
RA
RAG
RAID
RAL
RAM
RAR
RATE
RATIS
RAU
RAW
RB
RC
RCA
RD
RDEN
RE
REA
REG
REI
REIS
REIT
REN
RER
RESS
REX
RF
RFID
RG
RGB
RH
RICH
RICS
RID
RIF
RIG
RIK
RIMO
RIO
RIS
RIT
RK
RL
RM
RMB
RNA
RO
ROM
RON
ROOM
ROUND
RP
RPG
RPM
RR
RS
RSA
RT
RTL
RUB
RUNG
RW
Ra
Rachel
Rad
Radar
Radio
Radisson
Radius
Rafael
Rah
Railway
Ralph
Ramada
Rang
Rank
Ranking
Rasm
Rat
Rates
Ratings
Ray
Raymond
Re
Reader
Reag
Real
Rec
Reception
Recherche
Recht
Rechtsanw
Recording
Recovery
Recycling
Red
Reebok
Refer
Reg
Regel
Regi
Regina
Region
Regional
Register
Registrierung
Registry
Regul
Regulation
Rehabilitation
Reihe
Rein
Reise
Reisen
Reißverschluss
Relation
Relativ
Release
Relevan
Remote
Renaissance
Render
Rent
Rep
Report
Reporting
Reports
Repository
Republika
Res
Reservation
Residencia
Resident
Residenz
Resolution
Resort
Response
Responsibilit
Ressourcen
Restaurant
Revers
Rheinland
Ri
Ricardo
Rich
Riche
Richtlinie
Rider
Riga
Rights
Ring
Ritter
Rival
Riviera
Ro
Road
Robert
Roberto
Robot
Rocc
Rock
Roh
Roland
Roll
Roller
Rolls
Rom
Roman
Romantik
Room
Rooms
Ros
Rot
Rotary
Roulette
Route
Router
Routin
Royal
Ru
Rubri
Ruby
Rudolf
Rugby
Run
Rund
Runde
Runtime
Russell
Russisch
Russland
Ruth
RÜ
Rück
S
SA
SAE
SAM
SAP
SAR
SAT
SB
SC
SCH
SCHE
SCM
SD
SDG
SDK
SDL
SDN
SE
SEAN
SEC
SEK
SELECT
SEM
SEN
SEPA
SER
SERVICE
SES
SET
SF
SG
SH
SI
SIA
SIMO
SING
SIP
SIS
SITE
SIVE
SIX
SK
SL
SLR
SM
SMA
SMD
SO
SOA
SOE
SOFT
SOFTWARE
SOK
SOP
SP
SPA
SPACE
SPAR
SPEED
SPS
SQL
SR
SS
SSE
SSEL
SSH
SSI
SSL
SSR
ST
STAT
STEIN
STEL
STEP
STER
STM
STOP
SV
SW
SWF
SX
SYN
SYS
SZE
Sa
Safe
Sage
Sahara
Saint
Sal
Salmon
Salomon
Sam
Samen
Sample
San
Sandra
Sandwich
Sanskrit
Sar
Sat
Satellit
Sau
Save
Sc
Scala
Scan
Scanner
Sch
Schaum
Scheiben
Schema
Schengen
Schlacht
Schlafzimmer
Schlei
Schleif
Schließ
Schnittstelle
Schnäppchen
Schon
Schott
Schrauben
Schritt
Schul
Schule
Schutz
Schwarz
Schwe
Schweiz
Schweizer
Schweiß
Schöne
Schönheit
Science
Scientific
Scooter
Scotland
Scott
Scout
Scratch
Screen
Script
Scroll
Se
Search
Secure
Security
See
Seele
Segel
Sehr
Seine
Seite
Sekretari
Sektor
Sel
Semester
Sen
Senator
Send
Sender
Senegal
Sensor
Separat
September
Ser
Sergio
Serie
Series
Server
Service
Services
Servo
Session
Set
Setup
Shampoo
Share
Shared
Sharing
Sharon
Sheffield
Shield
Shirt
Shirts
Shooter
Shop
Shot
Show
Showroom
Shuttle
Si
Siam
Sicherheit
Sicht
Sid
Side
Sie
Sieben
Sieg
Sieger
Sierra
Sigma
Sign
Signal
Sil
Silent
Silicon
Simone
Simulation
Single
Singles
Siren
Site
Sitemap
Sites
Situation
Skandal
Skandinavi
Ski
Skle
Skop
Slave
Slideshow
Small
Smart
Smartphones
Snack
So
Socket
Sofort
Soft
Software
Sol
Solar
Soldat
Solid
Somalia
Sommer
Son
Song
Sonic
Sonstige
Sophie
Sorte
Sortiment
Sound
Sounds
Source
Southern
Sp
Spa
Space
Spam
Span
Spanish
Speak
Special
Speed
Speise
Spencer
Spend
Spezialist
Spiel
Spiele
Spielzeug
Spiral
Sport
Sports
Spot
Sprache
Spray
Spread
Sprech
Sprecher
Srpsk
St
Sta
Stad
Stadt
Staffel
Stand
Standard
Stanford
Stanley
Star
Stars
Start
Stat
State
Station
Status
Statut
Std
Stein
Stempel
Steril
Sterling
Sterne
Steuerung
Stich
Stick
Sticker
Stiftung
Stil
Stimul
Stock
Stop
Stopp
Store
Str
Stra
Straight
Strand
Strasbourg
Strasse
Strategi
Strategy
Straße
Stream
Strecke
Street
Streit
String
Strom
Stuart
Student
Studie
Studio
Sturm
Style
Stück
Su
Sub
Such
Suche
Sudan
Suisse
Suite
Summit
Sun
Sunny
Super
Superior
Superstar
Supply
Support
Sushi
Sustainable
Swarovski
Sylvi
Symbol
Symphon
Symptom
Sync
Synchron
Syndrom
Synthes
System
Sz
Szene
Süd
T
TA
TAC
TAR
TAS
TB
TC
TCG
TCP
TD
TDI
TE
TEAM
TEC
TECH
TEL
TEN
TER
TEX
TF
TG
TH
THE
TI
TIG
TING
TION
TK
TL
TM
TO
TOM
TOR
TOS
TP
TPP
TR
TRA
TRE
TRIP
TRS
TS
TSE
TT
TTE
TU
TUI
TUNG
TV
TW
TX
TZ
Ta
Tab
Tag
Tags
Taipei
Tak
Tal
Tales
Talk
Tampere
Tan
Tango
Tank
Tap
Tar
Target
Tarif
Tarragona
Task
Tastatur
Taste
Te
Team
Teatro
Tec
Tech
Technical
Technik
Technische
Technologie
Tee
Teenage
Teil
Teile
Tel
Tele
Telefon
Teleskop
Television
Tempel
Templates
Tenerife
Ter
Teresa
Term
Termin
Termine
Terra
Terrassen
Terrorism
Terry
Test
Tester
Testing
Text
Texte
Texture
Th
The
Thema
Theme
Thermal
These
Thessaloniki
They
Third
This
Thread
Thriller
Thro
Thumbnail
Ti
Tick
Ticket
Tickets
Tier
Tim
Time
Timer
Tipps
Titel
To
Toilette
Token
Toledo
Toleran
Tom
Tony
Tool
Toolbar
Tools
Top
Tor
Torino
Torrent
Toscan
Toulouse
Tour
Touren
Tourism
Toute
Tr
Tra
Trace
Track
Tracker
Tracking
Trade
Trader
Traffic
Training
Traktor
Trans
Transfer
Transmission
Transparent
Transport
Transporter
Traveller
Tre
Treff
Treib
Trekking
Trevi
Tri
Trial
Tribunal
Tribut
Trie
Trigger
Trinity
Triumph
Tro
Trop
Troph
Tropical
Tru
Tu
Tuber
Tulip
Tunes
Tuning
Tur
Turin
Turismo
Turkmenistan
Turn
Tutorials
Typ
Type
Türk
U
UAB
UBS
UC
UCH
UCK
UEFA
UEN
UER
UF
UG
UH
UK
UKA
UL
UM
UME
UMP
UN
UNG
UNGE
UNH
UNO
UNS
UNTER
UP
UPE
URBAN
URI
URL
US
USA
USB
USD
USE
USS
UTF
UTS
UU
UV
UX
Ubuntu
Uganda
Uh
Ukraine
Ul
Um
Un
Und
Underground
Ungar
Uni
Union
Unit
Univers
Universal
Universität
Unser
Unter
Unterkunft
Unternehmen
Unternehmer
Unterstützung
Up
Update
Upgrade
Upload
Upper
Ur
Ural
Urte
User
Users
Utilities
Utility
Utrecht
V
VA
VB
VC
VD
VE
VER
VERS
VERT
VG
VGA
VI
VIEW
VIS
VISA
VIT
VM
VN
VO
VON
VOR
VP
VR
VST
VV
Va
Val
Valentino
Van
Vapor
Variable
Variante
Vatikan
Ve
Vector
Vene
Venture
Ver
Veranstaltungen
Verantwort
Verarbeitung
Verfügbarkeit
Verhältnis
Verkauf
Verlag
Vermittlung
Verona
Vers
Versandkosten
Version
Versuch
Very
Veröffentlichung
Vi
Via
Viagra
Vibration
Video
Videos
Viel
View
Viewer
Villa
Vinci
Vinyl
Viola
Vir
Virus
Visa
Vision
Vita
Vo
Vodafone
Vol
Volleyball
Volvo
Vor
Vorbereitung
Vorlage
Vorsitzende
Vorstand
Vous
Voyage
W
WAP
WASH
WAV
WB
WC
WD
WE
WEI
WEL
WEN
WER
WF
WG
WHO
WI
WIE
WIFI
WIN
WIR
WK
WM
WMA
WN
WO
WP
WR
WS
WT
WTO
WU
Wagen
Wake
Wal
Walking
Wall
Wallet
Wand
War
Ware
Warner
Warren
Was
Wasser
Watson
Wayne
We
Web
Webcam
Webseite
Website
Weekly
Wege
Wei
Weiter
Weitere
Weiß
Welcome
Well
Welt
Wenn
Werbung
Werk
Werkstatt
Werner
Werte
Wertung
West
Westfalen
Westminster
When
Where
While
Whirlpool
Whisk
Whistle
Why
Wi
Widerstand
Widget
Wie
Wien
Wifi
Wiki
Wikimedia
Wild
Wilder
William
Willkommen
Win
Wind
Windows
Windsor
Winter
Wir
Wire
Wirtschaft
Wizard
Wochenende
Wohnung
Wohnzimmer
Wolfgang
Wood
Wordpress
Words
Work
Working
Works
World
Worldwide
Worth
Writer
Württemberg
X
XA
XF
XI
XIII
XIV
XIX
XL
XML
XP
XVIII
XX
Xbox
XviD
Y
YK
YM
Yamaha
Yorkshire
You
Your
Youth
Z
ZB
ZE
ZEN
ZER
ZF
ZIP
ZNE
ZR
ZT
ZUR
ZW
Za
Zagreb
Zahlen
Ze
Zeichen
Zeit
Zeitschrift
Zen
Zentrum
Zertifikat
Zi
Zimmer
Zo
Zone
Zoom
Zu
Zum
Zurück
Zw
Zwang
Zwar
Zürich
[
\
\"
]
],
].
]:
_
`
a
aan
ab
aba
abad
abb
abba
abbia
abei
abel
abend
aber
abh
abhängig
abi
abila
ability
ablag
able
ables
ablon
ably
abnehmen
about
abre
abri
abrik
abs
abschluss
absolute
absolvent
abte
abteilung
abung
abwer
abyrint
ac
aca
accessible
accio
acco
according
accueil
ace
aceful
ach
ache
achen
aches
achim
achmittag
acht
achten
achter
achtung
acion
aciones
ación
ack
acker
acqua
across
acs
act
action
activité
actually
ad
ada
adapter
adar
adas
add
addam
added
additional
ade
adeleine
adequa
adern
ades
adet
adeus
adezimmer
adi
adin
adiz
admin
administrat
administrative
ado
ador
adores
ados
adresse
adressen
ads
adults
adura
advice
aemon
af
aff
affaires
affin
afghan
afia
afrika
afrikan
after
ag
aga
against
agan
agara
age
agen
agenda
agens
agent
agentur
ager
ages
aggio
aggiore
aggregate
aggressiv
agi
aging
agnifique
agnoli
agrada
agrar
agreement
agré
agten
agua
agung
agus
ah
ahia
ahm
ahon
ahrscheinlich
ahrung
ai
aider
ailway
aine
air
aire
aires
ais
aison
aj
aja
ajo
ak
akademie
ake
akis
akkredit
akland
aks
aksin
akt
akte
akti
aktion
aktionen
aktiv
aktive
aktiver
aktivier
aktuell
aktuelle
akuten
al
ala
alacio
alamanca
alarm
alazzo
alberg
album
aldo
aldorf
ale
alem
alement
alen
ales
algorithm
algun
ali
alia
alias
aliban
aliforni
alis
alisation
alitativ
alität
alkohol
all
alla
alladium
allah
alle
allem
allen
aller
alles
allgemein
allowed
allows
allta
ally
alma
alone
along
alp
alpen
alphabet
alpine
already
als
also
alt
alta
altan
alte
alten
alter
altern
alternative
alternativer
alterung
altet
alto
altung
alus
always
am
ama
amara
amba
ambia
ambiente
ambik
ambition
ame
ameleon
amen
amenities
ament
amente
amento
amerika
amerikane
amerikanische
ami
amid
amin
aming
ammar
amme
ammen
ammlung
ammon
ammut
amo
among
amos
amount
amour
amp
ams
amstag
an
ana
analyse
analysen
analyst
anas
anba
anbieter
ance
anche
anci
ancient
ancy
and
anda
ande
andels
anden
ander
anderen
anderer
anders
andi
andkreis
ando
andre
andro
andung
ane
anfall
anfang
ang
angan
ange
angebot
angebote
angeboten
angel
angelo
angels
angere
ango
angst
anhänger
ani
ania
animation
anja
ankam
anker
ankt
anlage
anlagen
anleitung
anmu
ann
anna
annak
anne
annen
anni
annon
annoy
annt
annte
annual
année
ano
anordn
another
ans
anschluss
anse
ansicht
anski
anspruch
anstalt
ant
anta
antas
antastisch
ante
anteil
anten
antenne
antes
anthrop
anti
antis
antitativ
anto
antrag
antrieb
ants
antworte
antworten
anwalt
any
anything
anza
anze
anzeige
anzeigen
ap
aparte
apartments
apazität
apie
apo
app
apparat
appartement
appear
appen
applika
appointed
appreciate
appréci
appuccin
aprika
après
ar
ara
arab
aract
aradigm
arak
arakteristik
arald
aran
arbecue
arbeit
arbeiten
arbeiter
arbeitet
arbeitung
arc
arch
archa
archi
archie
architektur
archiv
archive
arcours
arcraft
ard
arde
arden
ardi
ardinal
ardini
ardo
are
area
areas
aren
arena
arest
arfüm
argo
argument
arhus
ari
aria
arian
ariat
aries
ariety
arikat
ario
arios
aristo
arium
ark
arktplatz
arlehen
arlsruhe
arlsson
arm
arme
armee
armen
armes
arms
arna
arnas
arney
arno
aron
arote
arr
arrang
arrangement
arrative
array
arre
arren
arrer
arrest
arrett
arritz
arrival
arrow
arse
arsenal
arsi
arsteller
arstellung
art
arte
arten
artet
artha
artig
artige
artikel
artikeln
artin
artis
artisan
artnerschaft
arum
arvey
ary
arzt
as
asa
asaki
asca
asco
ase
asi
asiat
asier
asily
asing
asis
asked
asking
asmus
aspar
aspersky
assa
assau
asse
assen
assend
assende
asser
assette
assi
assist
assistent
asso
assume
ast
asta
aste
asteln
asto
astra
astro
así
at
ata
atapult
atastroph
atastrophe
ate
ated
aterina
ates
ateur
atgeber
ath
athaus
athedral
atheter
athlon
athon
ati
atie
atik
atili
ating
ation
ational
ationen
ations
ativ
ative
atives
atlanti
atmosph
atmosphere
ato
aton
ator
atori
atorial
atorium
ators
atra
atratze
atrium
ats
attack
attaya
attent
atto
attoli
attr
attractions
atur
atzen
atürlich
au
auber
auch
audiovisu
auer
auern
auf
aufbau
aufgaben
aufnahme
auftrag
aufzeit
aug
auge
aught
auhaus
auktion
ault
auna
aunt
aus
ausanne
ausbildung
ausch
auschen
ausend
ausgabe
ausschuss
ausstattung
ausstellung
austausch
auswahl
ausweis
aution
auto
automat
automaten
automation
automatis
autor
autre
autres
auté
aux
auße
av
ava
avano
avaria
ave
avec
avez
avi
aving
avoir
avour
away
awi
axe
axial
aximilian
axis
axophon
aya
ayette
aypal
az
azione
azprom
azzo
aßnahme
aßnahmen
aï
aña
año
años
b
ba
baby
bach
bacher
back
backen
bad
bade
baden
bags
bah
bahn
bahnhof
bak
bal
balan
balance
bald
baldi
balk
balkan
ball
ballon
ban
band
banden
bandes
bands
bank
banken
banker
bankrot
banner
bar
bara
barak
bard
bare
baren
barer
bares
barkeit
barometer
barrier
barriere
bart
bas
base
based
basic
basiert
basierte
basis
bass
basti
bat
baten
batterie
bau
bauen
bauer
baum
baut
bauten
bay
bb
bbe
bbel
bbing
bble
bbs
bc
bd
bdeckung
be
beam
bearbeitung
beat
beauftragte
beba
bec
because
becher
beck
becken
become
bed
bedarf
bede
bedienung
bedingt
bedingungen
bee
beek
beer
beere
beg
begeister
begeistert
beginn
begleite
begren
begriff
beh
behandlung
beharr
behind
behörde
bei
beide
bein
being
beispiel
beitrag
bek
bekannt
bekleidung
bekomme
bekommen
bel
belag
belang
belarus
bele
beleuchtung
beli
believe
bell
bella
bellen
bello
beln
bels
belt
ben
benden
bender
bene
benen
bener
benutz
beobacht
ber
bera
berater
beratung
bere
berechn
berechtigt
bereich
bereiche
bereit
bereite
bereits
bereitung
berg
berge
bergen
berger
bergs
bericht
berichte
berichten
berlin
bern
bernachtung
berra
berry
bert
berte
beruf
beruh
bes
bescha
beschreib
beschreibung
beschränk
beschwer
beschäftig
besitz
besitzer
besonder
besser
best
bestand
bestanden
beste
besten
bestimm
bestimmung
beständig
bestätig
besuch
bet
bete
beteilig
betet
beton
betrag
betreu
betreuung
betri
betrieb
betrieben
bett
bette
betten
between
beu
beutel
bewahr
bewegung
bewerbe
bewertung
bewertungen
bewu
bewusst
bey
bez
bezahl
bezeichn
beziehung
bezogen
bezogene
bf
bg
bgeordnete
bh
bhala
bhol
bhängigkeit
bi
bian
bibliothek
bido
bie
bieg
bien
bier
biet
biete
bieten
big
biger
bik
bike
biker
bikes
bil
bilan
bilateral
bild
bilde
bilden
bilder
bildet
bildung
bildungen
bilis
bilität
billig
billige
bin
bind
binde
binden
binder
bindung
bine
bing
bio
biologie
biotik
bir
bird
bis
bishe
bit
bitur
biz
bl
bla
blach
blade
blage
blas
blatt
blau
ble
blech
bleib
bleiben
blend
blende
bler
bles
bliche
blick
bligatori
bling
blitz
blo
block
blocks
blog
blogs
blu
blue
blumen
blut
blätter
blé
blö
bner
bo
board
boards
bock
boda
boden
body
bogen
bohr
bok
bol
bola
bold
boli
bolla
bomb
bon
bonds
bone
bonne
bonus
book
booking
books
boom
boot
bor
bora
bord
border
borg
borgen
born
borne
borough
bos
boss
bot
boten
bots
bottle
bound
bour
bourg
boutique
box
boy
br
bra
brach
bracht
branche
branchen
brand
brandt
brann
brau
brauch
brauche
brauchs
braucht
braun
braut
bre
bread
break
brechen
brecher
brechnung
brede
breit
breite
brems
bremse
brenn
brenner
brett
brick
bridge
brief
brig
brillant
brilliant
bring
bringe
bringen
bringer
bris
brit
britannien
bro
broche
broken
brook
brot
browser
bru
bruch
bruck
brud
brun
brunn
brunnen
brä
brö
brü
brück
brücke
brücken
bschnitt
bsolutely
bsolvent
bsorption
bst
bstand
bsurd
bu
buch
buchen
bud
budget
buena
buffet
bug
bugs
build
building
built
bul
bund
bunden
bundes
bung
bungen
bur
burg
burger
burn
burt
bury
bus
business
bussen
buster
busy
but
buti
butter
buy
bw
bwe
bwehr
by
byen
byl
byte
bäck
bänder
bändi
bär
bö
börse
bücher
bür
bürger
büro
bürste
büt
c
ca
caban
cache
cades
cadre
cafe
café
cal
calan
call
called
calme
cam
cambio
camere
camp
can
cano
cap
car
cara
card
cards
care
carpet
cars
cart
cas
case
cases
casino
cast
castle
cat
catch
cause
cc
cca
ccelerator
cchio
ce
cel
cell
cello
celt
cen
cent
center
centre
ception
cer
certain
ces
cette
cf
ch
cha
chach
chain
chal
challenges
chan
chance
chang
change
changed
changes
channels
chaos
char
chara
chard
charme
chart
charter
chas
chasi
chat
chatz
chaut
che
check
checked
chef
chefs
cheinwerfer
chel
cheln
chem
chemie
chemin
chen
chenken
chenko
cher
cherche
chern
chers
ches
chester
chette
chev
chez
chhaltig
chi
chicht
chick
chicken
chieds
chief
chien
chienen
chiff
chik
child
chilen
chill
chiller
chim
chimmel
chin
china
chines
ching
chip
chirurg
chirurgie
chische
chizo
chka
chlafzimmer
chlauch
chlepp
chleswig
chlich
chliche
chliess
chlor
chmal
chmann
chmaschine
chmitt
chmutz
chner
cho
chock
chon
choose
chor
chos
chose
chow
chrank
chreibtisch
christ
chromat
chrome
chronologi
chsen
chsten
chtbar
chte
chten
chtend
chter
chtern
chtet
chtigkeit
chtung
chu
chung
chwa
chwach
chwanger
chwell
chwerpunkt
chwester
chwierig
chwierigkeit
chwil
chwä
chwäche
chy
chäden
ché
chüler
ci
cia
ciano
cie
cier
cife
cil
cin
cina
cing
cino
cio
cion
ciones
cious
city
ción
ck
cke
ckel
cken
cker
ckert
ckig
cking
ckner
cks
ckt
ckte
claim
class
clav
cle
clean
cleaning
clear
client
cliff
climate
clip
clips
clock
close
closed
club
clubs
cluster
cm
cn
co
coast
cock
cod
code
coder
codes
coeur
coffee
col
cola
cole
colm
colo
cological
color
com
combination
coming
commerce
common
comoda
computer
con
conditioning
conf
config
configure
confortable
connect
container
contains
contemporary
content
continental
control
controlled
controller
converter
copter
cor
coration
corder
core
corner
cort
cos
cosy
couch
could
couleur
coup
courses
court
cover
cp
cq
created
creation
creme
critical
cro
crobat
cross
crypt
cu
cual
cuando
cula
cup
curi
cus
cut
cuzzi
cy
cycle
cz
czyński
d
da
dach
dacht
dachte
dad
dafi
dal
dale
dalen
dam
damer
damm
dan
dance
danke
danken
dar
daran
darf
das
dass
dat
data
date
dated
daten
dates
dating
datum
dauer
davo
day
dazu
db
dbe
dded
ddington
de
deau
debatt
debatten
deck
decke
decken
deckung
default
defini
definition
dekoration
dekorativ
del
delicious
delik
dell
della
delle
dello
deln
dels
delt
delta
deluxe
dem
demokrat
demonstration
demont
demás
den
dende
denk
denke
denken
dens
dense
dental
dentro
depende
depot
der
deral
dere
deres
derlande
derma
ders
des
desde
design
designed
designer
desk
dessa
desse
desso
dest
destination
det
details
dete
deutsch
deutsche
deutschland
deux
dev
df
di
dia
diagnose
diagonal
diagram
dialog
diametr
dian
dicate
dicated
dicht
dichte
dick
dictionary
didakt
die
dien
dienen
diens
dienst
dienste
diensten
dient
diente
dies
diesel
diff
differenzi
dig
dige
digen
diger
digitale
digt
dijk
dik
diktatur
dil
dim
dimension
dimensional
diment
din
dine
dinero
ding
dingen
dining
dinner
dio
dioxid
diplom
diploma
dir
dire
direct
direkt
direkte
direktor
direktori
dirty
dis
disch
dische
disk
diskussion
diskut
display
disposition
distan
distribution
distrikt
dit
diterran
diteur
dition
ditionen
div
diven
divers
diverse
diz
dling
dll
do
doc
doch
dock
docs
does
dog
doktrin
dokument
dokumentation
dol
dolf
doll
dolph
dom
domain
domi
don
donde
dones
dong
doni
donna
donner
dont
door
doppel
doption
dor
dorado
dores
dorf
dorfer
dorff
dorm
dorp
dors
dort
dos
dose
dosis
doskop
dossier
dot
dotti
dou
down
download
downtown
dowski
dpi
dra
drah
drain
drama
dre
dreh
drei
dreif
drenalin
driften
drig
dring
dringen
drink
dritt
drive
drogen
droh
droit
drom
dron
dros
dru
druck
dry
drück
drücken
dste
du
dua
dub
duction
duft
duk
duktion
dul
dum
dump
dun
dung
dunkel
dur
durch
duren
during
dus
dusch
duziert
dwe
dy
dyn
dynami
dynamik
dzi
dziel
dä
dän
dé
dün
dür
dürf
düs
e
each
eagle
ealth
early
eating
eau
eaux
eb
ebe
ebeb
ebel
eben
ebens
ebets
ebi
ebinar
eblich
ebne
ebt
ebung
eburg
ebühr
ebühren
ecchi
ecchio
ecco
ech
echanism
eche
echisch
echos
echt
echte
echten
echter
eck
ecke
ecken
ecker
ecki
ecklenburg
eckt
eco
ect
ed
edaille
edarf
ede
edel
eden
edenk
eder
edere
edes
edge
edienung
edingungen
edition
editions
editor
edu
edusa
eeds
eel
eeland
eeling
eerd
ef
efahr
efe
efere
eferendum
efestig
eff
effekt
effekten
effektiv
effer
efficient
effizien
eft
efter
efühl
eg
ega
egaard
egapixel
ege
egel
egemon
egen
eger
egg
eggae
eggen
egger
eggio
egisseur
egli
egna
egne
egner
egnet
ego
egriff
egter
egut
eheimnis
ehens
eher
ehl
ehn
ehr
ehrt
ehrung
eht
ehälter
ehörden
eich
eichnung
eid
eidet
eien
eifen
eigene
eign
eignet
eile
eilen
eilige
eiligen
eille
eilnahme
ein
einander
einbau
einde
einem
einen
einer
eines
einfach
eingang
einheit
einheiten
einig
einige
einiger
eink
einkommen
einrichtung
einrichtungen
eins
einsatz
einstellung
eintr
einwand
einzel
eira
eiro
eisen
eiser
eist
eisure
eit
eiterlesen
eith
either
eizen
eiß
eiße
eißen
ej
ejo
ek
eka
ekannt
eken
ekka
eko
ekre
eks
ekten
ekti
ektion
ektiv
ekuti
el
ela
elanchol
elberg
elche
elder
ele
elefonnummer
elegante
elegenheit
elektrisch
elektron
elektronik
element
elementen
elen
eler
elevator
elfast
elfen
elfer
elho
eli
elief
elige
elin
elingen
elipe
elite
elix
ell
ella
ellas
elle
ellen
ellente
eller
elles
ellett
elli
ellige
ellini
ellis
ello
ellos
ellow
ells
ellt
elmann
elme
elo
elon
elor
els
elsen
elt
elte
elten
elva
ely
em
ema
emand
embarg
embe
ember
emberg
embry
eme
ement
ements
emikalie
emissions
emma
emorandum
emos
emotional
emp
empel
emper
empfehlen
empfehlung
empfindlich
empty
en
enachrichtigung
enario
enau
enbach
enberg
enberger
enburg
ence
encia
encore
ency
end
enda
endam
ende
enden
ender
enders
endes
endet
endite
endlich
endo
endorf
endra
endre
endt
endung
ene
enehmigung
enei
energie
enes
enetik
enfeld
eng
enga
engagement
enge
engem
enger
engine
england
englisch
enhausen
enheim
enheit
enhof
enia
enial
enice
enie
enig
enige
enkel
enkirchen
enkla
enkmal
enko
enkt
enkung
enland
enne
ennen
ennenlern
enntnis
enntnisse
enorm
enough
ens
ensation
ensburg
enschaft
ense
ensemble
ensen
enses
ensi
ension
ensionen
enstein
ensure
enswert
ent
entagon
ente
enter
entera
entes
entfern
enthal
enthalt
enthouse
enti
entier
entimeter
entin
entire
entium
entour
entre
entri
entrifug
entry
ents
entscheide
entscheidung
entspr
enttä
entual
entwickel
entwicklung
entzündung
enwald
enweg
enza
enze
enzi
enziale
enä
eous
epa
epel
epidemi
eppelin
eppich
epsi
equenz
equip
equipped
equivalent
er
era
erade
erald
eramik
erantwortung
eras
erat
erba
erbare
erbe
erbesserung
erbit
ercussion
erd
erde
erden
ere
erechnung
erechtigung
erede
eredet
erei
ereinbarung
ereits
ereitschaft
eremo
eren
erend
erende
erer
eres
erez
erfahren
erfahrung
erfahrungen
erfass
erfolg
erforder
erfreu
erfügung
ergangen
ergas
ergebnis
ergebnisse
ergib
ergän
erhaft
erhalten
erhard
erhof
erhält
erhöh
eri
erial
eridian
erie
erienhaus
erige
erin
ering
erinnen
erinner
eripher
eris
erische
erischen
erius
erja
erkeley
erkenn
erkennung
erklär
erklärung
erkmale
erksam
erkäufer
erland
erlang
erleben
erlebnis
erlei
erler
erletzung
erlo
erlusconi
erlä
erlängerung
ermann
ermietung
ermittel
erna
erne
erneu
ernhard
ernis
erno
ernst
ernstein
ernández
ero
erobic
eron
eros
erpflichtung
errand
errege
erreira
error
errschaft
erry
ers
ersailles
ersatz
erschein
erschel
erschieden
erschw
ersdorf
erse
erset
erson
erst
erstatt
erstattung
erste
erstellen
erstellung
ersten
erster
erständnis
ersönlich
ert
erte
ertifikat
ertrauen
ertrauens
ertreter
erugia
erusalem
erwart
erweise
erweiter
erwendung
erwer
erwor
erwä
ery
erzeichnis
erzeug
erä
eränderung
eräusch
eröff
es
esch
eschirr
eschleunig
eschluss
eschrieben
eschwerde
esco
escu
escue
ese
esen
eservoir
esichts
esie
esitzer
esmal
espace
espacio
especially
espresso
esse
essel
essen
essential
essentiel
esser
essere
esses
essi
essimis
essin
essione
essive
est
esta
estal
estan
estas
este
esten
estens
ester
estern
esti
estimmungen
estos
estä
estätigung
et
eta
etage
etan
etano
etat
etc
ete
eteiligung
eten
eter
etes
eth
ethanol
etik
etikett
eto
etreiber
etroffen
ets
etscher
ett
etta
ette
ettei
ettel
etten
etter
ettes
etti
ettin
etting
ettlement
etto
etty
etwa
etz
etzte
euch
euf
eugen
eugung
eur
eure
euren
euro
europa
europe
eurs
eus
euse
euses
eutel
eutet
eutung
eux
euze
ev
eva
eve
evelt
even
evening
event
events
ever
everly
eves
evi
evo
evt
evölkerung
ew
ewa
ewalt
ewe
ewebe
ewer
ewertet
ewinde
ewski
ewu
ewusstsein
ewässer
ex
excelente
excellence
exclusive
exe
exemplar
exikon
exist
expansion
expected
expensive
experiment
expert
experten
explod
explosion
expo
exponen
export
exposition
ext
extra
extrakt
extravagan
extrem
extreme
eye
ez
eza
eze
ezension
ezi
ezirk
ezza
ezzo
eña
f
fa
fabrik
face
facet
fach
fache
fact
fad
fada
fade
faden
fah
fahr
fahren
fahrer
fahrt
fahrten
fahrzeug
fahrzeuge
fair
faire
fakt
faktor
faktoren
fal
fall
fallen
falls
false
falt
falz
fam
familie
familien
famous
fan
fand
fang
fange
fangen
fangs
fanne
fans
fantasie
far
farbe
farben
farbig
farm
farr
fas
faser
fass
fasse
fassung
fast
fat
fats
fault
fax
fazi
fe
feat
feder
fee
feed
feet
fehl
fehlen
fehler
feier
feil
feind
feira
fekt
fekte
fel
feld
felder
feldt
fell
feller
fels
felt
fen
fence
fense
fensiv
fensive
fenster
fer
ferenze
ferien
fern
ferra
fers
fert
fertig
fertigung
fest
feste
festen
fester
festival
fet
fetch
fett
fette
feucht
feuer
few
ff
ffe
ffektiv
ffel
ffen
ffensive
ffentlich
ffizi
ffizienz
ffler
ffnung
ffnungszeiten
ffordable
ffshore
fft
fi
fiant
fick
fiel
field
fields
fig
fighter
figur
figuren
fil
file
files
film
filme
filmen
films
filter
filtr
filtration
fin
finale
financial
finanz
finanzierung
find
finden
finder
findung
finger
finitely
finition
fino
fir
fire
firma
firme
fisch
fish
fit
fix
fixed
fiz
fizi
fjord
fl
fla
flag
flagg
flamm
flamme
flank
flasche
fle
fleck
fleisch
fler
fleur
flex
flexibilit
flexible
flexion
fliegen
flies
flik
flog
flora
flot
flow
flu
flug
fluss
flut
fly
fläche
flächen
flö
flüge
flügel
flüssig
fo
fois
fok
fokus
folg
folge
folgen
folie
folio
follow
following
folt
fon
fond
fonds
font
food
for
force
ford
forder
forderung
forderungen
foreign
forget
form
formal
format
formation
formel
formen
former
formular
formulier
fors
forschung
fort
forte
forum
forums
fossil
fot
foto
fotograf
fotografie
fotos
fr
fra
frag
frage
fragen
fragil
fragment
fragt
frame
franca
frank
frau
frauen
fre
freak
fred
free
frei
freie
freien
freiheit
frem
frequenz
freud
freude
freund
freunde
freundlich
freundliche
fri
fridge
fried
frig
frisch
frist
friste
from
front
frucht
frä
frö
früh
fst
ft
fte
ften
fter
ftet
ftig
ftige
ftp
fu
fuel
fug
fuge
fuhr
ful
full
fully
fun
fund
funde
funden
fung
funk
funktion
funktionen
fur
furb
furt
further
fus
fusion
fuss
futter
fuzi
fuß
fy
fÃ
fähig
fähige
fähigkeit
fähr
fäl
fäll
fälle
fällen
fällig
fällt
fält
fäng
fär
för
förder
förderung
fü
füg
fühl
fühle
führen
führer
führt
führung
füll
füllung
für
g
ga
gaard
gabe
gaben
gabung
gada
gaden
gal
gala
galerie
gales
gall
gallo
galt
game
games
gan
ganda
gang
gangen
gangs
gann
ganz
gar
garage
garanti
garantie
gard
garde
garden
gardens
gari
garten
garve
gas
gasse
gast
gat
gate
gatt
gatta
gau
gawa
ge
geb
geben
geber
gebiet
gebiete
gebirg
geboren
geboten
gebracht
gebraucht
gebuch
gebunden
gebung
gebäude
gebühr
gebühren
ged
gedacht
geeignet
gefahr
gefahren
gefallen
gefunden
gefä
gefähr
gefü
gefühl
geführt
gegangen
gegeben
gegen
gegn
gegner
geh
gehalt
gehalte
geheim
gehen
gehend
gehol
geht
gehör
gehörig
geil
geir
geist
gekommen
gel
gelade
gelang
gelassen
gelb
geld
gele
gelegen
gelegt
gelenk
geler
gelese
gelig
geln
gelt
gelungen
gelände
gem
gemacht
gemein
gemeinde
gemeins
gemeinschaft
gemis
gen
gena
genan
genau
gend
gende
gender
gene
genehm
gener
general
generation
generations
generativ
generator
genes
genetik
genheim
geno
genommen
gens
gensen
genstand
gent
gento
genus
genze
genzi
geo
geordnet
georgi
georgia
ger
gera
gerah
gere
gerecht
gerechten
gereg
gericht
gerichte
gerichtet
gerichts
gering
geringe
german
gern
gerne
gers
gerät
geräte
ges
gesamt
gesch
geschenk
geschichte
geschlagen
geschlossen
geschmack
geschnitten
gescho
geschoss
geschrieben
geschwindigkeit
geschäft
gesehen
gesel
gesellschaft
gesetz
gesetzes
gesetzt
gesi
gesicht
gesin
gespräch
gessen
gestalte
gestaltung
gestel
gestellt
gesteuert
gestor
gesund
get
getragen
getriebe
getting
gewalt
gewer
gewerk
gewicht
gewinn
gewo
gewor
gewöhn
gewöhnlich
gezogen
gezw
gg
ggage
gge
gger
ggf
gging
ggression
ggy
gh
gher
ghi
gi
gia
gib
gide
gie
gier
gif
gift
gifte
gig
gigante
gige
gil
gilt
gin
ging
gingen
gio
gios
gir
gis
gislativ
gitter
gium
given
giving
gl
glamour
glas
glat
glaub
gle
gleich
gleiche
gleichen
gleicher
glement
gler
gli
glichen
glieder
gling
glio
glione
global
glomerat
glu
glä
glück
gna
gnade
gner
gnet
gni
gno
gnome
go
going
gol
gold
golden
golf
gon
gone
goni
gons
gor
gos
got
gott
gouvern
gouvernement
gr
gra
grab
graben
grad
grade
graden
grades
graf
grafen
grafik
grafisch
gram
gramm
grammat
gramme
gran
grande
grandes
graph
graphie
grau
grav
gre
gree
grega
gregation
greif
greifen
gren
grenz
grenze
grenzen
gress
gression
gressiv
gri
grid
griff
griffe
griffen
grill
gripp
griturismo
gro
grosse
grott
group
groups
grove
growing
groß
grub
gruen
grund
grunde
grundlag
gruppe
gruppen
grä
größ
größe
grün
gründ
gründe
gründer
gründung
gst
gt
gte
gter
gu
gua
guard
gue
gueira
guer
guera
gues
guess
gui
guide
guin
guine
guis
gulier
gummi
gun
gung
guns
gur
gurt
gus
gut
gute
gutes
gutschein
guy
gué
gy
gypte
gypti
gä
gäng
gänge
gänger
gär
gäst
gé
göt
gü
gül
günstig
günstige
gür
h
ha
haar
hab
habe
haben
haber
habi
habit
habitació
hack
had
hael
haere
hafen
haft
hafte
haften
hagen
hahn
hai
hain
haken
hal
halb
hale
half
hall
halle
hallen
hals
halt
halte
halten
halter
haltige
haltung
ham
hammer
han
hand
handel
handeln
handels
handelt
handen
handler
handlung
handlungen
handwerk
handy
hang
hannon
hanol
hansa
haps
har
hara
hard
hardt
hardware
harf
harina
harisma
harmon
harmonie
harmonik
harra
hart
has
hassis
hat
hatte
hatten
haub
hauer
hauffeur
haupt
haus
hause
hausen
hauser
haushalt
haut
haven
having
hbar
he
head
heater
heb
hebel
heber
hed
heen
heer
heft
hefte
hei
heid
heikh
heil
heilig
heim
heimer
hein
heira
heiss
heit
heiten
heiz
heizung
hel
held
hele
helf
hell
heller
helm
helo
help
hem
hemat
hemen
hemm
hemme
hen
hend
hende
henden
hender
hene
hente
henti
her
heran
herbe
herberg
here
herefore
herein
herita
hermometer
hero
herr
herren
herrsch
herry
herson
hersteller
herz
hesi
het
hether
hetik
hetto
heuer
heur
heure
heut
hex
hezu
hg
hi
hiel
hier
high
higher
hiko
hilf
hilfe
hill
him
himmer
hin
hina
hinde
hinder
hindert
hine
hinter
hinweise
hir
hirn
historical
historike
historique
historisch
historische
hit
hitz
hl
hle
hlen
hler
hlt
hmer
hne
hnen
hner
hnliche
hnt
hnte
hnung
ho
hob
hoben
hoch
hochschul
hoek
hof
hofen
hofer
hoff
hohe
hol
hold
holder
hole
holen
holm
holt
holung
holz
home
hon
hood
hope
hoppen
hor
horizon
horn
hors
horst
hose
hosen
host
hosts
hot
hotel
hotels
houd
house
how
however
hr
hra
hre
hreb
hrem
hren
hrend
hrer
hrheit
hring
hrlich
hrn
hrs
hrt
hrung
ht
hte
hti
htm
html
http
hu
hua
huan
hub
huge
hui
hum
human
hund
hunderbird
hundert
hung
hunger
hur
hus
hut
hutan
huts
huttle
hy
hydr
hydra
hydrat
hydrate
hygiene
hypno
hyster
hythm
hä
häl
hält
hän
händler
häng
hänge
hängen
här
hät
häuser
hôn
hôtel
höf
höhe
höl
hön
hör
hörde
hören
hörig
hörn
hülle
hüt
hütte
i
ia
iab
iagonal
ial
iale
iamo
ian
iana
iano
ians
ias
iaspora
ib
iba
ibe
ibel
ible
ibles
ibus
ic
ica
ical
ically
ice
ich
iche
ichi
icht
ichtig
ichtige
ichtigen
ichtung
ichuan
ici
icien
icillin
icino
ick
icke
ico
icon
icons
ics
id
ida
idad
idade
idades
idan
idas
ide
ideale
ideen
iden
ident
ides
idet
idhi
idig
idium
idla
ido
idon
idos
ids
idung
idyl
ie
ieb
ieber
iebhaber
ieder
iedlung
ief
iefer
ieferanten
iegel
iegend
iehen
ieht
iek
iel
ielefeld
ielle
iels
iem
ienda
iendo
iens
ient
ier
ierbar
iere
ieren
ierend
ierende
ierenden
ieri
ierig
iers
iert
ierte
iertel
ierten
ierter
iertes
ierung
ierungen
ierungs
ies
iese
iet
ietet
iets
ieu
ieurs
ieux
ieß
ießen
if
ife
iff
iffel
iffer
ified
ifika
ifikation
ifiziert
ifizierung
ifth
ify
ifying
ig
iga
igabyte
igarette
igaretten
igarren
ige
igen
igens
igenschaften
igentum
iger
iges
igger
igh
ight
ightseeing
igi
igkeit
igkeiten
iglia
ignan
ignano
ignen
igner
igny
igo
igste
igsten
igt
igte
igten
igu
igung
ih
ihen
ihn
ihr
ihre
iii
ij
ija
ijas
ijs
ik
ika
ikal
ikan
ikaner
ikat
ike
iken
iko
iks
il
ila
ilateral
ile
ilen
iler
iles
ilfreich
ilhelm
ilhouette
ili
ilig
ilitär
ill
illa
illan
illard
illary
illas
ille
illegal
iller
illes
illet
illi
illian
illiard
illion
illo
illon
illos
illow
illus
illusion
illy
ilo
ils
ilta
ilte
im
ima
image
images
imate
ime
imen
imi
imin
imini
imit
imler
imman
imme
immediate
immel
immer
immig
immobilien
immt
immun
imo
imos
imousine
imp
impel
imper
implant
implement
import
importe
impuls
imulator
in
ina
includes
including
inclusive
ind
inde
inden
inder
inderung
indest
index
indi
indien
indig
indigen
individuell
indkraft
indler
indring
industrial
industrie
industriell
industrien
ine
inen
inense
inensis
iner
ineri
ines
inf
infach
infarkt
infektion
inflation
influ
influss
info
inform
informatik
information
informationen
informations
infrastruktur
ing
ingabe
ingen
ingenieur
inger
ingesch
ingham
ings
ington
ingular
ingung
ingut
inha
inhalt
inhalte
inheiro
inho
ini
inibus
inis
init
initiative
ink
inkl
inkler
inladung
inn
inne
innen
inner
innig
innovation
innovativ
innovative
ino
inos
inox
inque
ins
insel
insi
inski
insky
inson
inspektion
install
installation
installier
instieg
instinkt
institut
institute
institution
institutional
instrument
instrumente
instrumenten
instruments
insätze
int
inte
integr
integration
intel
inten
intens
intensit
intensive
inter
interaktiv
interesse
interessen
interessier
interessiert
interesting
interface
international
internet
interpretation
intervall
intervention
interviews
intes
intrat
intritt
intuitiv
intérieur
invest
investiti
investor
inzelhandel
inzer
inä
iologische
ion
ional
ione
ionier
ionist
ions
ios
iosen
ip
ipe
ipfel
ipolar
ipper
ippy
ips
ique
iques
ir
ira
iraki
iran
irbag
irdi
ire
ires
irewall
irg
irge
irgend
irken
irker
irklich
irkt
irkul
irkung
irkus
irland
irmware
iro
irobi
irola
irways
is
isa
isano
isation
isations
isburg
isch
ische
ischem
ischen
ischer
isches
ischof
ischt
ischung
isco
ise
iseach
ised
isen
iser
isette
ish
isha
ished
ishing
ishment
ishockey
isi
isieren
isiert
isierte
isierten
isierung
isk
iska
iskan
isko
iskrimin
iskus
islam
ism
isma
isme
ismen
ismo
ismus
iso
isolation
ison
israel
isrupt
issa
issant
isse
issen
isser
issertation
isses
issez
issi
issima
isso
issy
ist
ista
istan
istas
iste
isten
ister
istes
isti
istic
istik
istika
istin
istisch
istische
istischen
isto
istri
ists
isure
isées
it
ita
italia
italien
itan
itar
itas
itat
itate
itation
itative
ite
itektur
itel
item
itens
iter
itet
iteten
itges
ith
ithin
iti
itian
ities
ition
itis
ito
itos
itrate
itronen
its
itsch
itt
itteilung
ittel
ittelalter
itten
itter
ittà
itual
itus
ity
itz
itzen
itzer
itzung
ità
itä
ität
itäten
itäts
ité
ium
ius
iv
iva
ivat
ive
iver
ives
ivi
ivil
ivoli
ix
ixen
ixon
iya
iz
iza
ization
ize
ized
izer
izi
izieren
izza
izzeria
ière
ières
iér
iños
ión
iös
iù
ić
j
ja
jacke
jad
jada
jag
jah
jahr
jahre
jahres
jak
jan
jana
jang
jani
japan
jar
jas
jat
je
jek
jen
jener
jer
jerr
jes
jet
jeune
jevo
ji
jiang
jo
job
jobs
joch
jon
jord
jordan
jos
jou
jp
jpg
js
ju
jub
juego
juegos
jugend
juk
jung
junge
junk
junta
jus
just
jà
jähr
jährige
jährigen
jü
jün
k
kHz
ka
kabel
kabine
kabinet
kabul
kade
kaffe
kai
kal
kale
kalender
kali
kalkul
kalt
kalte
kalyp
kam
kamen
kamera
kamers
kammer
kamp
kampagne
kampf
kan
kanal
kandidat
kandidaten
kannt
kannte
kant
kanten
kanter
kapelle
kapit
kapital
kapitalism
kapsel
kaput
kar
kara
karbon
karibi
karri
kart
karte
karten
karton
kas
kasse
kassen
kasten
kat
kata
katalog
kategori
kategorien
katzen
kau
kauf
kaufen
kauft
kauka
kaum
kay
kb
kbar
kde
ke
keeper
keeping
kehr
kein
keine
keit
kel
keller
kelt
kem
ken
kend
kende
kender
kennen
kennt
kenntnisse
kennzeich
kept
ker
kere
kern
kerne
kernel
kers
kes
ket
keten
kette
ketten
key
keys
kg
ki
kien
killing
kilometer
kin
kina
kinawa
kind
kinder
king
kino
kins
kipper
kir
kirch
kirche
kirchen
kis
kissen
kistan
kit
kker
kkor
kl
kla
klag
klage
klam
klang
klapp
klappen
klar
klare
klass
klasse
klassen
klassi
klat
klaus
klav
kle
kleber
kleid
kleider
kleidung
klein
kleine
kleiner
klemme
kler
klick
klim
klima
klimat
klin
kling
klingel
klingen
klinik
klio
klippe
klo
klon
klop
kloster
klu
klub
klusiv
klusive
klär
klärung
km
knall
knapp
knappen
knop
knot
known
ko
koch
kocht
kod
kode
koh
kol
kola
koll
kollege
kollektion
koloni
kom
kombination
komfort
komitee
komma
kommand
kommando
komme
kommen
kommende
kommer
kommission
kommt
kommun
kommunikation
komp
kompetenz
kompil
komplett
komplex
kompli
komponente
kon
kondition
kone
konen
konferenz
konfigur
konflikt
konform
kong
konjunktur
konomi
konservativ
konsisten
konsol
konstru
konstruktion
konstruktiv
konsum
konta
kontakt
kontakte
kontinen
kontingent
konto
kontrakt
kontroll
kontrollen
konvention
konzentr
konzept
konzern
konzert
koord
koordinator
kop
kopf
kopi
kopier
koppel
koppl
kor
korb
kord
korea
korean
korn
korps
korrek
korrel
kos
kose
koski
kosmo
kost
kosten
kostenlos
kot
kota
kott
kou
kov
kova
kow
kowi
kowska
kowski
kozy
kr
kra
kraft
kramp
kran
krank
kranken
krankheit
krat
krati
kraut
kre
krebs
kredit
kreis
kret
kreuz
kri
krieg
kriminal
kript
krise
krisen
kristall
kriterien
kritik
kritisch
kro
kron
krust
krut
krä
kräft
kräfte
krö
ks
ksal
ksamen
kt
kta
ktar
kte
kten
kter
ktionen
ktis
ktivität
kto
ktor
ktu
ku
kuchen
kugel
kul
kular
kulinar
kulinari
kulptur
kult
kultur
kultura
kulturell
kulturelle
kulturen
kum
kumen
kumulator
kund
kunde
kunden
kundig
kundige
kundu
kunft
kung
kungen
kunst
kup
kupunktur
kur
kurat
kurs
kurse
kursen
kurve
kurz
kus
kut
kw
ky
kÃ
kä
kämp
kämpf
kär
käs
käufe
kö
könig
köp
kör
körper
kös
kü
küche
kühl
kül
kün
kündig
künst
künstler
kür
l
la
lab
label
labor
lace
lach
lacht
lack
lad
lade
laden
lader
ladi
ladies
laf
lag
laga
lage
lagen
lager
lagerung
lagt
lagte
lah
lai
lain
lais
lak
lakat
lake
laken
lam
lama
lampe
lampen
lan
lana
land
lande
landen
lander
landes
landet
landia
lands
landschaft
lane
lang
langan
lange
langen
langer
languages
lank
lanke
lant
lanz
lap
lappen
laps
lar
lari
larinet
las
laser
lash
lass
lasse
lassen
lassung
last
laste
lasten
laster
lastung
lat
latan
late
lateau
lateral
latest
lati
latine
lation
lator
latt
latte
latter
lau
laub
lauben
laud
lauf
laufen
launch
laus
laut
lave
law
lay
layout
laça
lb
lberg
lbrecht
ldenburg
ldende
lder
ldr
ldtimer
le
leading
learn
leasant
least
leave
leb
leben
lebt
lech
lecht
leck
lect
led
leder
ledig
left
leg
legal
legale
legation
lege
legen
legend
legende
leger
legg
legi
legitim
legre
legt
legte
legung
leh
lehem
lehn
lehre
lehrer
lei
leicht
leichte
leid
leiden
leider
leier
lein
leinen
leis
leiste
leisten
leistung
leistungen
leit
leite
leiten
leiter
leitung
lekt
lektion
lektiv
lem
lema
lemma
len
lende
lender
lendi
lene
length
lenium
lenk
lent
lenty
lenz
ler
lere
leren
leri
lerin
lernen
lers
les
lesen
less
let
lets
lett
lette
letter
letto
letzt
leuchte
leuchten
leur
leurs
leute
level
levels
lever
lexi
ley
lez
lf
li
lia
lian
lib
liberal
liberale
liberalism
libri
lic
lice
lich
liche
lichem
lichen
licher
liches
lichkeit
lichkeiten
licht
lichte
lichten
lichter
lick
lie
lieb
liebe
lieben
liebt
liebte
lied
lieder
lief
liefer
lieferung
liege
liegen
liegende
lieger
liegt
lieh
liens
lier
liert
lierte
lies
liesen
liest
lieu
ließ
ließen
life
liff
lift
lig
liga
ligar
lige
ligen
ligence
light
ligt
lik
lika
like
likt
likte
lim
limen
limit
limited
limmer
lin
lina
linda
linder
line
linear
linen
liner
lines
liness
ling
linge
lingen
linger
lingon
lings
lingua
lini
linical
linie
linien
link
linken
linker
links
linna
lino
lins
linux
lio
lion
lip
lipper
liquid
lir
lis
lisse
list
liste
listen
listet
lit
lite
liten
liter
literatur
litt
litz
litzer
live
liver
liz
lizi
lizzard
lja
lkommen
ll
lla
lle
llen
llende
ller
lles
llianz
llows
llt
llusion
lly
lmost
lo
load
loaded
loader
loading
loan
lob
lobo
loc
local
located
location
loch
lock
locken
locker
lod
log
logan
loge
logen
logg
loggen
logger
logie
logik
logisch
logo
logos
logramm
logs
loh
lohn
lok
lokal
lokale
lokaler
lom
loma
lon
lona
lone
long
longer
lonso
loo
look
looking
looks
loon
loop
lope
lopp
lor
lord
lore
loret
lors
los
lose
losen
losigkeit
loss
lossen
lost
lot
lots
lott
lotte
lotter
loud
lounge
lov
loved
lovely
low
lower
lown
lox
loyal
lrich
lsen
lt
ltern
lthough
ltitude
lu
luca
lucht
luck
lud
luff
luft
lug
lum
lund
lung
lungs
lur
lus
lush
lusion
lust
luste
lustig
lux
luxe
luxury
lv
lvarez
ly
lymouth
lymp
lyn
lynn
lyse
lysé
lze
lÃ
láz
lä
läd
läge
lägen
läger
läm
länd
länder
ländern
ländische
läne
läng
länge
länger
lär
läser
läss
lässig
läst
lätt
lätter
lätze
läu
läuf
läufer
lé
légi
lés
lín
ló
lö
lös
lösen
löst
lösung
lösungen
löt
lü
lüge
lügel
lüm
lüssigkeit
lüt
lüten
m
ma
mac
mach
machen
macher
macht
mack
mad
made
mag
magazin
magazine
mager
magn
magnet
mago
mah
maha
mai
maika
mail
mails
main
maintain
maior
major
mak
make
maker
makes
making
mal
malen
malie
malig
mals
malt
malte
man
mana
management
manager
manches
mand
mandat
mandate
mande
manden
mando
mangel
mani
mania
manipul
manipulation
mann
manns
mannschaft
mans
mantel
manuell
map
maps
mar
mara
maragd
maran
marathon
marc
marche
marché
mare
marge
marin
marine
maritim
mark
marke
marken
market
marketing
marks
markt
marok
marsch
mart
mas
maschi
maschine
maschinen
mask
mass
massage
masse
massen
massiv
mast
master
mat
mata
material
materiell
mati
matic
matik
mato
matrix
matt
matte
matten
mauer
mauri
max
maxim
maximal
maximum
may
maybe
maß
maßnahmen
mb
mbar
mbedded
mbeni
mber
mberto
mbh
mblem
mbudsman
me
means
mechanik
med
media
medien
medik
mediterrane
medium
medizin
medizinisch
meer
mehl
mehr
meid
meier
meile
meilleur
mein
meine
meister
meisterschaft
mek
mel
mela
melde
melden
melder
meldung
meldungen
melh
mell
meln
melt
men
mend
mende
mene
menge
mens
mensch
menschen
ment
mentale
mente
ments
menu
menü
mer
merald
mere
meren
meria
merk
merke
merken
merkt
mers
mes
messe
messen
messer
messung
met
meta
metall
mete
meter
meters
methode
methoden
metres
metri
metropol
mets
metter
meyer
mg
mi
mick
mid
mie
mien
mier
miete
mig
mige
might
migrante
migration
mik
mikro
mil
milch
mild
mile
militant
militar
military
million
min
mination
minde
minder
mine
minen
ming
mini
minister
ministeri
ministerin
ministerium
mino
minute
mir
mis
misch
mischen
miss
missa
misse
missing
mission
missions
mit
miten
mitglied
mitglieder
mitt
mittag
mitte
mittel
mitteln
mittels
mitten
mittent
mittler
mium
mix
mière
ml
mler
mlich
mm
mme
mmeln
mmen
mmende
mmense
mmer
mmern
mmert
mmigration
mming
mmissa
mmung
mne
mo
mobil
mobile
mobili
mobiliari
mod
modal
mode
modell
modelle
modellen
modern
modi
modified
modul
modular
module
modus
mog
mogen
moire
mol
molino
molto
moment
mon
mona
monat
mond
monda
monen
moni
monie
monitor
monopol
monstr
mont
montage
monte
monumental
mooi
moon
moor
mor
mora
moral
mord
more
morgen
mori
morph
mos
motion
motiv
motor
motoren
moud
mount
mouth
mp
mpel
mperor
mpfang
mpfehlenswert
mpfehlungen
mpfen
mpfänger
mphe
mplia
mst
mts
mu
mugg
muito
mula
mulator
mulier
mulsion
multi
mun
mund
muni
munt
mur
mus
muse
museum
museums
music
musik
musikal
musiker
muslim
muster
mut
muti
mutter
my
mysql
mysteri
myth
mÃ
mán
mão
mä
mäh
mäki
mäl
män
männ
märkte
mäss
mässig
mäß
mäßig
mäßige
mètre
més
même
mö
möbel
mögen
möglich
möglichkeit
möglichkeiten
mör
mü
mühle
mün
münd
müt
n
na
nab
nach
nachrichten
nacht
nachten
nachts
nachweis
nack
nad
nade
naden
nagog
nah
nahe
nahm
nahme
nahmen
nak
nal
nale
nam
name
namen
namh
nan
nant
nar
nard
nari
narrativ
narsa
nas
nat
natal
nate
nation
national
nationale
nationalist
native
natur
nau
naud
nauer
nauf
navigation
nberg
nbsp
nche
nd
nda
ndab
nde
nden
nder
nderen
ndersson
nderung
nderungen
ndez
ndi
ndikator
ndin
nditore
ndo
ndorf
ne
nearby
necessary
necht
neck
ned
needs
negative
nehm
nehme
nehmen
nehmer
nei
neid
neiden
neige
nek
nekdo
nel
nell
nella
nelle
nels
nem
nemark
nen
nende
nens
nent
ner
nere
nergie
ners
nes
nese
nesi
nesian
ness
nesse
nesti
nesty
net
nete
nette
netter
nettes
netz
netzwerk
neue
neuer
neutral
new
news
next
ney
nez
nfalls
nfang
nfe
nfl
nfluenza
nforderungen
nfänger
ng
ngabe
ngaben
ngel
nglich
ngsaktiv
ngspunkt
ngste
ngsten
ngu
ngue
ngwei
nh
nhalt
nhau
nheim
ni
nia
nian
nibus
nic
nica
nice
nicht
nick
nico
nie
nied
nien
nier
niers
nig
nigen
niger
nigeria
night
nights
nik
nika
nimm
nin
ning
nir
nis
nisch
nishing
nisse
nissen
nit
nitz
nium
nius
niveau
nix
niz
njeni
nkasso
nkauf
nke
nmeldung
nna
nne
nnen
nnent
nner
nnig
nnige
nnovative
nnten
no
nobel
nobl
noble
noch
noche
nock
node
noire
noise
nom
nome
nomen
nomics
nommen
non
none
nopf
nor
nord
norm
normal
normen
norte
nos
nost
nosti
not
note
nothing
notice
nou
nouveau
nouvelle
nov
nova
novation
nové
now
ność
npassung
nse
nsey
nsicht
nsinn
nso
nsolven
nspektor
nsprech
nspruch
nstig
nstige
nt
ntau
ntbijt
ntdeck
nte
nten
nter
nteressant
nteressante
ntergrund
nterlagen
nterschied
ntes
ntfernung
nthos
nthropolog
nthusias
nthusiast
ntre
ntsorgung
ntspann
ntzündung
nu
nuestr
nueva
nuit
null
num
numer
nummer
nun
nung
nuovo
nur
nus
nut
nutz
nutzung
nwalt
ny
nya
nyi
nym
nyone
nzahl
nze
nzend
nzu
ná
nä
näht
näm
näst
né
ní
ník
nö
nöt
nü
nün
ně
o
oalition
oase
oaster
ob
obby
oben
ober
obere
oberfläche
obern
objekt
obra
obre
obt
obten
obust
occia
occo
och
ocht
ochten
ochter
ochum
ociété
ock
ockdown
ocks
ocê
od
ode
oder
odium
odka
odore
odos
of
ofen
off
offene
offensiv
offensive
offering
offers
office
offline
offre
offset
often
og
ogen
ogene
oggi
oggia
oghurt
ogne
ogni
ognitive
ogno
ograf
ografi
ografie
ographe
ographie
ographische
ohe
ohen
ohle
ohlen
ohlfühl
ohn
ohne
oins
oise
oj
ok
oka
okay
oko
okolad
okrat
oku
ol
ola
olan
old
older
ole
olen
oles
oleum
olfsburg
olgende
oli
olin
olina
olini
olino
olla
ollaboration
ollagen
ollah
ollen
ollision
ollte
olo
olog
ologen
ologie
ologische
ologischen
ologne
ology
olone
olski
om
omagna
omba
ome
omen
ometer
ometri
omfortabel
omi
omiti
ommage
ommern
ommissari
ommonwealth
ommunaut
ommunist
ommunities
omosexual
ompatibel
ompensation
ompet
ompliment
omponist
ompression
ompressor
ompromiss
on
ona
onale
onan
onarch
once
onde
ondensator
onder
ondern
ondissement
ondo
one
onen
ones
onfession
ong
ongwriter
oni
onia
onium
onkret
online
only
onnage
onne
onnell
onnen
onnier
ono
onrad
ons
onsensus
onsequent
onservative
onstellation
ont
ontinent
ontingent
ontrovers
onvenience
onym
onymi
onze
oodle
ool
oordination
oordinator
op
opathi
opathie
opecia
open
opened
openhagen
oper
opera
operation
operative
ophag
ophil
ophile
opie
opinions
opotam
opoulos
opportunity
opposition
opt
optik
optimal
optimier
option
optional
optionen
options
opä
or
ora
orada
orama
oran
orange
oraussetzung
oraussetzungen
orben
orbert
orbit
orca
orchester
ordan
orden
order
ordet
ordinate
ordne
ordnet
ordnung
ordoba
ore
oren
ores
org
organ
organis
organisation
organisationen
organisme
ori
oria
orian
orie
orientier
orientierte
origen
origine
orilla
orin
oritz
orium
orkflow
ormes
ormon
ornografie
oro
oroskop
orothy
orough
orpedo
orrektur
orrelation
orrento
orrespondent
orridor
orrosion
orruption
ors
orschläge
orschriften
orsorge
orstellung
ort
orteil
orten
orthodox
orträt
orts
ortschritt
ortunately
orum
os
osa
ose
osin
oskop
osman
oso
ossier
ost
osta
ostasi
osten
oster
ostüm
osur
ot
ote
otential
othek
otherm
othic
oti
otische
oto
otre
otros
ots
otschaft
otspot
ott
otte
otten
ottesdienst
otti
otto
ou
oubli
oucher
ouchscreen
ough
ought
ould
oulevard
oulou
oundtrack
ouquet
our
ourage
ourbon
ourdes
ourgeois
ournée
ous
ousin
out
outer
outs
ouvenir
ouvre
ouvrir
ov
ova
oval
over
overall
overnance
ovi
ovic
ovice
ovnik
ovo
ovács
ové
ow
owa
owe
owerful
owie
owitz
owned
owners
owo
owski
ox
oxid
oxide
oxik
oxin
oxy
oxyd
oyer
oz
ozi
oût
p
pa
paar
pack
packages
pad
page
paid
paket
pakt
pal
palas
palette
palo
pan
pande
panel
panem
panisch
papier
par
para
parable
parade
paradi
parameter
parate
parfait
park
parkasse
parken
parks
parlament
parlamentar
part
parte
partei
partement
parten
parti
particulier
parties
partikel
partir
partition
partner
partners
party
pas
pass
passage
passe
passen
passt
pat
patch
patent
patente
path
pathi
pati
patienten
patio
patron
pau
pause
pav
pay
paz
pazier
pc
pdf
pe
peace
ped
pegel
pei
pektrum
pel
pellen
pello
peln
pels
pen
pende
pending
pendium
pens
pensa
pension
per
perate
performance
peri
periode
perioden
permanente
perro
pers
persistent
person
personal
personen
personnes
perspektiv
pert
perto
pes
pest
peter
petit
petite
peut
pez
pf
pfel
pfen
pfer
pferd
pflanz
pflanzen
pfleg
pflege
pflicht
pfung
pg
ph
pha
phal
phan
pharma
phase
phe
phen
phenol
pher
phere
phi
phil
phili
philipp
philosophie
phob
phol
phon
phone
phonie
phor
phori
phos
photo
php
phrase
phre
phrodi
phyl
physi
physiolog
pi
pic
pick
pid
pido
pie
pien
pierre
pige
pil
pilot
pin
ping
pion
pipeline
pirate
piscina
pit
pital
pix
pl
pla
place
placement
places
plage
plan
planen
planer
planes
planet
planning
plant
plante
planten
planung
plast
platte
platten
plattform
plattformen
platz
play
player
players
playing
plein
plendid
plex
plin
plitter
plom
plung
plus
pläne
plätze
plö
pm
png
po
poca
poche
poco
point
points
poker
pol
polaris
pole
poli
police
polis
polit
political
politik
politiken
politiker
politisch
politische
polizei
polni
polo
polster
pon
pona
ponder
ponie
ponta
pool
pop
popul
population
por
porn
porque
port
portable
portal
portale
portfolio
portier
portion
pos
posita
position
positions
positive
positor
post
postel
posten
pot
potential
potenz
potenzi
potenzial
power
powered
pp
ppe
ppel
ppen
pper
ppi
ppig
ppm
ppt
ppy
pr
pra
prak
praktik
prang
praxis
pre
preis
preise
premier
prendre
presented
press
presse
pressen
pression
pressive
prestige
prestigi
pretty
pri
pria
price
prich
priest
prim
prime
print
prinz
prinzip
prio
priv
private
pro
prob
probabl
probe
problem
problematik
probleme
problemen
proche
produ
produits
produkt
produkte
produkten
produktion
produktionen
produktiv
professionell
professor
profi
profil
profile
profilen
profit
prognose
programm
programme
programmes
progressive
projekt
promenade
proof
prop
propor
propose
propylen
pros
prot
protein
protest
protokoll
prov
provided
proyecto
prozess
pru
prä
präsent
präsident
près
prüf
prüfung
psychologie
pt
pte
ptimierung
pts
pu
public
publik
publique
pued
puede
puestas
puff
puis
pul
puli
pult
pulver
pump
pumpe
pumpen
pung
punkt
punkte
punkten
punkto
punktu
pupp
pur
pus
pust
put
putation
putz
pw
px
pyramid
pyware
página
pä
pädagogi
pät
péra
pül
pür
q
qu
qua
qual
qualitat
qualität
quant
quart
quartier
quash
quat
que
queira
quel
quelle
quem
quent
quer
quero
query
ques
quest
questo
quez
qui
quick
quid
quier
quin
quip
quis
quisite
quisition
quita
quite
quity
quivalent
quot
quote
qué
qvist
r
ra
rab
rabatt
rac
rach
rache
racht
rachten
rack
rad
radar
rade
radi
radikal
radio
radius
raf
rafat
raffin
rafik
raft
rag
ragen
ragend
ragende
rah
rahmen
rai
rain
raising
raj
rak
raktisch
ral
ralen
rallen
ram
rami
rampe
ran
rand
randenburg
rane
rang
range
ranger
rangi
ranian
rank
ranken
rann
ranslator
rant
ranzösisch
rape
rappa
raps
raq
rar
rard
ras
rasch
rash
rasse
rassen
rast
rat
rata
rate
raten
rater
rates
rath
rating
ration
rational
raton
rats
ratzen
rauben
raucher
rauf
raum
raunschweig
rawat
ray
raz
raça
rbeitnehmer
rbt
rbán
rch
rd
rdem
rdings
rdoba
re
rea
reach
read
reader
ready
reaktion
real
reales
realistis
really
reben
rebre
rechne
rechner
rechnet
rechnung
recht
rechte
rechten
rechter
rechtlich
rechtliche
rechtlichen
rechts
reck
record
recycling
red
redak
redaktion
rede
reden
rediger
redne
redo
reduktion
reduzier
ref
refer
reffer
reflex
reform
reformen
reg
regal
regel
regeln
regelung
regen
regierung
regime
region
regionale
regionen
register
registered
registr
reglement
regler
regte
regul
rehen
reht
rei
reiber
reibt
reibung
reiburg
reich
reiche
reichen
reicher
reicht
reide
reif
reifen
reign
reignis
reihe
reine
reinig
reiniger
reinigung
reis
reise
reisen
reisende
reist
reiste
reiten
reiter
reitung
reiz
reizen
rek
rekord
rekt
rel
related
relative
relevant
relevante
relief
religi
religion
rell
rem
remain
rement
remo
remos
remote
ren
rend
rende
render
rendre
renge
rengi
rengt
rennen
renner
rennung
renom
rent
renten
rentino
reparat
report
reports
reppen
repressi
republik
rer
res
reservat
reserve
residential
residenz
resistent
resistente
resor
resort
resp
respo
respond
ressemitteilung
ressor
rest
restaurant
reste
resten
rester
resultat
ret
rete
rett
retta
rette
retten
retter
rettet
reuzfahrt
rev
revid
revision
reviso
revolution
rey
rez
rezept
rezzo
rf
rfen
rft
rg
rgei
rgend
rgos
rgänzung
rgüt
rhein
rholung
rhu
rhythm
rhöh
ri
ria
riad
rian
rias
riathlon
rib
ribe
ribu
ric
rica
rich
richt
richten
richter
richtet
richtig
richtlinie
richtung
rick
rico
ride
rider
ridge
rie
rieb
riechenland
rief
riel
riemen
rien
rientierung
rier
riere
ries
riet
riff
rift
rig
riga
rigade
rige
rigen
right
rights
rigid
rigor
rigt
rik
rikan
ril
rill
rin
rina
rinceton
ring
ringe
ringen
ringend
ringer
rings
rini
rink
rino
rinzip
rio
rip
rique
ris
risi
risiko
rissen
rist
ristina
rit
rita
ritable
riterien
riterium
rith
ritten
ritter
ritz
rium
riumph
rius
rivative
rkenntnis
rklärung
rkrankung
rkrankungen
rlaub
rmband
rme
rmina
rmittlung
rnehmung
rnier
rno
ro
robe
robert
robot
robots
roch
rock
rod
roduzent
rog
rogant
roh
rohe
rohen
rohr
roll
rolle
rollen
roller
rom
roma
roman
romenade
rominent
rommel
rompt
ron
rone
rons
ront
roof
room
rooms
root
roove
rop
ropeller
ropol
ropolis
roport
ros
rosa
rose
roskopi
roso
rosse
rosserie
rost
rot
rotagonist
rotar
rote
roten
rotte
rotz
rou
rough
rouille
round
route
routine
roux
rov
row
rox
roy
roz
rozent
roßhandel
rre
rrit
rsache
rse
rsg
rsi
rsprung
rst
rstag
rsula
rt
rte
rteil
rteilung
rtet
rthin
rthodox
rthritis
rthy
rtium
rtney
ru
rubrik
ruch
rude
ruder
rues
ruf
rufe
rufen
rufu
rug
rugge
rugs
ruh
ruhi
ruiden
rum
run
rund
runde
runden
rundlage
rundlagen
rung
rungen
runk
runner
runter
rup
rupal
rupt
ruption
rus
russell
rust
rut
rutsch
ruz
rven
rwerb
ry
ryn
rys
ryth
rzeit
rzähl
rà
rá
rán
rás
rä
räder
räfte
räg
rän
räng
ränk
räs
rät
räu
räum
räume
räumen
rävention
rès
ré
réal
rée
région
ría
rö
röd
röffnung
röh
rön
röst
röt
rü
rüb
rübe
rüber
rück
rücken
rückt
rüf
rüg
rühm
rühstück
rün
rüst
rüt
s
saac
saal
saari
saat
sab
sabb
sabon
sache
sachen
sack
safari
safe
safety
saft
saga
sage
sagen
sager
sagt
sah
sahar
sahara
saison
sak
saka
saker
sal
salat
sale
salen
salle
salon
salt
salz
sam
sama
same
samen
samer
samkeit
sammel
sammen
sammlung
samt
san
sang
sanierung
sans
sar
sat
satellite
sats
satte
satz
sau
sauce
sauf
saug
saus
saw
say
sbach
sberg
sbericht
sberichte
sbonus
sburg
sburger
sbury
scale
scan
scanner
scape
sch
scha
schaden
schaf
schaff
schaffen
schaffung
schaft
schaften
schale
schalen
schall
schalt
schalte
schalten
schalter
schaltung
schar
schatten
schau
schauen
schauer
sche
schef
scheibe
scheiben
scheid
scheiden
scheidung
schein
schel
schema
schen
schend
schenk
scher
schi
schia
schicht
schick
schie
schiebe
schied
schiede
schieden
schien
schier
schiff
schild
schilder
schirm
schl
schlaf
schlag
schlagen
schlecht
schlechte
schlechter
schlei
schleife
schlich
schließ
schließen
schloss
schlossen
schlu
schluss
schluß
schläg
schläge
schlüsse
schlüssel
schmerz
schmerzen
schmi
schmuck
schneiden
schneider
schnell
schnitt
schoen
schoenen
schon
school
schot
schrank
schraub
schrauben
schreck
schrei
schreiben
schreibung
schreit
schrieb
schrieben
schrift
schriften
schritt
schritte
schränk
schränkung
scht
schub
schuh
schuhe
schul
schuld
schuldig
schule
schulen
schuss
schutz
schw
schwan
schwarz
schweig
schweiz
schwer
schwimm
schwind
schwitz
schwäch
schä
schäd
schädig
schädigung
schätz
schätzung
schön
schöne
schöpf
schü
schüsse
schütte
schütz
schützen
scode
scope
scott
scout
screen
script
sdam
sdatum
sdorf
se
search
sec
secure
see
seeing
seen
segel
segment
seh
sehen
sehr
sei
seigne
seil
sein
seine
seite
seiten
seitig
seitige
seits
sek
sekretariat
sekretär
sektion
sektor
sektoren
sel
selbe
seler
self
selig
sell
seller
seln
sels
selt
sem
semester
semi
seminar
sen
send
sende
senden
sender
sendes
sens
sensation
sense
sensible
sensitive
sensor
sent
sentiment
senza
separate
ser
serba
sere
serem
serer
seres
serie
serien
sert
serv
served
server
service
services
servicios
servierung
servizi
session
set
sets
sett
setup
setzen
setzt
setzte
setzung
seum
sex
sexuell
sey
sfeld
sfrist
sh
sha
shaft
shall
shan
share
shared
shasa
she
shed
sheets
sheim
shelf
shi
shift
shill
shin
ship
ships
shire
shock
shop
shops
shore
shot
show
shows
shton
si
sia
sian
sible
sicher
sichere
sicherheit
sichert
sicherung
sicht
sichtig
sichtigung
sichtlich
sid
side
sidence
sident
sidi
sie
siedl
sieg
sieger
sieh
siempre
sien
sier
sig
siger
sights
sign
signal
signed
significant
siko
sil
silber
silien
sim
simile
simply
simulation
simulator
sin
sini
sink
sinn
sinni
sins
sio
sion
sions
sior
sir
sis
sistenz
sit
site
sitio
sitter
sitting
situation
situationen
sitz
sitzen
sius
siv
sive
size
sión
sk
ska
skaja
skal
skala
skalender
skandal
skandinav
skap
skaus
ske
skep
ski
skie
sko
skode
skosten
skraft
skript
skripti
sku
skulptur
skurs
sky
skype
ská
ské
slau
sleeping
sler
sley
slinie
sma
sman
sme
smell
smith
smo
smoking
smöglichkeiten
snummer
sociedad
socket
sofa
sofor
soft
software
soir
sol
solation
soldat
sole
soleil
solet
solid
solo
solu
som
someone
sometimes
sommer
son
sonder
song
sons
sonst
sont
sophis
sorb
sorge
sorgen
sort
sorten
sortie
sortiment
sou
sound
sounds
source
sources
sozial
spa
spaar
space
spacio
span
spann
spanne
spannen
spannung
spar
sparen
spark
sparta
spazi
speaking
spectacular
speed
speicher
speichern
speis
spek
spekt
spekte
spektive
spektrum
spender
spent
speria
speriode
sperr
spezi
spezialis
spezifische
sphalt
spiegel
spiel
spiele
spielen
spieler
spielt
spin
spion
spiral
spit
spite
spitze
splan
split
spoke
spolitik
sponsor
spontane
spor
sport
sports
spot
spots
sprach
sprache
sprachen
sprachig
sprech
sprechen
sprechend
sprecher
sprechung
spreng
spring
springen
spritz
sprochen
spruch
sprung
sprü
sprüche
spur
sql
squ
squared
sque
srecht
ssa
ssage
ssc
sse
ssein
ssel
ssen
sser
sserie
ssimi
ssl
ssland
ssler
sso
sson
ssonne
ssos
ssus
ssystem
ssä
st
sta
staat
stab
stabil
stabile
stabilis
stable
stack
stad
stadion
stadium
stadt
staff
stage
stages
stahl
stair
stal
stale
stall
stam
stamm
stamme
stan
stand
standard
standards
standen
standing
standort
stands
stange
stangen
stante
stanz
stap
stapel
star
stark
starke
stars
start
started
starten
stas
stat
state
staten
station
stationen
statistik
statt
statte
statu
statue
status
staub
ste
stead
steam
steck
sted
stedt
steg
stehen
stehend
stehende
steht
steig
steigen
steiger
stein
steine
steiner
stel
stell
stellbar
stelle
stellen
steller
stelling
stellt
stellte
stellung
stellungen
stem
stempel
sten
steng
stens
step
steps
ster
stern
sterne
steroid
sters
stes
stess
stest
stet
steuer
steuerung
sthma
sti
stich
stick
stieg
stift
stig
stige
stigen
stiger
stigmat
stik
stil
stile
still
stille
stiller
stimme
stimmen
stimmt
stimmung
stink
stisch
stitu
stitution
stock
stoff
stoffe
stoffen
stol
ston
stone
stool
stop
stopp
stor
store
storia
story
stos
stot
stoß
str
stra
straat
strada
straf
straff
strahl
strand
strasse
strate
strategi
strategie
strategien
straße
stre
stream
streaming
streb
streck
strecke
strecken
streif
streifen
streik
streit
streng
strenge
stress
stri
strich
strick
strid
strikt
string
stro
strom
stronaut
stru
struktur
strukturen
strum
strup
strä
ström
stsee
stu
stub
student
studie
studien
studio
studios
studium
stue
stuf
stufe
stufen
stuhl
stum
stunde
stunden
stur
style
stä
städt
stämm
stände
ständen
ständig
ständige
ständigkeit
stärk
stärke
stärker
stätte
stätten
stö
stör
stört
störung
störungen
stück
stücke
stün
stür
stütze
su
sually
sub
subjektiv
subscribe
substan
such
suche
suchen
sucht
suf
suis
suite
sum
summe
sun
sunami
sund
super
suppe
support
sur
surf
surfer
surfing
surreal
surround
sus
sverfahren
svoll
svolle
swald
swap
sweise
swerte
swimming
swiss
symbol
symbole
symmetr
symmetri
symptom
syn
sync
synchron
syndrom
syr
sys
system
systeme
systemen
systems
sz
sze
szenie
szent
szi
szin
szt
szö
são
sä
säg
säm
sän
sätt
sätze
sätzen
sätzlich
säure
t
ta
taaten
tab
tabelle
tabellen
tabilität
table
tables
tach
tafel
tag
tage
tagen
tages
tagon
tags
tah
tail
taille
tain
taiwan
tak
take
takeholder
taken
takes
taking
takt
tal
talan
tale
talen
talent
taler
tales
talk
tals
talt
tam
también
tan
tanam
tani
tank
tanken
tanker
tano
tant
tanto
tappe
tar
tara
tare
tari
tarif
tas
tasche
taschen
tasi
tast
taste
tat
taten
tation
tatistik
tato
tats
tau
taub
taus
tausch
taxe
taxi
taxis
tbild
tch
te
team
teams
teau
tec
tech
technical
technik
technisch
technische
technologi
technologie
tecken
tection
ted
teen
teig
teil
teile
teilen
teilig
teilnehme
teilnehmer
teils
teilt
teilung
tek
tel
telang
tele
telefon
telephone
telle
tellen
teller
telli
tellung
tels
tem
temal
tempel
temperatur
temperaturen
tempi
tempo
ten
tenant
tend
tende
tenden
tender
tendere
tene
tenen
tener
tenes
tennis
tente
tention
ter
tera
teras
terben
tere
terem
teren
teres
teria
terie
terieur
tering
term
termin
terminal
termine
termini
tern
ternal
terra
terrain
terrasse
terre
territori
ters
terte
tes
test
teste
testen
tester
testet
testing
tet
tete
teuer
teur
teurs
tex
text
texte
th
tha
thal
than
the
theater
their
thema
theme
then
theoreti
theorie
ther
therapeut
therapie
therm
thermal
these
thi
thia
thieu
thik
thiopi
third
this
thn
thol
thologie
thon
thorn
those
ths
thu
thumb
thur
thus
thy
thyl
ti
tial
tian
tibet
tic
tica
tiche
ticket
tickets
tico
tie
tief
tiel
tien
tient
tier
tiere
tiers
ties
tif
tig
tige
tigen
tiger
tiges
tigste
tigt
tija
tik
tika
til
tili
tim
tima
time
timmung
timo
tin
tina
tine
tinente
ting
tini
tino
tinu
tiny
tio
tion
tional
tionell
tionen
tions
tipendi
tipp
tipps
tique
tir
tirol
tis
tisch
tische
tischen
titel
tium
tiv
tive
tiver
tives
tizen
tière
tland
tlang
tlar
tle
tler
tlich
tliche
tlichen
tlicher
tma
tmosphäre
tner
to
toch
toffwechsel
togram
toile
toilette
told
toleran
tolle
toller
tom
tomar
tomatik
ton
tone
tonen
tons
took
tool
tools
top
tops
tor
tore
toren
tores
tori
toria
torino
torio
torium
torne
torno
tors
tory
tos
tosh
tot
tou
tour
touren
tourism
tourist
tourne
tours
tous
tout
town
tox
tr
tra
trace
tracht
track
tracker
tracks
trade
trademark
tradition
traditional
traf
trag
trage
tragen
trahlen
trahlung
train
trainer
training
trakt
traktion
tral
trale
tran
trance
trans
transaktion
transfer
transparent
transparente
transplantation
transport
transportation
transporter
transvers
tras
traut
travel
traveller
tray
tre
treff
treffe
treffen
treffend
treiben
treifen
tren
trend
trends
trenn
tress
treten
tri
trich
triche
trick
tricks
trieb
trieben
tried
trin
trip
trips
tritt
tritts
trium
tro
trocken
trockne
troffen
trogen
trois
trommel
tron
tronic
trop
troph
tropole
trouve
true
trug
truk
trunk
trupp
trus
try
träg
träge
trägen
träger
träglich
träng
trè
trö
tsam
tsch
tse
tsis
tsp
tsä
tt
tta
ttawa
tte
ttentat
tter
ttern
ttet
tti
ttig
ttige
ttima
ttingen
ttled
tto
ttore
ttoria
ttractive
ttraktiv
ttä
tu
tua
tuale
tualisierung
tube
tuch
tuck
tudi
tuhl
tul
tum
tums
tun
tunes
tung
tunnel
tunning
tur
tura
ture
turen
turm
turnier
tus
tust
tut
tutto
tv
tw
twa
twoch
twor
txt
ty
tylish
typ
type
typen
types
typisch
tyre
tze
tzen
tzlich
tzsche
tzt
tzten
tzung
tÃ
tán
tä
tänder
tär
tärke
tät
tätig
tätigkeit
té
tóni
tö
tön
tör
tören
törer
tüm
tür
türe
türk
tüt
u
ual
uan
uar
ub
ube
uber
ubern
ubert
ubica
ubjekt
ubmitted
ubung
ucci
ucco
uch
uche
uchet
ucht
uchten
uck
ucker
ucks
ucksack
ud
uda
ude
uden
uder
udet
udi
udia
ueber
ueh
uel
uelta
uerta
uerte
ues
uf
ufak
ufbewahrung
ufel
ufen
uff
uffer
ufig
uflage
uflösung
ufsichts
uftritt
ufung
ug
uga
uge
ugen
uger
uggle
ugh
ughes
uh
uhan
uhi
uhr
uhren
uid
uil
uitable
uition
uj
uk
ukra
ukraine
uktion
ukushima
ul
ula
ulan
ular
ulassung
ulation
uld
uldig
ule
ulent
uler
ules
uli
ulin
ulkan
ullah
ullen
ult
ultilingual
ulus
ulär
um
uma
umbi
umbo
umbu
ume
umen
umfang
ummel
ummen
ummy
umpf
umping
ums
umst
umut
umzu
un
una
unabhängig
unang
und
unda
undamental
undan
unde
unden
under
underbar
underground
undet
une
unen
ung
ungalow
ungar
unge
ungen
ungs
ungsprozess
unha
uni
union
univers
universum
unk
unken
unlimited
unnel
unnit
unos
unque
unser
unt
unta
unter
unterhalt
unternehmen
unternehmer
unterricht
unterschied
unterstütz
untersuch
until
unum
uomo
up
update
updated
updates
uplex
upon
upp
uppen
upper
uppert
upplung
ups
ur
ura
ural
urante
urban
urbe
urchmesser
urchschnitt
urcia
ure
uren
ures
uretan
ureuse
ureux
urgi
uri
urige
urious
uris
urken
url
urlaub
urne
uro
uropäische
uros
urround
urs
urteil
urzel
us
usada
usage
usbau
usch
uschel
uscht
usco
use
useful
useinander
user
uses
usflug
usführ
usgezeichnet
usgleich
usi
using
usion
uskulatur
usmer
usp
usrüstung
usschnitt
usse
ussen
usser
usses
ussi
ussicht
ussy
ust
usta
usten
uster
ustiz
usual
usw
usz
uszahlung
uszu
usée
ut
uta
utage
ute
uten
uter
uti
utig
uto
utomatisch
uts
utsa
utsch
utschen
utsi
utsourcing
utstanding
utta
utter
utti
utting
utu
utz
uv
uvent
uver
uvern
uw
ux
uz
uze
uzzi
uzzo
uß
ußball
ußen
ußer
ués
uña
v
va
vage
vakuum
val
vale
valu
van
vant
var
vara
vari
variable
variante
varianten
variation
various
vas
vasion
vat
vation
ve
vedere
vel
veld
velli
ven
vende
vendi
venida
vent
venti
ventil
ventilator
vention
ventura
venue
ver
veral
veranstalt
veranstaltung
veranstaltungen
verantwortlich
verantwortung
verarbeitung
verb
verband
verbesser
verbind
verbindung
verbot
verbrauch
verd
verde
verdien
vere
verein
vereinbar
verfahren
verfolg
verge
vergleich
verhalten
verhältnis
verhältnisse
verk
verkauf
verkauft
verkehr
verkehrs
verken
verlag
verlauf
verleih
verletz
verletzung
verlor
verlust
verlänger
vermiet
vermögen
vern
verne
verordnung
verp
verpack
verpflicht
vers
versammlung
versand
versch
verschluss
verschw
verse
versen
versi
versible
versicherung
versie
version
versionen
versions
versorg
versorgung
verspre
verstand
verständlich
verständnis
verstärk
versuch
versuche
vert
verte
verteidig
vertikal
vertrag
vertrete
vertreter
verträge
vertu
verwalt
verwaltung
verwend
very
verzeichnis
verzicht
verän
veränder
veröffentlich
ves
vet
vette
vez
vi
via
vian
viation
vibe
vic
vice
vid
video
videos
vie
viel
vien
vier
vierte
viertel
view
viewer
vig
vignon
vik
viktori
viles
villa
ville
vin
vir
vira
virtu
virus
vis
visa
vise
vision
vista
vit
vital
vitro
viv
vo
vod
voet
vogel
voi
voir
voire
vol
volat
voll
volle
vollen
volleyball
volta
volte
volumen
volution
vom
von
voor
vor
voraus
vorbereit
vorder
vore
vorlage
vorno
vorschlag
vorsitzende
vorteil
vote
votes
vous
vrai
vrat
vrier
vue
vv
vy
vät
vé
vö
völl
w
wSt
wa
wach
wache
wachsen
wacht
waffe
wag
wage
wagen
wah
wahl
wahr
wahrscheinlich
waist
wake
wal
wald
wale
walking
wall
walls
wan
wand
wandel
wander
wanderung
wandle
wandt
wang
wann
wanne
wanted
wap
war
ward
wards
ware
waren
warf
warm
wart
warte
warts
wartung
was
wasch
wasser
watch
watching
water
watt
wave
way
ways
we
wear
web
website
wechs
wechsel
weck
wecke
wede
weder
weekly
weeks
weg
wege
wegen
wegs
weh
wehr
wei
weib
weich
weiche
weide
weih
weihnacht
weil
weile
weiler
wein
weis
weise
weisen
weiss
weisung
weit
weite
weitere
weiß
wel
weli
well
welle
wels
welt
wen
wend
wende
wenden
wendig
wendungen
weni
wenn
went
wer
werbe
werbs
werbung
werden
werf
werg
werk
werke
werken
werkstatt
werkzeuge
wert
werte
werten
wertet
wertig
wertung
wesen
west
western
wet
wettbewerb
wetter
when
where
which
while
why
wi
wich
wicht
wichtig
wick
wickel
wicklung
wid
wide
wie
wier
wies
wiesen
wife
wig
wijk
wiki
wikipedia
wil
wild
wilde
will
willig
willing
wimming
win
wina
wind
wing
wingen
wink
winkel
winnen
winner
winning
winter
wir
wire
wireless
wirk
wirkung
wirt
wirtschaft
wirtschaftlich
wirtschaftliche
wis
wise
wish
wisse
wissen
wissenschaft
wissenschaften
wissenschaftlich
with
within
without
witz
wn
wo
woche
wochen
wod
wohl
wohn
wohner
wohnung
wohnungen
wolf
wolk
wolle
wollen
wonderful
wood
wor
worden
work
works
world
wort
worte
worth
would
wp
written
ws
wu
wuchs
wunder
wunsch
wur
wurde
wurf
wusst
www
wy
wyn
wähl
wählen
währ
wäl
wär
wärm
wärme
wärts
wäsche
wöhn
wörter
wünsch
wünsche
wür
würd
würdig
würfe
x
xaca
xample
xcellence
xe
xes
xi
xie
xion
xit
xklusiv
xml
xo
xon
xpansion
xploration
xposure
xquisit
xx
xxx
y
ya
yacht
yan
yana
yang
yard
yatt
ych
ye
year
yen
yens
yer
ying
yip
ykle
yklus
yl
ylan
yle
ylinder
yllis
ym
ymph
ymposium
yn
ynas
ynonym
yntax
yo
yon
yong
you
yper
ypri
yra
ysa
yster
yuno
z
za
zahl
zahlen
zahlung
zahlungen
zahn
zai
zal
zan
zano
zantin
zar
zarre
zas
zauber
zb
zbar
zburg
zdem
ze
zeer
zehn
zei
zeichen
zeichne
zeichnet
zeichnung
zeichnungen
zeig
zeigen
zeile
zeit
zeiten
zeitraum
zeitung
zek
zel
zele
zell
zellen
zeln
zelt
zem
zen
zend
zenden
zender
zene
zens
zentral
zentrale
zentrum
zept
zer
zere
zern
zero
zers
zertifizier
zes
zet
zettel
zeug
zeugen
zeugnis
zg
zgl
zi
zia
ziale
ziali
zicht
zida
zie
zieh
ziehen
ziel
ziele
zielen
ziell
zielle
zien
zier
zieren
ziert
zierte
zierten
zierung
zif
zifik
zig
zigar
zige
ziger
zii
zil
zilla
zim
zima
zimmer
zin
zing
zinger
zink
zins
zio
zionale
zione
zioni
zip
zir
zis
zise
zisten
zit
zite
zium
zivi
zlei
zler
zlerin
zlich
znamen
zne
zo
zog
zogen
zol
zon
zona
zone
zonen
zoom
zor
zquierd
zte
zten
ztere
zu
zube
zubehör
zubi
zucht
zucker
zuen
zufrieden
zug
zugs
zuk
zum
zunehmen
zung
zur
zuru
zus
zusammen
zustand
zustellen
zut
zuwa
zuzu
zw
zwan
zwang
zwe
zweck
zwei
zwi
zwischen
zy
zyk
zyme
zz
zza
zze
zähl
zöge
züg
züge
{
}
},
}:
}{








¤
§
©
«
¬
­
®
°
±
¶
·
»
»,
».
Â
Ã
Ä
ÄN
É
Ñ
Ö
ÖN
Österreich
Ü
ÜN
ÜR
Über
Überraschung
Übersetzung
Übersicht
Übertragung
Überwachung
Übung
ß
ßen
ßig
ßt
à
á
ák
ál
án
ário
ás
áš
â
âtre
ã
ão
ä
ächer
ächs
ächst
ächste
ächt
ächte
ächtig
äck
äcken
äcker
ädagog
ädchen
äder
äge
äger
ägi
äglich
äh
äher
ähigkeit
ählen
ähler
ählt
ähn
ähnlich
ähnliche
ährung
älde
äle
äll
älle
ällen
ält
älte
älter
ämm
ämme
ämmer
ämp
ämpfer
ämpfung
ämt
än
änd
ände
änden
änder
ändern
änderungen
ändig
änen
änge
ängel
ängen
änger
ängig
ängt
äni
änk
änner
är
ära
ärchen
äre
ären
ärer
ärger
ärm
ärt
ärzt
äsche
ässig
äst
ästi
ät
äter
ätet
ätigkeit
ätt
ätte
ätten
ätz
äuche
äuf
äufer
äule
äume
äumen
äuschen
äuser
även
å
åí
æ
ç
ça
ço
çon
çu
ção
ções
è
èche
ège
èle
ème
ène
ère
ères
ès
ève
é
ée
ées
élé
éléphone
én
éné
épartement
équip
équipe
ér
érez
éry
és
ét
étai
étro
été
ê
êt
ête
être
êî
ë
ël
ì
í
ía
ías
ín
ís
íî
î
îâ
ï
ð
ðà
ðî
ñ
ña
ñe
ñò
ò
òl
ó
ón
ów
ô
ôme
ôt
ôte
õ
ö
öbl
öch
öchst
öck
öcke
öd
öden
öder
ödi
öf
öffentlich
öffne
ög
öglich
öh
öhle
öhn
öhr
ök
öl
öld
ölk
ölker
öll
ölle
ölt
öm
ömm
ön
önn
önnen
önt
öntgen
öpfe
ör
örd
örderung
ören
örer
örf
örg
örs
ört
örter
örung
ös
ösch
öschen
öse
ösen
öss
össe
öst
öster
österreich
öt
ötet
ött
ötter
över
öz
÷
ø
ør
ù
ú
últim
ún
û
ü
üb
über
übersicht
überw
übung
üc
üch
ücher
üchte
üchtig
ücke
ücken
üd
üf
üfte
ügel
ügen
ühe
ühen
ühl
ühle
ühlen
ühne
ühren
ührt
ührung
üht
ül
ülen
üler
üll
ülle
ült
üm
üme
ümme
ün
ünchen
ünd
ünde
ünden
ündig
ündigung
üne
ünf
ünft
ünk
ünsche
üp
ür
üren
ürg
ürge
ürt
ürz
ürze
üs
üsse
üssel
üssen
üst
üste
üsten
üter
ütte
üttel
ütter
ütz
ütze
ützt
üß
üße
ý
þ
ÿ
ā
ă
ą
ć
č
čnik
ď
đ
ę
ě
ĺ
ń
ň
ō
ő
œ
ŕ
š
ška
šte
ů
ű
Ÿ
ž
β
μ
Г
С
а
д
е
и
й
м
о
т
у
ы
ь
ю
я
і
ј
џ
€
▁
▁"
▁#
▁$
▁%
▁&
▁(
▁($
▁(*
▁(+
▁*
▁+
▁->
▁:-)
▁;-)
▁>
▁@
▁A
▁AAA
▁AAC
▁AB
▁ABC
▁ABS
▁AC
▁AD
▁AE
▁AF
▁AFP
▁AG
▁AI
▁AIR
▁AK
▁AL
▁ALL
▁ALT
▁AM
▁AMD
▁AN
▁AND
▁AP
▁API
▁AR
▁ARC
▁ARE
▁ARM
▁ART
▁AS
▁ASC
▁ASP
▁AT
▁ATA
▁ATI
▁AU
▁AUTO
▁AV
▁AVI
▁Ab
▁Abb
▁Abba
▁Abbas
▁Abd
▁Abdel
▁Abdul
▁Abe
▁Abend
▁Abenteuer
▁Aber
▁Abg
▁Abh
▁Abi
▁Abo
▁Abr
▁Abraham
▁Abri
▁Abs
▁Abschluss
▁Absolut
▁Abu
▁Ac
▁Academy
▁Acc
▁Access
▁Accessoires
▁Account
▁Ace
▁Ach
▁Acht
▁Achter
▁Acqu
▁Act
▁Action
▁Active
▁Ad
▁Ada
▁Adam
▁Adams
▁Adapt
▁Adapter
▁Add
▁Addi
▁Address
▁Ade
▁Adel
▁Adi
▁Adidas
▁Adler
▁Admin
▁Administration
▁Administrator
▁Ador
▁Adress
▁Adria
▁Adrian
▁Advance
▁Advent
▁Adventure
▁Aero
▁Af
▁Aff
▁Affair
▁Affi
▁Afghan
▁Afghanistan
▁Africa
▁African
▁Afrika
▁Afro
▁After
▁Ag
▁Aga
▁Age
▁Agency
▁Agent
▁Agi
▁Agn
▁Agra
▁Agri
▁Agro
▁Agua
▁Agust
▁Ah
▁Ahmad
▁Ahmed
▁Ai
▁Aid
▁Ain
▁Air
▁Aires
▁Airline
▁Airlines
▁Airport
▁Aj
▁Ak
▁Akademi
▁Akku
▁Akro
▁Akt
▁Aktie
▁Aktien
▁Aktion
▁Aktions
▁Aktiv
▁Aktivit
▁Aktual
▁Aku
▁Al
▁Ala
▁Alam
▁Alan
▁Alarm
▁Alb
▁Alba
▁Alban
▁Albani
▁Alber
▁Albert
▁Albi
▁Albu
▁Album
▁Alc
▁Alca
▁Alco
▁Alde
▁Ale
▁Alex
▁Alexander
▁Alexandr
▁Alfa
▁Alg
▁Alge
▁Alham
▁Ali
▁Alice
▁Alien
▁Alka
▁Alkohol
▁All
▁Allah
▁Alle
▁Allen
▁Aller
▁Allergi
▁Allgemein
▁Alli
▁Allian
▁Alliance
▁Alltag
▁Alm
▁Alma
▁Alme
▁Almo
▁Alo
▁Alp
▁Alpen
▁Alpha
▁Alpin
▁Als
▁Alt
▁Alta
▁Alte
▁Alten
▁Alter
▁Alternativ
▁Alternative
▁Alters
▁Alti
▁Alto
▁Alu
▁Aluminium
▁Alvar
▁Aly
▁Alzheimer
▁Am
▁Ama
▁Amal
▁Amar
▁Amateur
▁Amazon
▁Amb
▁Amber
▁Ambi
▁Ambient
▁America
▁American
▁Amerika
▁Amerikan
▁Ami
▁Amig
▁Amin
▁Amino
▁Ammo
▁Amo
▁Amor
▁Amp
▁Amsterdam
▁Amt
▁Amy
▁América
▁An
▁Ana
▁Anal
▁Analog
▁Analy
▁Analyse
▁Analysis
▁Analytics
▁Anc
▁And
▁Anda
▁Andalu
▁Ander
▁Anders
▁Anderson
▁Andra
▁Andre
▁Andrea
▁Andreas
▁Andrew
▁Andri
▁Andro
▁Android
▁Ang
▁Ange
▁Angebot
▁Angebote
▁Angel
▁Angeles
▁Angeli
▁Angle
▁Anh
▁Animat
▁Animation
▁Ank
▁Ankara
▁Anla
▁Anlage
▁Anmelde
▁Ann
▁Anna
▁Anne
▁Anno
▁Ano
▁Anonym
▁Anonymous
▁Ans
▁Anschluss
▁Ansi
▁Ant
▁Antalya
▁Antar
▁Ante
▁Antenn
▁Anth
▁Anthony
▁Anti
▁Antic
▁Antik
▁Anton
▁Antoni
▁Antonio
▁Antra
▁Antriebs
▁Antwort
▁Anwend
▁Anwendung
▁Anwendungs
▁Any
▁Anzeige
▁Ap
▁Apa
▁Apart
▁Apartment
▁Apartments
▁Aper
▁Apfel
▁Apo
▁Apollo
▁Apotheke
▁App
▁Appar
▁Appel
▁Apple
▁Application
▁Applications
▁Apps
▁Apr
▁April
▁Aqua
▁Aquari
▁Aqui
▁Ar
▁Ara
▁Arab
▁Arabi
▁Aragon
▁Arbeit
▁Arbeits
▁Arc
▁Arca
▁Arch
▁Arche
▁Archi
▁Architecture
▁Architekt
▁Architektur
▁Archiv
▁Archive
▁Ard
▁Are
▁Area
▁Arena
▁Arg
▁Argent
▁Argentin
▁Argentina
▁Argo
▁Argument
▁Ari
▁Aria
▁Aristo
▁Arizona
▁Ark
▁Arkad
▁Arm
▁Arma
▁Arme
▁Armen
▁Armeni
▁Arms
▁Arn
▁Arno
▁Aro
▁Aroma
▁Array
▁Arre
▁Arro
▁Ars
▁Arsen
▁Arsenal
▁Art
▁Arte
▁Arthur
▁Artik
▁Artikel
▁Artikeln
▁Artist
▁Arts
▁Arz
▁Arzneimittel
▁As
▁Ash
▁Asi
▁Asia
▁Asian
▁Ask
▁Asp
▁Aspir
▁Ass
▁Assa
▁Assis
▁Assistant
▁Asso
▁Associate
▁Association
▁Aster
▁Astra
▁Astro
▁Astronom
▁Astu
▁Asyl
▁At
▁Aten
▁Ath
▁Athen
▁Athens
▁Athlet
▁Atlant
▁Atlanta
▁Atlantic
▁Atlas
▁Atmos
▁Atom
▁Att
▁Attra
▁Au
▁Aud
▁Audi
▁Audio
▁Audit
▁Auf
▁Aufenthalt
▁Aufnahme
▁Auftrag
▁Aug
▁Auge
▁Augen
▁August
▁Augustin
▁Auk
▁Aur
▁Aura
▁Aus
▁Ausbildung
▁Ausbildungs
▁Ausgangs
▁Ausge
▁Ausland
▁Ausstellung
▁Austin
▁Austr
▁Australi
▁Australia
▁Austria
▁Aut
▁Author
▁Auto
▁Automat
▁Automobil
▁Autonom
▁Autor
▁Autori
▁Autos
▁Auße
▁Außen
▁Av
▁Ava
▁Avant
▁Ave
▁Avenue
▁Avi
▁Award
▁Awards
▁Ax
▁Axi
▁Ay
▁Aya
▁Az
▁B
▁BA
▁BAT
▁BB
▁BBC
▁BC
▁BE
▁BEN
▁BER
▁BES
▁BEST
▁BI
▁BIO
▁BIS
▁BM
▁BMW
▁BO
▁BP
▁BR
▁BRA
▁BS
▁BT
▁BU
▁BV
▁Ba
▁Bab
▁Babe
▁Baby
▁Bac
▁Bach
▁Bachelor
▁Back
▁Backpack
▁Bad
▁Bade
▁Baden
▁Badezimmer
▁Badi
▁Bag
▁Bah
▁Bahn
▁Bahnhof
▁Bahr
▁Bai
▁Bail
▁Baj
▁Baja
▁Bak
▁Baker
▁Bakteri
▁Baku
▁Bal
▁Bala
▁Balance
▁Balaton
▁Bald
▁Bali
▁Balk
▁Balkan
▁Balkon
▁Ball
▁Ballet
▁Ballon
▁Balti
▁Bam
▁Bambu
▁Ban
▁Banan
▁Band
▁Bande
▁Bang
▁Bangalore
▁Bangkok
▁Bangla
▁Bangladesh
▁Bank
▁Banks
▁Bann
▁Banner
▁Bar
▁Bara
▁Barba
▁Barbar
▁Barbara
▁Barber
▁Barcel
▁Barcelon
▁Barcelona
▁Bard
▁Bare
▁Bari
▁Baro
▁Baron
▁Barra
▁Barre
▁Barri
▁Barro
▁Bars
▁Bart
▁Barth
▁Bartol
▁Bas
▁Base
▁Baseball
▁Basel
▁Bash
▁Basic
▁Basili
▁Basis
▁Bask
▁Basketball
▁Bass
▁Bast
▁Basti
▁Bat
▁Bata
▁Bath
▁Batt
▁Batterie
▁Battle
▁Bau
▁Bauch
▁Bauer
▁Bauern
▁Baum
▁Baumwoll
▁Bay
▁Bayer
▁Bayern
▁Bayr
▁Be
▁Beach
▁Bean
▁Bear
▁Beat
▁Beatles
▁Beau
▁Beautiful
▁Beauty
▁Beck
▁Bed
▁Bedien
▁Bee
▁Beer
▁Beg
▁Begin
▁Beh
▁Behandlung
▁Behe
▁Bei
▁Beijing
▁Bein
▁Beispiel
▁Beitrag
▁Bek
▁Beka
▁Bel
▁Bela
▁Belast
▁Bele
▁Belgi
▁Beli
▁Bell
▁Bella
▁Belle
▁Belo
▁Belt
▁Bem
▁Ben
▁Bend
▁Bene
▁Beng
▁Beni
▁Benjamin
▁Bent
▁Benutzer
▁Benz
▁Benzin
▁Beobachter
▁Ber
▁Berat
▁Beratung
▁Beratungs
▁Bere
▁Berei
▁Berg
▁Berge
▁Bergen
▁Berger
▁Berlin
▁Bern
▁Berna
▁Bernard
▁Berni
▁Bert
▁Beruf
▁Berufs
▁Bes
▁Besa
▁Besch
▁Beschreibung
▁Beschäftig
▁Beschäftigung
▁Besi
▁Best
▁Bestand
▁Beste
▁Bestell
▁Besuch
▁Besucher
▁Bet
▁Beta
▁Beth
▁Beton
▁Betr
▁Betreuung
▁Betrieb
▁Betriebs
▁Bett
▁Bewe
▁Beweg
▁Bewegung
▁Bewegungs
▁Bewerb
▁Bewerbung
▁Bewertung
▁Bewertungen
▁Bey
▁Bez
▁Beziehung
▁Bezirk
▁Bezirks
▁Bhu
▁Bi
▁Bib
▁Bibel
▁Bibi
▁Bibli
▁Bide
▁Bie
▁Biel
▁Bien
▁Bier
▁Big
▁Bij
▁Bike
▁Bil
▁Bilan
▁Bild
▁Bilde
▁Bilder
▁Bildschirm
▁Bildung
▁Bildungs
▁Bill
▁Billig
▁Bin
▁Bind
▁Bingo
▁Binnen
▁Bio
▁Biologi
▁Bir
▁Bird
▁Birmingham
▁Bis
▁Bisc
▁Bish
▁Bit
▁Bitcoin
▁Bitte
▁Biz
▁Bl
▁Bla
▁Black
▁Blade
▁Blai
▁Blan
▁Blanc
▁Blank
▁Blas
▁Blatt
▁Blau
▁Ble
▁Blei
▁Blend
▁Bli
▁Blind
▁Blitz
▁Blo
▁Block
▁Blog
▁Blogger
▁Blogs
▁Blok
▁Bloom
▁Blu
▁Blue
▁Blues
▁Bluetooth
▁Blum
▁Blumen
▁Blut
▁Bo
▁Board
▁Boat
▁Bob
▁Boc
▁Bod
▁Bode
▁Boden
▁Body
▁Bog
▁Boh
▁Bok
▁Bol
▁Bole
▁Boli
▁Boll
▁Bologna
▁Bols
▁Bolt
▁Bomb
▁Bomba
▁Bon
▁Bond
▁Boni
▁Bonn
▁Bonne
▁Bonus
▁Boo
▁Book
▁Booking
▁Books
▁Boom
▁Boot
▁Boots
▁Bor
▁Bora
▁Bord
▁Bordeaux
▁Border
▁Borg
▁Borgo
▁Boris
▁Born
▁Bos
▁Bosc
▁Bosch
▁Bosn
▁Boss
▁Boston
▁Bot
▁Botan
▁Bott
▁Bou
▁Boul
▁Bour
▁Bourg
▁Boutique
▁Bow
▁Bowl
▁Box
▁Boy
▁Boys
▁Boz
▁Br
▁Bra
▁Brac
▁Brad
▁Brag
▁Brain
▁Bran
▁Branche
▁Branchen
▁Brand
▁Brandenburg
▁Bras
▁Brasil
▁Brasili
▁Brat
▁Bratislava
▁Brau
▁Braun
▁Brav
▁Bre
▁Break
▁Breakfast
▁Brei
▁Breit
▁Brem
▁Brems
▁Brenn
▁Brett
▁Brexit
▁Bri
▁Brian
▁Bridge
▁Brief
▁Brig
▁Brill
▁Brin
▁Bris
▁Brit
▁Britanni
▁Britt
▁Brno
▁Bro
▁Brod
▁Brok
▁Broker
▁Brom
▁Bron
▁Bronze
▁Brook
▁Brooklyn
▁Bros
▁Brot
▁Brother
▁Brothers
▁Brown
▁Browser
▁Bru
▁Brud
▁Brun
▁Brunn
▁Brus
▁Brust
▁Brut
▁Brutto
▁Brü
▁Bu
▁Buch
▁Buchung
▁Buck
▁Bud
▁Buda
▁Budapest
▁Budd
▁Buddha
▁Budget
▁Bug
▁Build
▁Building
▁Buiten
▁Buk
▁Bul
▁Bulgar
▁Bulgari
▁Bulgaria
▁Bull
▁Bun
▁Bund
▁Bundes
▁Bundesliga
▁Bur
▁Bureau
▁Burg
▁Burger
▁Burk
▁Burn
▁Bus
▁Busc
▁Bush
▁Business
▁Buss
▁But
▁Butter
▁Button
▁Buy
▁By
▁Byr
▁Bé
▁Bö
▁Börse
▁Börsen
▁Bü
▁Bücher
▁Bür
▁Bürger
▁Büro
▁C
▁CA
▁CAC
▁CAD
▁CAM
▁CAMP
▁CAN
▁CAP
▁CAR
▁CASA
▁CAT
▁CC
▁CD
▁CE
▁CEO
▁CER
▁CF
▁CH
▁CHF
▁CI
▁CIA
▁CM
▁CN
▁CNC
▁CO
▁CON
▁COP
▁COR
▁COVID
▁CP
▁CPU
▁CR
▁CRM
▁CS
▁CSS
▁CT
▁CU
▁CV
▁Ca
▁Cab
▁Cable
▁Cabr
▁Cache
▁Cad
▁Caf
▁Cafe
▁Café
▁Cai
▁Cair
▁Cake
▁Cal
▁Cala
▁Cale
▁Cali
▁California
▁Call
▁Calle
▁Calv
▁Cam
▁Camar
▁Cambridge
▁Camel
▁Camera
▁Cami
▁Camin
▁Camp
▁Campan
▁Camping
▁Campo
▁Campus
▁Can
▁Cana
▁Canada
▁Canal
▁Canaria
▁Canc
▁Canon
▁Cant
▁Cao
▁Cap
▁Cape
▁Capital
▁Capo
▁Capp
▁Capri
▁Car
▁Cara
▁Carac
▁Carbon
▁Card
▁Cards
▁Care
▁Cari
▁Carib
▁Carl
▁Carlo
▁Carlos
▁Carmen
▁Carne
▁Carol
▁Carolina
▁Carr
▁Carra
▁Cars
▁Cart
▁Carta
▁Carte
▁Carter
▁Cas
▁Casa
▁Casal
▁Casca
▁Case
▁Cash
▁Casi
▁Casino
▁Cassi
▁Cast
▁Casta
▁Castel
▁Castell
▁Casti
▁Castill
▁Castle
▁Castro
▁Cat
▁Catal
▁Catalunya
▁Cath
▁Cau
▁Cava
▁Cavall
▁Cave
▁Cay
▁Ce
▁Cel
▁Cell
▁Cent
▁Center
▁Central
▁Centre
▁Centro
▁Centrum
▁Cer
▁Cert
▁Cerv
▁Ces
▁Cesar
▁Cet
▁Ch
▁Cha
▁Chain
▁Chair
▁Chal
▁Challenge
▁Cham
▁Chamber
▁Champ
▁Champagne
▁Champion
▁Champions
▁Championship
▁Chan
▁Chance
▁Chang
▁Change
▁Channel
▁Chant
▁Chap
▁Char
▁Charakter
▁Charge
▁Charle
▁Charles
▁Charlie
▁Charlotte
▁Charm
▁Chart
▁Chat
▁Chau
▁Che
▁Check
▁Chef
▁Chelsea
▁Chem
▁Chemi
▁Chen
▁Cher
▁Chev
▁Chi
▁Chia
▁Chic
▁Chicago
▁Child
▁Children
▁Chile
▁Chill
▁Chin
▁China
▁Chine
▁Chinese
▁Chip
▁Chir
▁Chlor
▁Cho
▁Choice
▁Chol
▁Chop
▁Chor
▁Chr
▁Chris
▁Christ
▁Christen
▁Christi
▁Christian
▁Christmas
▁Christo
▁Christoph
▁Christopher
▁Chrom
▁Chrome
▁Chron
▁Chroni
▁Chu
▁Chur
▁Church
▁Château
▁Ci
▁Cie
▁Cine
▁Cinema
▁Cir
▁Circ
▁Circle
▁Circu
▁Cita
▁Citation
▁Citi
▁City
▁Civi
▁Civil
▁Cla
▁Clan
▁Clar
▁Clari
▁Clark
▁Class
▁Classic
▁Claudi
▁Claus
▁Clean
▁Clear
▁Clemen
▁Clement
▁Cler
▁Cli
▁Click
▁Client
▁Clinton
▁Clip
▁Clo
▁Close
▁Cloud
▁Club
▁Co
▁Coach
▁Coaching
▁Coast
▁Coat
▁Coch
▁Cock
▁Cocktail
▁Coco
▁Cod
▁Code
▁Coffee
▁Col
▁Cola
▁Cold
▁Cole
▁Coll
▁Colle
▁Collection
▁College
▁Colli
▁Collins
▁Colom
▁Colomb
▁Colon
▁Color
▁Colorado
▁Columbia
▁Com
▁Combi
▁Come
▁Comer
▁Comfort
▁Comic
▁Comm
▁Command
▁Comme
▁Commercial
▁Commission
▁Committee
▁Common
▁Commons
▁Commun
▁Communication
▁Communications
▁Community
▁Como
▁Comp
▁Compa
▁Compact
▁Company
▁Compar
▁Compost
▁Computer
▁Computers
▁Con
▁Concept
▁Concert
▁Concord
▁Conde
▁Condo
▁Conference
▁Congress
▁Conne
▁Connect
▁Connection
▁Cons
▁Constant
▁Consult
▁Consultant
▁Consulting
▁Contact
▁Container
▁Content
▁Contest
▁Conti
▁Control
▁Controll
▁Controller
▁Converter
▁Cook
▁Cookie
▁Cookies
▁Cool
▁Cooper
▁Copa
▁Copenhagen
▁Copy
▁Copyright
▁Cor
▁Coral
▁Corb
▁Cord
▁Core
▁Corin
▁Corn
▁Cornel
▁Corner
▁Corona
▁Coronavirus
▁Corp
▁Corporation
▁Corr
▁Corre
▁Corri
▁Cors
▁Cort
▁Corte
▁Corti
▁Cos
▁Cost
▁Costa
▁Cot
▁Cott
▁Cottage
▁Coul
▁Council
▁Counter
▁Country
▁County
▁Coup
▁Cour
▁Course
▁Court
▁Cov
▁Cove
▁Cover
▁Covid
▁Cow
▁Cra
▁Crack
▁Craig
▁Cran
▁Cre
▁Creative
▁Creator
▁Cred
▁Credit
▁Crem
▁Cres
▁Cri
▁Cris
▁Cristal
▁Cristian
▁Cristo
▁Cro
▁Croc
▁Cross
▁Crow
▁Cru
▁Cruise
▁Crus
▁Crusher
▁Cruz
▁Cry
▁Crystal
▁Cu
▁Cuba
▁Cuisine
▁Cul
▁Culture
▁Cum
▁Cup
▁Cur
▁Custom
▁Customer
▁Cut
▁Cy
▁Cyber
▁Czech
▁Cá
▁Cé
▁Có
▁D
▁DA
▁DAS
▁DB
▁DC
▁DDR
▁DE
▁DEC
▁DEL
▁DEN
▁DER
▁DES
▁DF
▁DI
▁DIA
▁DIE
▁DIN
▁DJ
▁DM
▁DMC
▁DNA
▁DNS
▁DO
▁DOC
▁DOM
▁DOS
▁DP
▁DR
▁DS
▁DSC
▁DSL
▁DU
▁DUR
▁DV
▁DVD
▁DX
▁Da
▁Dach
▁Dag
▁Dah
▁Dai
▁Daily
▁Dal
▁Dala
▁Dali
▁Dall
▁Dalma
▁Dam
▁Damas
▁Dame
▁Damen
▁Dami
▁Dampf
▁Dan
▁Dance
▁Dane
▁Dani
▁Daniel
▁Dank
▁Dann
▁Dans
▁Dap
▁Dar
▁Dara
▁Dari
▁Dark
▁Darm
▁Dart
▁Das
▁Dat
▁Data
▁Database
▁Date
▁Datei
▁Daten
▁Datenschutz
▁Dau
▁Dauer
▁Dav
▁Dave
▁Davi
▁David
▁Davis
▁Day
▁Days
▁De
▁Dead
▁Deal
▁Dealer
▁Deals
▁Death
▁Deb
▁Debat
▁Dec
▁December
▁Deck
▁Decke
▁Deco
▁Deep
▁Def
▁Defini
▁Definition
▁Deko
▁Dekor
▁Del
▁Delega
▁Delf
▁Delhi
▁Deli
▁Dell
▁Delta
▁Deluxe
▁Dem
▁Demo
▁Demokrat
▁Demokrati
▁Demonstra
▁Den
▁Deng
▁Denis
▁Denk
▁Denn
▁Depart
▁Department
▁Depo
▁Deposit
▁Depre
▁Der
▁Des
▁Desa
▁Desert
▁Design
▁Designer
▁Designs
▁Desk
▁Desktop
▁Desp
▁Dess
▁Destination
▁Det
▁Detail
▁Details
▁Detroit
▁Deutsch
▁Deutschland
▁Deva
▁Developer
▁Development
▁Devi
▁Device
▁Dez
▁Dharma
▁Di
▁Dia
▁Diabet
▁Diabetes
▁Diagnos
▁Diagnosti
▁Diagram
▁Dial
▁Dialog
▁Diamant
▁Diamond
▁Dian
▁Dias
▁Dich
▁Dick
▁Dictionary
▁Did
▁Die
▁Diego
▁Dienst
▁Dies
▁Diese
▁Diesel
▁Diet
▁Diff
▁Differen
▁Digi
▁Digital
▁Dij
▁Dik
▁Dil
▁Dima
▁Dimension
▁Din
▁Ding
▁Dio
▁Dion
▁Diplom
▁Diplomat
▁Dir
▁Direct
▁Director
▁Directory
▁Direkt
▁Diri
▁Dis
▁Disc
▁Disco
▁Discount
▁Disk
▁Diskussion
▁Disney
▁Disp
▁Display
▁Distan
▁Distribution
▁District
▁Dit
▁Div
▁Dive
▁Diver
▁Divers
▁Divid
▁Division
▁Dj
▁Do
▁Doc
▁Dock
▁Doctor
▁Document
▁Dod
▁Dog
▁Doh
▁Dokt
▁Doktor
▁Dokument
▁Dokumente
▁Dol
▁Doll
▁Dollar
▁Dolo
▁Dom
▁Domain
▁Domin
▁Domini
▁Dominik
▁Don
▁Donald
▁Donat
▁Donau
▁Done
▁Dong
▁Donna
▁Donne
▁Door
▁Doppel
▁Dor
▁Dorf
▁Dori
▁Dorn
▁Dort
▁Dortmund
▁Dos
▁Dot
▁Double
▁Douglas
▁Dow
▁Down
▁Download
▁Downloads
▁Downtown
▁Dr
▁Dra
▁Drag
▁Dragon
▁Drah
▁Dram
▁Drama
▁Dre
▁Dream
▁Dreh
▁Drei
▁Dresden
▁Dress
▁Drink
▁Dritt
▁Driv
▁Drive
▁Driver
▁Dro
▁Drog
▁Drogen
▁Drop
▁Dru
▁Druck
▁Drug
▁Drum
▁Dry
▁Du
▁Dual
▁Dub
▁Dubai
▁Dublin
▁Due
▁Dul
▁Duma
▁Dun
▁Duna
▁Dunk
▁Dunkel
▁Duo
▁Dupl
▁Dur
▁Dura
▁Durch
▁Durchschnitt
▁Dusch
▁Dy
▁Dyna
▁Dynam
▁Dynami
▁Dynamic
▁Dys
▁Dä
▁Dé
▁Dí
▁Dü
▁Dün
▁Düsseldorf
▁E
▁EA
▁EB
▁EC
▁ECO
▁ED
▁EDI
▁EE
▁EF
▁EG
▁EL
▁EM
▁EN
▁EP
▁EPA
▁ES
▁ESP
▁ET
▁ETA
▁EU
▁EUR
▁EURO
▁EUROP
▁EV
▁EX
▁EZ
▁Eagle
▁Earth
▁East
▁Easy
▁Eb
▁Ebe
▁Eber
▁Ec
▁Ech
▁Echo
▁Echt
▁Eck
▁Eco
▁Economic
▁Ed
▁Edel
▁Edelstahl
▁Eden
▁Edge
▁Edi
▁Edit
▁Edition
▁Editor
▁Education
▁Edward
▁Ef
▁Effe
▁Effekt
▁Eg
▁Egg
▁Ego
▁Egypt
▁Eh
▁Ehe
▁Ehr
▁Ehren
▁Ei
▁Eich
▁Eiche
▁Eid
▁Eigen
▁Ein
▁Einbau
▁Eingangs
▁Einkauf
▁Einkaufs
▁Einkommen
▁Einrichtung
▁Einsatz
▁Einstein
▁Einstellung
▁Einzel
▁Eis
▁Eisen
▁Ek
▁El
▁Elast
▁Elasti
▁Ele
▁Electric
▁Electro
▁Electronic
▁Electronics
▁Elegan
▁Elektr
▁Elektri
▁Elektro
▁Elektron
▁Elektronik
▁Element
▁Elena
▁Elf
▁Eli
▁Elia
▁Elite
▁Elizabeth
▁Ell
▁Elle
▁Ellen
▁Els
▁Eltern
▁Elvi
▁Em
▁Email
▁Emb
▁Embr
▁Emil
▁Emilia
▁Emirat
▁Emirates
▁Emma
▁Emo
▁Emp
▁En
▁End
▁Ende
▁Ender
▁Energie
▁Energy
▁Eng
▁Enge
▁Engel
▁Engels
▁Engine
▁Engineer
▁Engineering
▁England
▁English
▁Enkel
▁Ent
▁Enter
▁Enterprise
▁Entertainment
▁Entre
▁Entscheid
▁Entscheidung
▁Entwicklung
▁Entwicklungs
▁Environment
▁Ep
▁Epi
▁Episode
▁Epo
▁Equi
▁Equipment
▁Er
▁Era
▁Erb
▁Erd
▁Erde
▁Erfahrung
▁Erfolg
▁Erfolgs
▁Erg
▁Ergebnis
▁Ergo
▁Eric
▁Erik
▁Erke
▁Erlebnis
▁Ernährung
▁Ero
▁Eroti
▁Erre
▁Ersatz
▁Erst
▁Erw
▁Erwachsene
▁Erz
▁Erzieh
▁Es
▁Escort
▁España
▁Esperanto
▁Ess
▁Essa
▁Esse
▁Essen
▁Essential
▁Est
▁Esta
▁Estate
▁Este
▁Ester
▁Esto
▁Et
▁Eta
▁Eth
▁Ether
▁Ethernet
▁Ethi
▁Etiket
▁Ett
▁Eu
▁Eugen
▁Eur
▁Euro
▁Europ
▁Europa
▁Europe
▁European
▁Eva
▁Evangeli
▁Even
▁Event
▁Events
▁Ever
▁Evo
▁Evolution
▁Ew
▁Ex
▁Excel
▁Excellent
▁Exchange
▁Exe
▁Executive
▁Exo
▁Exp
▁Experience
▁Experiment
▁Expert
▁Experten
▁Explo
▁Explorer
▁Expo
▁Export
▁Express
▁Extension
▁Extr
▁Extra
▁Extrem
▁Extreme
▁Ey
▁Eye
▁Ez
▁F
▁FA
▁FAQ
▁FAR
▁FAT
▁FC
▁FE
▁FF
▁FI
▁FIFA
▁FIS
▁FL
▁FM
▁FO
▁FOR
▁FP
▁FR
▁FRE
▁FREE
▁FS
▁FX
▁Fa
▁Fab
▁Fabi
▁Fabr
▁Fabrik
▁Fac
▁Face
▁Facebook
▁Fach
▁Facilit
▁Factory
▁Fad
▁Fag
▁Fah
▁Fahr
▁Fahrer
▁Fahrrad
▁Fahrzeug
▁Fair
▁Fak
▁Fakt
▁Fal
▁Falcon
▁Falk
▁Fall
▁Falls
▁Fals
▁Falt
▁Fam
▁Famil
▁Familia
▁Familie
▁Familien
▁Family
▁Fan
▁Fang
▁Fantasi
▁Fantasy
▁Far
▁Farb
▁Farbe
▁Farm
▁Faro
▁Fas
▁Fashion
▁Fass
▁Fast
▁Fat
▁Fata
▁Fau
▁Faust
▁Fav
▁Favorit
▁Favorite
▁Fax
▁Fay
▁Faz
▁Fe
▁Feature
▁Features
▁Feb
▁Februar
▁Fed
▁Feder
▁Federal
▁Federation
▁Fee
▁Feed
▁Feedback
▁Feh
▁Fehl
▁Fehler
▁Fei
▁Fein
▁Fel
▁Feld
▁Feli
▁Felic
▁Fell
▁Feminis
▁Fen
▁Feng
▁Fenster
▁Fer
▁Feri
▁Ferie
▁Ferien
▁Ferm
▁Fern
▁Fernande
▁Fernseh
▁Fernández
▁Ferr
▁Ferrar
▁Ferrari
▁Ferri
▁Fertig
▁Fest
▁Festival
▁Fet
▁Fett
▁Feu
▁Feuer
▁Feuerwehr
▁Fi
▁Fic
▁Fich
▁Fid
▁Fie
▁Field
▁Fier
▁Fig
▁Figu
▁Figur
▁Figure
▁Fik
▁Fil
▁File
▁Files
▁Fili
▁Film
▁Filme
▁Films
▁Filter
▁Filtr
▁Fin
▁Final
▁Finance
▁Finanz
▁Find
▁Fine
▁Finger
▁Finish
▁Finn
▁Fior
▁Fir
▁Fire
▁Firefox
▁Firma
▁Firmen
▁First
▁Fisch
▁Fische
▁Fischer
▁Fish
▁Fisher
▁Fisk
▁Fit
▁Fitness
▁Fitz
▁Five
▁Fix
▁Fl
▁Fla
▁Flach
▁Flag
▁Flam
▁Flan
▁Flash
▁Flat
▁Fle
▁Flee
▁Fleisch
▁Fleur
▁Flex
▁Flexi
▁Flight
▁Flip
▁Flo
▁Floor
▁Flor
▁Flora
▁Floren
▁Florence
▁Flori
▁Florida
▁Flot
▁Flow
▁Flu
▁Flug
▁Flughafen
▁Fluor
▁Fly
▁Fläche
▁Flächen
▁Flüchtling
▁Fo
▁Focus
▁Fog
▁Fol
▁Folge
▁Foli
▁Folk
▁Foll
▁Follow
▁Fon
▁Fond
▁Font
▁Fontan
▁Food
▁Foot
▁Football
▁For
▁Force
▁Ford
▁Foren
▁Forest
▁Forex
▁Form
▁Formal
▁Format
▁Formul
▁Formula
▁Forschung
▁Forschungs
▁Forst
▁Fort
▁Forte
▁Forum
▁Fos
▁Foss
▁Fot
▁Foto
▁Fotograf
▁Fotografi
▁Fotos
▁Fou
▁Foundation
▁Four
▁Fox
▁Fr
▁Fra
▁Frag
▁Frage
▁Frame
▁Framework
▁Fran
▁Franc
▁France
▁Francis
▁Francisco
▁Franco
▁Frank
▁Franken
▁Frankfurt
▁Franklin
▁Frant
▁Franz
▁Français
▁Fras
▁Frau
▁Frauen
▁Fre
▁Fred
▁Free
▁Frei
▁Freizeit
▁Fremd
▁Fren
▁French
▁Frequen
▁Fres
▁Freud
▁Freund
▁Fri
▁Friday
▁Fried
▁Frieden
▁Friedens
▁Friedrich
▁Friends
▁Fris
▁Frisch
▁Frit
▁Fro
▁From
▁Front
▁Frost
▁Fru
▁Frucht
▁Fré
▁Früh
▁Frühling
▁Frühstück
▁Fu
▁Fue
▁Fug
▁Fuji
▁Ful
▁Full
▁Fun
▁Function
▁Fund
▁Fundament
▁Fundamental
▁Funk
▁Funktion
▁Funktions
▁Fur
▁Fus
▁Fusion
▁Futter
▁Futur
▁Future
▁Fuß
▁Fußball
▁Fär
▁Fé
▁Fö
▁För
▁Förder
▁Fü
▁Führ
▁Führung
▁Führungs
▁Für
▁G
▁GAS
▁GB
▁GBP
▁GC
▁GD
▁GE
▁GEN
▁GER
▁GF
▁GI
▁GK
▁GM
▁GMT
▁GO
▁GP
▁GPS
▁GR
▁GS
▁GSM
▁GT
▁GUI
▁Ga
▁Gab
▁Gabriel
▁Gad
▁Gag
▁Gai
▁Gal
▁Gala
▁Galax
▁Galaxy
▁Gale
▁Galeri
▁Gali
▁Galile
▁Gall
▁Galla
▁Galleri
▁Gallery
▁Galli
▁Gallo
▁Gam
▁Gama
▁Gamb
▁Game
▁Gamer
▁Games
▁Gaming
▁Gan
▁Gand
▁Gang
▁Ganz
▁Gar
▁Gara
▁Garage
▁Garant
▁Garantie
▁Garb
▁Garcia
▁García
▁Gard
▁Garda
▁Garde
▁Garden
▁Gardens
▁Gare
▁Garga
▁Gari
▁Garn
▁Garr
▁Garten
▁Gas
▁Gasp
▁Gast
▁Gastro
▁Gat
▁Gate
▁Gatt
▁Gau
▁Gaud
▁Gav
▁Gay
▁Gaza
▁Ge
▁Geb
▁Gebi
▁Gebrauch
▁Geburt
▁Geburtstag
▁Gebäude
▁Ged
▁Gedanken
▁Gef
▁Gefä
▁Gegen
▁Geh
▁Geheim
▁Geis
▁Geist
▁Gel
▁Geld
▁Gelen
▁Gem
▁Gemein
▁Gemeinde
▁Gemeins
▁Gen
▁Gene
▁Gener
▁General
▁Generation
▁Generator
▁Geni
▁Geno
▁Gent
▁Genu
▁Geo
▁Geografi
▁Georg
▁George
▁Georgi
▁Georgia
▁Gep
▁Ger
▁Gera
▁Gerb
▁Gere
▁Geri
▁Gericht
▁Gerichts
▁German
▁Germani
▁Germany
▁Gerr
▁Gerät
▁Geräte
▁Ges
▁Gesamt
▁Gesch
▁Geschenk
▁Geschichte
▁Geschlecht
▁Geschmack
▁Geschäft
▁Geschäfts
▁Gesellschaft
▁Gesetz
▁Gesicht
▁Gesichts
▁Gespräch
▁Gest
▁Gestalt
▁Gestaltung
▁Gesundheit
▁Gesundheits
▁Get
▁Getränke
▁Gew
▁Gewerbe
▁Gewicht
▁Gewinn
▁Ghi
▁Ghost
▁Gi
▁Gia
▁Gian
▁Gib
▁Gift
▁Gig
▁Giga
▁Gil
▁Gill
▁Gim
▁Gin
▁Giovanni
▁Gir
▁Girl
▁Girls
▁Giro
▁Gitar
▁Giu
▁Giuli
▁Gl
▁Gla
▁Glad
▁Glan
▁Glas
▁Glass
▁Glei
▁Gleich
▁Glen
▁Gli
▁Glo
▁Glob
▁Global
▁Globe
▁Glu
▁Gly
▁Glück
▁GmbH
▁Go
▁Goal
▁Gob
▁God
▁Goe
▁Gol
▁Gold
▁Golden
▁Golf
▁Gom
▁Gome
▁Gon
▁Gond
▁Gong
▁González
▁Good
▁Google
▁Gor
▁Gordon
▁Gore
▁Gorg
▁Gos
▁Got
▁Goth
▁Gott
▁Gourmet
▁Govern
▁Government
▁Gr
▁Gra
▁Grab
▁Grace
▁Grad
▁Grade
▁Gradu
▁Graf
▁Grafik
▁Gram
▁Gramm
▁Gramma
▁Gran
▁Grand
▁Grande
▁Granit
▁Grant
▁Graph
▁Graphi
▁Gras
▁Grass
▁Grat
▁Gratis
▁Grau
▁Grav
▁Gravi
▁Gray
▁Graz
▁Gre
▁Great
▁Grec
▁Green
▁Greg
▁Grenz
▁Grey
▁Gri
▁Grie
▁Griff
▁Grill
▁Grim
▁Grind
▁Grip
▁Gro
▁Gros
▁Gross
▁Grot
▁Ground
▁Group
▁Groß
▁Gru
▁Grub
▁Grun
▁Grund
▁Grundstück
▁Grupp
▁Gruppe
▁Gruppen
▁Gry
▁Grä
▁Grö
▁Grön
▁Größe
▁Grün
▁Gründ
▁Gu
▁Gua
▁Guadal
▁Guan
▁Guard
▁Guarda
▁Guardian
▁Gue
▁Guer
▁Guest
▁Guesthouse
▁Gug
▁Gui
▁Guide
▁Guil
▁Guin
▁Guitar
▁Gul
▁Gummi
▁Gun
▁Gur
▁Guru
▁Gus
▁Gustav
▁Gut
▁Gute
▁Gutschein
▁Guy
▁Gy
▁Gym
▁Gyn
▁Gä
▁Gäste
▁Gé
▁Gö
▁Gör
▁Göt
▁Göteborg
▁Gü
▁Gül
▁Gün
▁Gür
▁H
▁HA
▁HAL
▁HB
▁HD
▁HDR
▁HE
▁HEL
▁HER
▁HF
▁HI
▁HIV
▁HO
▁HOTEL
▁HP
▁HR
▁HS
▁HTML
▁HTTP
▁HY
▁Ha
▁Haar
▁Hab
▁Habe
▁Haber
▁Hac
▁Hack
▁Had
▁Haf
▁Haft
▁Hag
▁Hah
▁Hai
▁Hain
▁Hair
▁Hak
▁Hakk
▁Hal
▁Halb
▁Half
▁Hall
▁Halle
▁Hallen
▁Hallo
▁Halo
▁Hals
▁Halt
▁Halte
▁Ham
▁Hama
▁Hamburg
▁Hamilton
▁Hamm
▁Hamma
▁Hammer
▁Han
▁Hand
▁Handel
▁Handels
▁Handlung
▁Handlungs
▁Hands
▁Handwerk
▁Handy
▁Hang
▁Hann
▁Hannover
▁Hano
▁Hans
▁Hansen
▁Hap
▁Happy
▁Har
▁Harbor
▁Hard
▁Hardcore
▁Hardware
▁Hari
▁Harm
▁Harmon
▁Harmoni
▁Harris
▁Harry
▁Hart
▁Has
▁Hash
▁Hass
▁Hast
▁Hat
▁Hatt
▁Hau
▁Haug
▁Haupt
▁Haus
▁Haushalt
▁Haushalts
▁Haut
▁Haute
▁Hav
▁Hava
▁Have
▁Hawaii
▁Hawk
▁Hay
▁Haz
▁He
▁Head
▁Health
▁Hear
▁Heart
▁Heat
▁Heath
▁Heb
▁Hebr
▁Heck
▁Hed
▁Heer
▁Hef
▁Hege
▁Hei
▁Heid
▁Heide
▁Heil
▁Heilig
▁Heim
▁Heimat
▁Hein
▁Heiz
▁Heizung
▁Hel
▁Held
▁Helen
▁Helg
▁Heli
▁Hell
▁Helle
▁Helm
▁Help
▁Helsinki
▁Hem
▁Hemm
▁Hen
▁Hendri
▁Heng
▁Henn
▁Henri
▁Henry
▁Her
▁Herbst
▁Here
▁Herk
▁Herman
▁Hermann
▁Hero
▁Herr
▁Herren
▁Hersteller
▁Hert
▁Herz
▁Hess
▁Hesse
▁Het
▁Heu
▁Hew
▁Hex
▁Hey
▁Hi
▁Hier
▁High
▁Highlight
▁Highlights
▁Hil
▁Hilde
▁Hilfs
▁Hill
▁Hills
▁Him
▁Himmel
▁Hin
▁Hind
▁Hindu
▁Hint
▁Hinter
▁Hintergrund
▁Hip
▁Hipp
▁Hippo
▁Hir
▁Hiro
▁Hirsch
▁His
▁Histori
▁Historie
▁History
▁Hit
▁Hitler
▁Hits
▁Hitz
▁Ho
▁Hobby
▁Hoch
▁Hochschul
▁Hochzeit
▁Hochzeits
▁Hock
▁Hockey
▁Hoe
▁Hof
▁Hoff
▁Hog
▁Hohe
▁Hohen
▁Hol
▁Hold
▁Hole
▁Holiday
▁Holl
▁Holland
▁Holly
▁Hollywood
▁Holm
▁Holo
▁Holt
▁Holz
▁Hom
▁Home
▁Homepage
▁Homo
▁Hon
▁Honda
▁Honey
▁Hong
▁Hongkong
▁Honor
▁Hood
▁Hop
▁Hope
▁Hopp
▁Hor
▁Hora
▁Horizon
▁Horizont
▁Hormon
▁Horn
▁Horror
▁Hors
▁Horse
▁Hort
▁Hos
▁Hose
▁Hospital
▁Host
▁Hostel
▁Hot
▁Hotel
▁Hotell
▁Hotels
▁Hou
▁Hour
▁House
▁Houses
▁Houston
▁How
▁Hu
▁Hua
▁Huang
▁Huawei
▁Hub
▁Huh
▁Hul
▁Hum
▁Human
▁Humanit
▁Humm
▁Humor
▁Hun
▁Hund
▁Hunde
▁Hung
▁Hunt
▁Hunter
▁Hur
▁Hus
▁Hut
▁Hy
▁Hybrid
▁Hydrauli
▁Hydro
▁Hyper
▁Hypo
▁Hä
▁Häl
▁Häm
▁Hän
▁Händ
▁Händler
▁Här
▁Hé
▁Hö
▁Höhe
▁Hör
▁Hü
▁I
▁IA
▁IBM
▁IC
▁ICE
▁ICT
▁ID
▁IE
▁IF
▁IG
▁II
▁III
▁IM
▁IMG
▁IMP
▁IN
▁INC
▁IND
▁INTER
▁IP
▁IQ
▁IR
▁IS
▁ISBN
▁ISO
▁IST
▁IT
▁IV
▁IX
▁Ian
▁Ib
▁Iber
▁Ibi
▁Ibrahim
▁Ice
▁Ich
▁Icon
▁Id
▁Ide
▁Ideal
▁Idee
▁Ident
▁If
▁Igna
▁Igua
▁Ih
▁Il
▁Ill
▁Illinois
▁Illustration
▁Im
▁Image
▁Images
▁Imagin
▁Immo
▁Immobili
▁Immobilien
▁Immun
▁Imp
▁Imper
▁Imperi
▁Imperial
▁Implant
▁Implement
▁Import
▁Impression
▁Improv
▁Impuls
▁In
▁Inc
▁Ind
▁Inde
▁Independent
▁Index
▁Indi
▁India
▁Indian
▁Indiana
▁Individu
▁Individual
▁Indo
▁Indonesi
▁Industri
▁Industrial
▁Industrie
▁Industries
▁Industry
▁Infant
▁Infin
▁Infla
▁Info
▁Inform
▁Informa
▁Informati
▁Information
▁Informationen
▁Informations
▁Infos
▁Infra
▁Infrastruktur
▁Ing
▁Inge
▁Ingenieur
▁Inhalt
▁Ink
▁Inn
▁Innen
▁Inner
▁Innova
▁Innovation
▁Innovations
▁Inns
▁Insa
▁Insel
▁Inser
▁Insider
▁Inso
▁Inspe
▁Inspir
▁Inspiration
▁Install
▁Installation
▁Instan
▁Instant
▁Institut
▁Institute
▁Institution
▁Instruk
▁Instrument
▁Insul
▁Int
▁Inte
▁Integr
▁Integration
▁Intel
▁Intelligen
▁Intelligence
▁Intens
▁Intensiv
▁Inter
▁Interes
▁Interesse
▁Interessen
▁Interface
▁Interior
▁Intern
▁Interna
▁International
▁Interne
▁Internet
▁Interpret
▁Interview
▁Inti
▁Intim
▁Intr
▁Intra
▁Invent
▁Inver
▁Invest
▁Investition
▁Investment
▁Investor
▁Ion
▁Ir
▁Irak
▁Iran
▁Ireland
▁Iris
▁Irland
▁Iron
▁Irr
▁Is
▁Isa
▁Isabel
▁Isla
▁Islam
▁Island
▁Islands
▁Iso
▁Isol
▁Isola
▁Israel
▁Israeli
▁Ist
▁Istanbul
▁It
▁Italia
▁Italian
▁Italien
▁Italy
▁Its
▁Ivan
▁J
▁JA
▁JE
▁JO
▁JP
▁JU
▁Ja
▁Jab
▁Jac
▁Jack
▁Jacke
▁Jackpot
▁Jackson
▁Jacob
▁Jacobs
▁Jag
▁Jagd
▁Jahr
▁Jahre
▁Jahres
▁Jahrhundert
▁Jak
▁Jakarta
▁Jakob
▁Jal
▁Jam
▁James
▁Jan
▁Jane
▁Janeiro
▁Januar
▁Japan
▁Jar
▁Jas
▁Java
▁JavaScript
▁Jay
▁Jazz
▁Je
▁Jean
▁Jeans
▁Jed
▁Jeff
▁Jeg
▁Jel
▁Jem
▁Jen
▁Jens
▁Jer
▁Jersey
▁Jerusalem
▁Jes
▁Jess
▁Jesu
▁Jesus
▁Jet
▁Ji
▁Jia
▁Jiang
▁Jim
▁Jin
▁Jo
▁Joan
▁Job
▁Jobs
▁Jod
▁Joe
▁Jog
▁Johann
▁Johannes
▁John
▁Johnson
▁Join
▁Joker
▁Jon
▁Jones
▁Jong
▁Jord
▁Jordan
▁Jos
▁Jose
▁Josef
▁Joseph
▁Jou
▁Journal
▁Journalist
▁Joy
▁Jr
▁Ju
▁Juan
▁Jud
▁Juda
▁Jude
▁Judi
▁Jugend
▁Juk
▁Jul
▁Juli
▁Julia
▁Julian
▁Jump
▁Jun
▁June
▁Jung
▁Juni
▁Junior
▁Jupiter
▁Jur
▁Jura
▁Juris
▁Just
▁Justi
▁Justin
▁Já
▁Jä
▁Jö
▁K
▁KAR
▁KB
▁KE
▁KG
▁KI
▁KM
▁KO
▁KOM
▁KON
▁KOS
▁KP
▁KR
▁Ka
▁Kab
▁Kabel
▁Kabine
▁Kabu
▁Kac
▁Kad
▁Kaf
▁Kaffe
▁Kaffee
▁Kah
▁Kai
▁Kair
▁Kaiser
▁Kak
▁Kaka
▁Kal
▁Kala
▁Kalb
▁Kale
▁Kalender
▁Kali
▁Kaliforni
▁Kalk
▁Kalla
▁Kalli
▁Kalo
▁Kam
▁Kamal
▁Kame
▁Kamer
▁Kamera
▁Kami
▁Kamin
▁Kammer
▁Kamp
▁Kampan
▁Kampf
▁Kan
▁Kana
▁Kanad
▁Kanada
▁Kanal
▁Kandidat
▁Kang
▁Kann
▁Kant
▁Kanto
▁Kap
▁Kapit
▁Kapital
▁Kapp
▁Kapu
▁Kar
▁Kara
▁Karen
▁Kari
▁Karim
▁Karin
▁Karl
▁Karls
▁Karma
▁Karpa
▁Karriere
▁Kart
▁Karte
▁Karten
▁Kartoffel
▁Kas
▁Kasi
▁Kassa
▁Kasse
▁Kast
▁Kasta
▁Kaste
▁Kat
▁Kata
▁Katal
▁Katalo
▁Katalog
▁Katar
▁Kate
▁Kategori
▁Kategorie
▁Kategorien
▁Kath
▁Kati
▁Katze
▁Katzen
▁Kau
▁Kauf
▁Kauk
▁Kaup
▁Kaval
▁Kay
▁Kazi
▁Ke
▁Keh
▁Kei
▁Kek
▁Kel
▁Kell
▁Keller
▁Kelly
▁Kemp
▁Ken
▁Kenn
▁Kennedy
▁Kent
▁Kep
▁Ker
▁Keramik
▁Kerk
▁Kern
▁Kerr
▁Kes
▁Ket
▁Kette
▁Ketten
▁Key
▁Keyboard
▁Keys
▁Keyword
▁Keywords
▁Kh
▁Kha
▁Kham
▁Khan
▁Khar
▁Kho
▁Ki
▁Kick
▁Kid
▁Kids
▁Kiel
▁Kies
▁Kil
▁Kill
▁Killer
▁Kilo
▁Kilometer
▁Kim
▁Kin
▁Kind
▁Kinder
▁Kindergarten
▁King
▁Kingdom
▁Kings
▁Kinn
▁Kino
▁Kio
▁Kip
▁Kir
▁Kira
▁Kirch
▁Kirche
▁Kirchen
▁Kiri
▁Kirk
▁Kis
▁Kiss
▁Kit
▁Kitchen
▁Kite
▁Kits
▁Kitt
▁Kl
▁Kla
▁Klang
▁Klapp
▁Klar
▁Klass
▁Klasse
▁Klassen
▁Klassi
▁Klaus
▁Kle
▁Kleb
▁Kleid
▁Kleider
▁Klein
▁Klem
▁Kletter
▁Klient
▁Klim
▁Klima
▁Klimat
▁Klin
▁Kling
▁Klinik
▁Klip
▁Klo
▁Kloster
▁Klu
▁Klub
▁Km
▁Kne
▁Kni
▁Knie
▁Knight
▁Kno
▁Knochen
▁Know
▁Ko
▁Kob
▁Koch
▁Kod
▁Koda
▁Kode
▁Kodi
▁Koh
▁Kohl
▁Kok
▁Koka
▁Kokos
▁Kol
▁Kola
▁Kolb
▁Koll
▁Kolo
▁Koloni
▁Kom
▁Kombi
▁Kombin
▁Komfort
▁Komi
▁Komit
▁Komm
▁Kommenta
▁Kommentar
▁Kommentare
▁Kommun
▁Kommunal
▁Kommune
▁Kommunikation
▁Kommunikations
▁Komp
▁Kompa
▁Kompakt
▁Komple
▁Komplett
▁Kompos
▁Kon
▁Kondi
▁Konf
▁Konfigur
▁Konflikt
▁Kong
▁Kongre
▁Kongress
▁Konk
▁Konkurren
▁Konkurs
▁Kons
▁Konser
▁Konservat
▁Konsol
▁Konstan
▁Konstant
▁Konstantino
▁Konstitu
▁Konstruk
▁Konsul
▁Konsult
▁Konsum
▁Konsument
▁Kont
▁Kontakt
▁Kontin
▁Konto
▁Kontra
▁Kontrak
▁Kontrast
▁Kontroll
▁Konver
▁Konzert
▁Kooperation
▁Koordin
▁Koordina
▁Kop
▁Kopf
▁Kopi
▁Kopp
▁Kor
▁Korea
▁Kork
▁Korn
▁Korp
▁Kors
▁Kort
▁Kos
▁Kosmetik
▁Kosmo
▁Kosov
▁Kost
▁Kosten
▁Kostenlos
▁Kot
▁Kota
▁Kou
▁Kow
▁Koz
▁Kr
▁Kra
▁Krab
▁Kraft
▁Krak
▁Kram
▁Kran
▁Kranken
▁Krankenhaus
▁Krankheit
▁Krat
▁Krau
▁Kre
▁Kreat
▁Kreativ
▁Kredit
▁Kreis
▁Krem
▁Kreml
▁Kret
▁Kreuz
▁Kri
▁Krieg
▁Kriegs
▁Krim
▁Krimin
▁Kriminal
▁Kris
▁Kristall
▁Kritik
▁Kro
▁Krok
▁Kron
▁Kru
▁Krum
▁Krup
▁Krus
▁Kry
▁Krypto
▁Krä
▁Kräuter
▁Ku
▁Kub
▁Kuba
▁Kubi
▁Kugel
▁Kuh
▁Kul
▁Kuli
▁Kult
▁Kultur
▁Kultura
▁Kum
▁Kun
▁Kund
▁Kunde
▁Kunden
▁Kunst
▁Kunststoff
▁Kup
▁Kupfer
▁Kur
▁Kura
▁Kurd
▁Kurdistan
▁Kuri
▁Kuro
▁Kurs
▁Kurt
▁Kurz
▁Kus
▁Kut
▁Kvar
▁Kwa
▁Ky
▁Kyoto
▁Kä
▁Kär
▁Käs
▁Kö
▁Köln
▁Kön
▁König
▁Königs
▁Köp
▁Kör
▁Körper
▁Kü
▁Küche
▁Küchen
▁Kühl
▁Künstler
▁Kür
▁L
▁LA
▁LAN
▁LC
▁LCD
▁LE
▁LED
▁LG
▁LI
▁LIFE
▁LIN
▁LIVE
▁LO
▁LP
▁LUM
▁La
▁Lab
▁Label
▁Labor
▁Laboratori
▁Lac
▁Lach
▁Lack
▁Lad
▁Lade
▁Laden
▁Lady
▁Laf
▁Lage
▁Lager
▁Lago
▁Lagun
▁Lai
▁Lake
▁Lam
▁Lama
▁Lamb
▁Lambert
▁Lamm
▁Lamp
▁Lampe
▁Lan
▁Lance
▁Land
▁Landes
▁Lands
▁Landschaft
▁Landwirtschaft
▁Lane
▁Lang
▁Lange
▁Language
▁Lanka
▁Lanz
▁Laos
▁Lapp
▁Laptop
▁Lar
▁Large
▁Lars
▁Las
▁Laser
▁Lass
▁Last
▁Lasten
▁Lat
▁Late
▁Later
▁Latin
▁Lau
▁Laud
▁Lauf
▁Launch
▁Laura
▁Lauren
▁Laurent
▁Laut
▁Lava
▁Law
▁Lawrence
▁Lazar
▁Le
▁Lead
▁Leader
▁League
▁Learn
▁Learning
▁Leasing
▁Lebe
▁Leben
▁Lebens
▁Lebensmittel
▁Lec
▁Lech
▁Led
▁Leder
▁Lee
▁Leer
▁Leg
▁Lega
▁Legal
▁Lege
▁Legend
▁Legi
▁Legion
▁Legislat
▁Lego
▁Leh
▁Lehr
▁Lehrer
▁Lei
▁Leib
▁Leic
▁Leicht
▁Leid
▁Leipzig
▁Leistung
▁Leistungs
▁Leit
▁Lek
▁Lem
▁Len
▁Lenin
▁Lenk
▁Lenn
▁Leo
▁Leon
▁Leonard
▁Lern
▁Les
▁Leser
▁Let
▁Lett
▁Letter
▁Leucht
▁Leuk
▁Lev
▁Level
▁Levi
▁Lewis
▁Lex
▁Ley
▁Li
▁Lib
▁Liber
▁Liberal
▁Libert
▁Libra
▁Library
▁Libre
▁License
▁Lich
▁Licht
▁Lid
▁Lie
▁Lieb
▁Liebe
▁Lieblings
▁Liefer
▁Lies
▁Life
▁Lifestyle
▁Lift
▁Lig
▁Liga
▁Light
▁Like
▁Lili
▁Lille
▁Lim
▁Lima
▁Lime
▁Limit
▁Limited
▁Limon
▁Lin
▁Lina
▁Lincoln
▁Lind
▁Linda
▁Linde
▁Linden
▁Line
▁Ling
▁Lingu
▁Lini
▁Link
▁Links
▁Lins
▁Linux
▁Lion
▁Lip
▁Lipp
▁Liquid
▁Lis
▁Lisa
▁Lisbo
▁List
▁Liste
▁Lit
▁Lite
▁Liter
▁Litera
▁Literatur
▁Little
▁Liu
▁Live
▁Liverpool
▁Livi
▁Living
▁Liz
▁Lizenz
▁Ljubljana
▁Lo
▁Lob
▁Loc
▁Local
▁Locat
▁Location
▁Loch
▁Lock
▁Lod
▁Lodge
▁Loft
▁Log
▁Logi
▁Login
▁Logistik
▁Logo
▁Loh
▁Loi
▁Lok
▁Lokal
▁Lom
▁Lombard
▁Lon
▁London
▁Long
▁Loo
▁Look
▁Loop
▁Lopez
▁Lor
▁Lord
▁Lore
▁Lorenz
▁Los
▁Lot
▁Lou
▁Louis
▁Lounge
▁Lov
▁Love
▁Low
▁Ltd
▁Lu
▁Lub
▁Luc
▁Luca
▁Lucas
▁Luci
▁Lucia
▁Lud
▁Ludwig
▁Luft
▁Luga
▁Luis
▁Luka
▁Lul
▁Lum
▁Lumi
▁Lumpur
▁Lun
▁Luna
▁Lund
▁Lung
▁Lup
▁Lust
▁Lut
▁Luther
▁Lux
▁Luxembourg
▁Luxemburg
▁Luxus
▁Luz
▁Ly
▁Lyc
▁Lyn
▁Lyon
▁Lys
▁Lä
▁Läh
▁Länder
▁Läng
▁Lé
▁Lö
▁Lösung
▁Lü
▁M
▁MA
▁MAC
▁MAD
▁MAG
▁MAI
▁MAN
▁MAP
▁MAR
▁MAS
▁MAX
▁MB
▁MBA
▁MC
▁MD
▁ME
▁MED
▁MEDIA
▁MG
▁MI
▁MIT
▁MM
▁MO
▁MOD
▁MON
▁MOS
▁MOV
▁MP
▁MR
▁MS
▁MT
▁MW
▁MY
▁Ma
▁Maas
▁Maat
▁Mac
▁Maca
▁Mach
▁Machi
▁Machine
▁Macht
▁Mack
▁Macro
▁Mad
▁Madagas
▁Made
▁Madr
▁Madrid
▁Mae
▁Mag
▁Maga
▁Magazin
▁Magazine
▁Magd
▁Magen
▁Magi
▁Magic
▁Magistr
▁Magna
▁Magnet
▁Mah
▁Maha
▁Mahl
▁Mai
▁Mail
▁Main
▁Mais
▁Maison
▁Maj
▁Majest
▁Major
▁Mak
▁Makar
▁Make
▁Makedoni
▁Maker
▁Makro
▁Mal
▁Mala
▁Malaysia
▁Male
▁Mali
▁Mall
▁Mallorca
▁Malm
▁Malo
▁Malta
▁Mam
▁Mama
▁Man
▁Mana
▁Manag
▁Manage
▁Management
▁Manager
▁Manch
▁Manche
▁Manchester
▁Mand
▁Mandel
▁Mandr
▁Manga
▁Mange
▁Mango
▁Manhattan
▁Mani
▁Manifest
▁Manipul
▁Mann
▁Mannschaft
▁Mano
▁Mans
▁Manu
▁Manual
▁Manuel
▁Many
▁Map
▁Mar
▁Mara
▁Marathon
▁Marc
▁Marcel
▁March
▁Marco
▁Mare
▁Marg
▁Margaret
▁Margin
▁Mari
▁Maria
▁Marian
▁Marie
▁Marij
▁Marin
▁Marina
▁Marine
▁Marino
▁Mario
▁Mark
▁Marke
▁Marken
▁Market
▁Marketing
▁Markt
▁Marmo
▁Marok
▁Marqu
▁Marra
▁Mars
▁Marseille
▁Marshall
▁Mart
▁Marta
▁Marti
▁Martin
▁Martinez
▁Marty
▁Martín
▁Marx
▁Mary
▁Marz
▁Marí
▁Mas
▁Masa
▁Masch
▁Maschinen
▁Mask
▁Mass
▁Massa
▁Massachusetts
▁Massage
▁Masse
▁Massen
▁Mast
▁Master
▁Masters
▁Mat
▁Mata
▁Match
▁Mate
▁Materi
▁Material
▁Materiali
▁Materials
▁Math
▁Mathemati
▁Matrix
▁Matt
▁Matte
▁Matter
▁Matthew
▁Matti
▁Mau
▁Mauer
▁Maul
▁Maur
▁Mauri
▁Maus
▁Max
▁Maxi
▁Maxim
▁May
▁Maya
▁Mayo
▁Maz
▁Maza
▁Mazz
▁Mc
▁McC
▁McCa
▁McCo
▁McDonald
▁McG
▁McK
▁Me
▁Mec
▁Mech
▁Mechani
▁Med
▁Medi
▁Media
▁Medica
▁Medical
▁Medici
▁Medicine
▁Medien
▁Medikament
▁Medium
▁Medizin
▁Meer
▁Meeres
▁Meeting
▁Mega
▁Meh
▁Mehr
▁Mei
▁Meil
▁Mein
▁Meinung
▁Meist
▁Meister
▁Mel
▁Mela
▁Melbourne
▁Meld
▁Meli
▁Melo
▁Mem
▁Member
▁Memory
▁Men
▁Mendel
▁Meng
▁Menge
▁Mensch
▁Menschen
▁Mental
▁Mentor
▁Menu
▁Mer
▁Mera
▁Merc
▁Mercedes
▁Mercury
▁Meri
▁Merk
▁Merkel
▁Merl
▁Mes
▁Mess
▁Messag
▁Message
▁Messe
▁Messenger
▁Messer
▁Messi
▁Messin
▁Mest
▁Met
▁Meta
▁Metal
▁Metall
▁Meter
▁Method
▁Metro
▁Metropolitan
▁Mex
▁Mexico
▁Meyer
▁Mez
▁Mi
▁Mia
▁Miami
▁Mich
▁Micha
▁Michael
▁Michel
▁Michelin
▁Michigan
▁Micro
▁Microsoft
▁Mid
▁Middle
▁Midi
▁Miet
▁Migr
▁Migration
▁Miguel
▁Mike
▁Mikro
▁Mil
▁Milan
▁Milano
▁Milch
▁Mile
▁Miles
▁Mili
▁Milit
▁Militar
▁Militär
▁Mill
▁Miller
▁Milli
▁Million
▁Milo
▁Min
▁Mina
▁Mind
▁Mindest
▁Mine
▁Mineral
▁Ming
▁Mini
▁Miniatur
▁Minim
▁Minimal
▁Minister
▁Ministeri
▁Minor
▁Minu
▁Minute
▁Mio
▁Mir
▁Mira
▁Mirror
▁Mis
▁Misch
▁Miss
▁Mission
▁Mistr
▁Mit
▁Mitarbeiter
▁Mitglied
▁Mitglieder
▁Mitt
▁Mitta
▁Mitte
▁Mittel
▁Mix
▁Mlad
▁Mo
▁Mob
▁Mobil
▁Mobile
▁Mobili
▁Mod
▁Mode
▁Model
▁Modell
▁Modelle
▁Moder
▁Moderat
▁Modern
▁Modi
▁Modifi
▁Modul
▁Module
▁Moe
▁Mog
▁Moh
▁Mol
▁Mold
▁Mole
▁Molin
▁Moll
▁Moment
▁Mon
▁Monat
▁Monats
▁Mond
▁Monday
▁Monde
▁Monet
▁Money
▁Mongol
▁Monitor
▁Mono
▁Mons
▁Monster
▁Mont
▁Montag
▁Montage
▁Montan
▁Montana
▁Monte
▁Monter
▁Monti
▁Montre
▁Montreal
▁Monument
▁Mood
▁Moon
▁Moor
▁Moore
▁Moos
▁Mor
▁Mora
▁Moral
▁Mord
▁More
▁Morgan
▁Morgen
▁Mori
▁Moro
▁Morris
▁Mort
▁Mos
▁Mosc
▁Mose
▁Mosk
▁Moss
▁Most
▁Mot
▁Motel
▁Motion
▁Motiv
▁Motivation
▁Moto
▁Motor
▁Motorrad
▁Motors
▁Motorsport
▁Mou
▁Mount
▁Mountain
▁Mour
▁Mous
▁Mouse
▁Move
▁Movie
▁Movies
▁Moy
▁Mozart
▁Mr
▁Mu
▁Mud
▁Mug
▁Muhammad
▁Mul
▁Mull
▁Multi
▁Multifunktions
▁Multimedia
▁Multiple
▁Mum
▁Mumbai
▁Mun
▁Mund
▁Muni
▁Mur
▁Mura
▁Mus
▁Musa
▁Muse
▁Museum
▁Music
▁Musical
▁Musik
▁Musk
▁Muskel
▁Muslim
▁Muss
▁Muster
▁Mut
▁Mutter
▁My
▁Myr
▁Myth
▁Má
▁Mä
▁Mädchen
▁Män
▁Männ
▁Männer
▁Mär
▁Mé
▁Mér
▁Mö
▁Möbel
▁Mü
▁Müh
▁Mühl
▁Müll
▁Müller
▁Mün
▁Münch
▁München
▁Müs
▁N
▁NA
▁NASA
▁NATO
▁NBA
▁NC
▁NE
▁NEC
▁NEU
▁NEW
▁NGO
▁NH
▁NI
▁NO
▁NOK
▁NOR
▁NORD
▁NOT
▁NS
▁NT
▁NU
▁NUR
▁NV
▁NY
▁Na
▁Nach
▁Nachbar
▁Nachhaltigkeit
▁Nachricht
▁Nachrichten
▁Nacht
▁Nachwuchs
▁Nacional
▁Nad
▁Nag
▁Naga
▁Nagel
▁Nah
▁Nahrungs
▁Nam
▁Name
▁Namen
▁Nan
▁Nano
▁Nap
▁Napol
▁Napoleon
▁Napoli
▁Nar
▁Narr
▁Nas
▁Nase
▁Nat
▁Nation
▁National
▁Nato
▁Natur
▁Natura
▁Natural
▁Nature
▁Nau
▁Nav
▁Navarr
▁Navi
▁Navig
▁Navigation
▁Navy
▁Naz
▁Nazar
▁Nazi
▁Ne
▁Nea
▁Neb
▁Neben
▁Neck
▁Ned
▁Need
▁Neg
▁Negativ
▁Negr
▁Neh
▁Nek
▁Nel
▁Nelson
▁Nem
▁Nen
▁Neo
▁Neon
▁Nepal
▁Ner
▁Nero
▁Nerv
▁Ness
▁Nest
▁Net
▁Nett
▁Netto
▁Network
▁Netz
▁Netzwerk
▁Neu
▁Neue
▁Neuro
▁Neutr
▁Neutral
▁Neve
▁Never
▁New
▁News
▁Newsletter
▁Newton
▁Next
▁Ney
▁Nga
▁Ni
▁Nic
▁Nice
▁Nichol
▁Nicht
▁Nick
▁Nickel
▁Nico
▁Nicol
▁Nicola
▁Nie
▁Nieder
▁Niger
▁Nigeria
▁Night
▁Nike
▁Nikk
▁Niko
▁Nikola
▁Nil
▁Nin
▁Nina
▁Nine
▁Nintendo
▁Nir
▁Nis
▁Nissan
▁Nitr
▁Nitro
▁No
▁Nobel
▁Nog
▁Nokia
▁Nom
▁Nomin
▁Nomina
▁Non
▁Noord
▁Nor
▁Nord
▁Norm
▁Normal
▁Norman
▁Norte
▁North
▁Nos
▁Not
▁Notar
▁Note
▁Notebook
▁Notfall
▁Nou
▁Nov
▁Nova
▁Novel
▁November
▁Novi
▁Novo
▁Now
▁Nr
▁Nu
▁Nuk
▁Null
▁Number
▁Nun
▁Nur
▁Nus
▁Nutz
▁Nutzung
▁Nutzungs
▁Ny
▁Nä
▁Näh
▁Nö
▁Nü
▁O
▁OD
▁OF
▁OK
▁OM
▁ON
▁ONE
▁ONLINE
▁OP
▁OR
▁OS
▁Oak
▁Ob
▁Obama
▁Ober
▁Oberflächen
▁Obi
▁Object
▁Objekt
▁Obr
▁Obs
▁Obst
▁Oc
▁Ocean
▁Och
▁Oct
▁Od
▁Odd
▁Odo
▁Of
▁Off
▁Offen
▁Offer
▁Office
▁Officer
▁Og
▁Oh
▁Ohr
▁Oil
▁Ok
▁Okt
▁Oktober
▁Ol
▁Ola
▁Old
▁Ole
▁Oli
▁Olive
▁Oliver
▁Oll
▁Olm
▁Olymp
▁Olympia
▁Om
▁Omega
▁Omni
▁On
▁One
▁Online
▁Only
▁Oost
▁Op
▁Opa
▁Open
▁Oper
▁Opera
▁Operati
▁Operation
▁Operations
▁Operator
▁Opportunit
▁Opti
▁Optim
▁Optima
▁Option
▁Options
▁Or
▁Ora
▁Orange
▁Orchest
▁Orchestra
▁Orden
▁Order
▁Ordn
▁Ordnung
▁Ore
▁Org
▁Organ
▁Organis
▁Organisa
▁Organisation
▁Organisations
▁Organization
▁Orient
▁Oriental
▁Original
▁Originals
▁Orlando
▁Orleans
▁Oro
▁Ort
▁Ortho
▁Orts
▁Os
▁Osaka
▁Oscar
▁Oslo
▁Osman
▁Ost
▁Osta
▁Osteo
▁Oster
▁Other
▁Ott
▁Otto
▁Ou
▁Our
▁Out
▁Outdoor
▁Outfit
▁Outlet
▁Outlook
▁Over
▁Ox
▁Oxford
▁P
▁PA
▁PAL
▁PAS
▁PC
▁PCI
▁PDF
▁PE
▁PER
▁PH
▁PHOTO
▁PHP
▁PIC
▁PIN
▁PL
▁PLAY
▁PLN
▁PLUS
▁PM
▁POP
▁POS
▁POWER
▁PP
▁PR
▁PRE
▁PRO
▁PROFI
▁PS
▁PT
▁PU
▁PV
▁PVC
▁Pa
▁Paar
▁Pac
▁Pach
▁Pacific
▁Pack
▁Package
▁Pad
▁Pag
▁Page
▁Paint
▁Pak
▁Paket
▁Pakistan
▁Pal
▁Pala
▁Palace
▁Palai
▁Palat
▁Pali
▁Palm
▁Palma
▁Palo
▁Pamp
▁Pan
▁Pana
▁Panasonic
▁Panda
▁Pande
▁Pane
▁Panel
▁Pani
▁Panoram
▁Panorama
▁Panta
▁Panto
▁Pap
▁Papa
▁Paper
▁Papier
▁Papp
▁Papu
▁Par
▁Para
▁Paradi
▁Paradis
▁Paradise
▁Parado
▁Parallel
▁Parc
▁Pari
▁Paris
▁Park
▁Parker
▁Parkinson
▁Parlament
▁Parma
▁Parod
▁Part
▁Partei
▁Parti
▁Partner
▁Partners
▁Parts
▁Party
▁Pas
▁Paso
▁Pass
▁Passa
▁Passag
▁Passe
▁Passion
▁Password
▁Past
▁Pasta
▁Paste
▁Pastor
▁Pat
▁Patch
▁Patent
▁Pater
▁Path
▁Pati
▁Patient
▁Patienten
▁Patri
▁Patriar
▁Patrick
▁Patriot
▁Patron
▁Patt
▁Pau
▁Paul
▁Paulo
▁Paus
▁Pav
▁Pay
▁Paz
▁Pe
▁Peace
▁Peak
▁Pearl
▁Pech
▁Pedal
▁Pedr
▁Pedro
▁Peer
▁Pel
▁Pelo
▁Pem
▁Pen
▁Pend
▁Pende
▁Pene
▁Penn
▁Pennsylvania
▁Pens
▁Pension
▁Penta
▁People
▁Pep
▁Pepper
▁Per
▁Pere
▁Perfect
▁Performance
▁Perg
▁Peri
▁Period
▁Perl
▁Perle
▁Pero
▁Pers
▁Persi
▁Person
▁Personal
▁Personen
▁Persönlichkeit
▁Peru
▁Pes
▁Pesca
▁Pest
▁Pet
▁Pete
▁Peter
▁Peters
▁Petersburg
▁Peti
▁Petit
▁Petr
▁Petra
▁Petri
▁Petro
▁Petru
▁Pf
▁Pfe
▁Pferd
▁Pferde
▁Pflanze
▁Pflanzen
▁Pflege
▁Pflicht
▁Ph
▁Phan
▁Phar
▁Pharma
▁Phase
▁Phi
▁Phil
▁Philadelphia
▁Philip
▁Philipp
▁Philippine
▁Philips
▁Phillip
▁Philosoph
▁Pho
▁Phoenix
▁Phone
▁Photo
▁Photograph
▁Photos
▁Photoshop
▁Physi
▁Physio
▁Pi
▁Pia
▁Pian
▁Piano
▁Pic
▁Pick
▁Pico
▁Picture
▁Pictures
▁Pie
▁Pier
▁Pierre
▁Pik
▁Pil
▁Pill
▁Pilot
▁Pin
▁Pina
▁Pine
▁Ping
▁Pink
▁Pino
▁Pint
▁Pion
▁Pipe
▁Pir
▁Pirate
▁Pis
▁Pisa
▁Pit
▁Pitt
▁Pixel
▁Pizz
▁Pizza
▁Pl
▁Pla
▁Place
▁Plak
▁Plan
▁Plane
▁Planet
▁Plans
▁Plant
▁Planta
▁Planung
▁Plasma
▁Plast
▁Plastic
▁Plastik
▁Plat
▁Plata
▁Plate
▁Platform
▁Platin
▁Platinum
▁Plato
▁Platte
▁Platten
▁Platz
▁Play
▁PlayStation
▁Player
▁Plaza
▁Ple
▁Plen
▁Plo
▁Plot
▁Plug
▁Plus
▁Plut
▁Po
▁Pocket
▁Pod
▁Podcast
▁Poet
▁Point
▁Points
▁Poker
▁Pol
▁Polar
▁Pole
▁Poli
▁Police
▁Policy
▁Polit
▁Politi
▁Politik
▁Polizei
▁Poll
▁Polo
▁Poly
▁Polyester
▁Pom
▁Pomp
▁Pompe
▁Pon
▁Pont
▁Ponte
▁Ponti
▁Pool
▁Pop
▁Popp
▁Popul
▁Popular
▁Por
▁Porn
▁Porno
▁Porsche
▁Port
▁Porta
▁Portable
▁Portal
▁Porte
▁Portfolio
▁Portland
▁Porto
▁Portug
▁Portugal
▁Pos
▁Pose
▁Posi
▁Position
▁Positiv
▁Post
▁Poster
▁Pot
▁Poten
▁Poto
▁Potter
▁Poul
▁Pour
▁Power
▁PowerPoint
▁Poz
▁Pr
▁Pra
▁Practice
▁Prad
▁Pradesh
▁Prag
▁Prague
▁Prai
▁Prakt
▁Praktik
▁Prat
▁Praxis
▁Pre
▁Pred
▁Preis
▁Premier
▁Premium
▁Pres
▁President
▁Press
▁Presse
▁Pret
▁Pri
▁Price
▁Prie
▁Prim
▁Prima
▁Prime
▁Primo
▁Prince
▁Princes
▁Princess
▁Princip
▁Print
▁Prior
▁Pris
▁Privat
▁Private
▁Pro
▁Prob
▁Probe
▁Problem
▁Process
▁Produ
▁Product
▁Production
▁Products
▁Produkt
▁Produkte
▁Produktion
▁Produktions
▁Prof
▁Profession
▁Professional
▁Professor
▁Profi
▁Profil
▁Profile
▁Profit
▁Program
▁Programm
▁Programma
▁Programme
▁Project
▁Projekt
▁Projekte
▁Promo
▁Promotion
▁Pron
▁Prop
▁Property
▁Pros
▁Prostat
▁Prote
▁Protection
▁Protein
▁Protest
▁Proto
▁Protocol
▁Provin
▁Provo
▁Prox
▁Prozess
▁Pru
▁Prä
▁Pré
▁Prüf
▁Prüfung
▁Pseudo
▁Psych
▁Psycho
▁Psycholog
▁Psychologi
▁Pu
▁Pub
▁Publi
▁Public
▁Publik
▁Publisher
▁Publishing
▁Pul
▁Pula
▁Pull
▁Puls
▁Pump
▁Pun
▁Punk
▁Punkt
▁Punkte
▁Pupp
▁Pur
▁Pure
▁Push
▁Put
▁Putin
▁Puzzle
▁Py
▁Pyr
▁Python
▁Pä
▁Pü
▁Q
▁QR
▁Qa
▁Qi
▁Qing
▁Qu
▁Qua
▁Quad
▁Quadr
▁Quadra
▁Qual
▁Qualit
▁Quality
▁Qualität
▁Qualitäts
▁Quant
▁Quar
▁Quart
▁Quarter
▁Que
▁Queen
▁Queens
▁Quell
▁Quelle
▁Quer
▁Quest
▁Qui
▁Quick
▁Quin
▁Quint
▁Quinta
▁Quo
▁Quote
▁R
▁RA
▁RAM
▁RC
▁RE
▁REC
▁REM
▁RF
▁RI
▁RJ
▁RM
▁RO
▁ROM
▁RP
▁RS
▁RSS
▁RT
▁RU
▁RUS
▁Ra
▁Rab
▁Rabat
▁Rabatt
▁Rabbi
▁Race
▁Rach
▁Racing
▁Rack
▁Rad
▁Rade
▁Radi
▁Radio
▁Raf
▁Raff
▁Rag
▁Rah
▁Rahmen
▁Rai
▁Rail
▁Rain
▁Raj
▁Raja
▁Rak
▁Ral
▁Rally
▁Ram
▁Rama
▁Ramb
▁Ramp
▁Rams
▁Ran
▁Ranch
▁Rand
▁Rang
▁Range
▁Rank
▁Rap
▁Rapid
▁Rapp
▁Ras
▁Rass
▁Rast
▁Rat
▁Rate
▁Rath
▁Rating
▁Ratt
▁Rau
▁Rauch
▁Raum
▁Raven
▁Raw
▁Ray
▁Raz
▁Re
▁Read
▁Reader
▁Reading
▁Real
▁Reality
▁Reb
▁Rebel
▁Rec
▁Recep
▁Rechnung
▁Recht
▁Rechts
▁Record
▁Records
▁Red
▁Redak
▁Redaktion
▁Rede
▁Redu
▁Reed
▁Ref
▁Refer
▁Referen
▁Referenz
▁Reflek
▁Reflex
▁Reform
▁Reforma
▁Refu
▁Reg
▁Regal
▁Regel
▁Regen
▁Regi
▁Regierung
▁Regierungs
▁Region
▁Regional
▁Register
▁Registr
▁Regl
▁Regul
▁Regula
▁Regular
▁Reh
▁Rei
▁Reich
▁Reichs
▁Reifen
▁Reik
▁Reim
▁Rein
▁Reinigung
▁Reinigungs
▁Reis
▁Reise
▁Reit
▁Reklam
▁Rekord
▁Rekr
▁Rela
▁Relations
▁Relax
▁Release
▁Reli
▁Religion
▁Rem
▁Remix
▁Ren
▁Rena
▁Renault
▁Rend
▁Renn
▁Reno
▁Renov
▁Rent
▁Rep
▁Reparatur
▁Repli
▁Report
▁Reporter
▁Republic
▁Republik
▁Request
▁Res
▁Research
▁Reserv
▁Reserva
▁Reserve
▁Resid
▁Residence
▁Resort
▁Resource
▁Resources
▁Ressource
▁Rest
▁Restaur
▁Restaurant
▁Restaurants
▁Resultat
▁Ret
▁Retail
▁Retro
▁Rett
▁Rettungs
▁Return
▁Rev
▁Rever
▁Revi
▁Review
▁Reviews
▁Revision
▁Revolution
▁Rex
▁Rey
▁Rez
▁Rezept
▁Rhe
▁Rhein
▁Rhin
▁Rho
▁Rhod
▁Ri
▁Ria
▁Rib
▁Ribe
▁Rica
▁Ricc
▁Rice
▁Rich
▁Richard
▁Richt
▁Richter
▁Rick
▁Rico
▁Ride
▁Rie
▁Ries
▁Riesen
▁Rif
▁Rig
▁Rij
▁Rik
▁Rin
▁Rind
▁Ring
▁Rio
▁Rip
▁Ripp
▁Ris
▁Risik
▁Risiko
▁Risk
▁Rit
▁Riva
▁River
▁Ro
▁Road
▁Rob
▁Robb
▁Robert
▁Robin
▁Robinson
▁Robot
▁Roc
▁Roch
▁Roche
▁Rock
▁Rod
▁Rode
▁Rog
▁Roger
▁Roh
▁Rohr
▁Roj
▁Rok
▁Rol
▁Role
▁Roll
▁Rolle
▁Rollen
▁Rom
▁Roma
▁Roman
▁Romano
▁Rome
▁Ron
▁Ronald
▁Rond
▁Roo
▁Room
▁Rooms
▁Roos
▁Root
▁Ros
▁Rosa
▁Rose
▁Rosen
▁Ross
▁Rossi
▁Rost
▁Rot
▁Rota
▁Rote
▁Roth
▁Roto
▁Rotterdam
▁Rou
▁Rouge
▁Round
▁Rouss
▁Rout
▁Route
▁Rov
▁Rover
▁Row
▁Rox
▁Roy
▁Royal
▁Roz
▁Ru
▁Rua
▁Rub
▁Rubi
▁Rubin
▁Rud
▁Rue
▁Ruf
▁Rug
▁Ruh
▁Rui
▁Rule
▁Rum
▁Run
▁Rund
▁Rup
▁Rus
▁Rush
▁Russ
▁Russian
▁Rust
▁Rut
▁Ry
▁Ryan
▁Rä
▁Ré
▁Rí
▁Rö
▁Rü
▁Rück
▁Rücken
▁S
▁SA
▁SALE
▁SAN
▁SAP
▁SAS
▁SAT
▁SATA
▁SAVE
▁SB
▁SC
▁SCH
▁SD
▁SE
▁SEA
▁SEC
▁SEK
▁SEM
▁SEO
▁SET
▁SF
▁SG
▁SI
▁SIE
▁SIG
▁SIM
▁SIN
▁SIS
▁SKY
▁SL
▁SMS
▁SN
▁SO
▁SOL
▁SP
▁SPA
▁SPD
▁SPE
▁SPI
▁SQL
▁SR
▁SS
▁ST
▁STAR
▁START
▁STE
▁STO
▁SU
▁SUN
▁SUPER
▁SV
▁SW
▁SX
▁SYN
▁SYSTEM
▁Sa
▁Saa
▁Saal
▁Saar
▁Saat
▁Sab
▁Saba
▁Sabin
▁Sabo
▁Sac
▁Sach
▁Sachs
▁Sachsen
▁Sacr
▁Sad
▁Saf
▁Safari
▁Safe
▁Safety
▁Sag
▁Saga
▁Sah
▁Sai
▁Sail
▁Saint
▁Sainte
▁Saison
▁Sak
▁Sal
▁Sala
▁Salam
▁Salat
▁Sale
▁Sales
▁Sali
▁Salin
▁Salo
▁Salon
▁Salt
▁Salv
▁Salvador
▁Salz
▁Salzburg
▁Sam
▁Samba
▁Samm
▁Samo
▁Samsung
▁Samu
▁Samuel
▁San
▁Sanct
▁Sand
▁Sander
▁Sands
▁Sang
▁Sanit
▁Sankt
▁Sans
▁Sant
▁Santa
▁Santiago
▁Santo
▁Santos
▁Sao
▁Sap
▁Sar
▁Sara
▁Sarah
▁Sard
▁Sardi
▁Sarg
▁Sark
▁Sass
▁Sat
▁Satan
▁Satellite
▁Saturday
▁Saturn
▁Sau
▁Saudi
▁Sauer
▁Sauna
▁Sav
▁Save
▁Savi
▁Savo
▁Sax
▁Say
▁Sc
▁Scal
▁Scan
▁Scar
▁Sch
▁Scha
▁Schach
▁Schade
▁Schaden
▁Schaf
▁Schal
▁Schall
▁Schalt
▁Schar
▁Schatten
▁Schau
▁Schauspiel
▁Sche
▁Schei
▁Schein
▁Schel
▁Schem
▁Schen
▁Scher
▁Schi
▁Schic
▁Schie
▁Schiff
▁Schild
▁Schim
▁Schin
▁Schl
▁Schlaf
▁Schlag
▁Schle
▁Schloss
▁Schluss
▁Schlüssel
▁Schm
▁Schmerz
▁Schmid
▁Schmidt
▁Schmie
▁Schmuck
▁Schn
▁Schna
▁Schnee
▁Schneid
▁Schneider
▁Schnell
▁Schnitt
▁Scho
▁Schokolade
▁Schol
▁School
▁Schr
▁Schra
▁Schreib
▁Schrift
▁Schro
▁Schu
▁Schub
▁Schuh
▁Schuhe
▁Schul
▁Schuld
▁Schulter
▁Schutz
▁Schw
▁Schwa
▁Schwan
▁Schwangerschaft
▁Schwarz
▁Schwarzen
▁Schwe
▁Schwein
▁Schweiz
▁Schwer
▁Schwimm
▁Schä
▁Schö
▁Schön
▁Schü
▁Schüler
▁Schützen
▁Sci
▁Science
▁Sciences
▁Scient
▁Score
▁Scott
▁Screen
▁Screenshot
▁Script
▁Se
▁Sea
▁Seal
▁Sean
▁Search
▁Season
▁Seattle
▁Sebasti
▁Sebastian
▁Sec
▁Sech
▁Second
▁Secret
▁Secure
▁Securit
▁Security
▁Sed
▁See
▁Seg
▁Segment
▁Seh
▁Sei
▁Seil
▁Sein
▁Seit
▁Seite
▁Seiten
▁Sek
▁Sekret
▁Sekt
▁Sekund
▁Sel
▁Selbst
▁Sele
▁Select
▁Self
▁Sell
▁Selv
▁Sem
▁Seman
▁Semi
▁Seminar
▁Sen
▁Senat
▁Send
▁Senior
▁Senioren
▁Sens
▁Sensi
▁Sensor
▁Seoul
▁Sep
▁September
▁Ser
▁Serb
▁Serbi
▁Serge
▁Seri
▁Serie
▁Serien
▁Series
▁Serra
▁Server
▁Servi
▁Service
▁Services
▁Ses
▁Session
▁Set
▁Sets
▁Seu
▁Seven
▁Sever
▁Sevilla
▁Sex
▁Sexual
▁Sh
▁Sha
▁Shah
▁Shakespeare
▁Shal
▁Sham
▁Shan
▁Shanghai
▁Shar
▁Share
▁Shari
▁Sharm
▁Shaw
▁She
▁Shel
▁Shell
▁Sher
▁Shi
▁Shift
▁Shin
▁Shir
▁Sho
▁Shoot
▁Shop
▁Shopping
▁Short
▁Shot
▁Show
▁Shu
▁Si
▁Sibi
▁Sicher
▁Sicherheit
▁Sicherheits
▁Sicherung
▁Sid
▁Sidd
▁Side
▁Sie
▁Sieg
▁Siege
▁Siemens
▁Sig
▁Sign
▁Signal
▁Signatur
▁Sil
▁Silber
▁Sili
▁Silikon
▁Silk
▁Silva
▁Silver
▁Silvest
▁Silvi
▁Sim
▁Simb
▁Simon
▁Simple
▁Simpson
▁Sin
▁Sina
▁Sind
▁Sing
▁Singapore
▁Singapur
▁Singh
▁Single
▁Sinn
▁Sint
▁Sir
▁Sit
▁Site
▁Sites
▁Sitt
▁Situ
▁Sitz
▁Six
▁Siz
▁Sjö
▁Sk
▁Ska
▁Skal
▁Skate
▁Skel
▁Sketch
▁Ski
▁Skin
▁Skinn
▁Skip
▁Skr
▁Skri
▁Sky
▁Skype
▁Sla
▁Slav
▁Sleep
▁Slot
▁Slots
▁Slow
▁Sm
▁Small
▁Smart
▁Smartphone
▁Smile
▁Smith
▁Sneaker
▁Snow
▁Snowboard
▁So
▁Social
▁Society
▁Sock
▁Sofa
▁Sofi
▁Sofia
▁Soft
▁Software
▁Sog
▁Soh
▁Sok
▁Sol
▁Solar
▁Sole
▁Solid
▁Solidar
▁Soll
▁Solo
▁Solution
▁Solutions
▁Solv
▁Som
▁Some
▁Sommer
▁Son
▁Sonder
▁Song
▁Songs
▁Sonne
▁Sonnen
▁Sonntag
▁Sony
▁Sophi
▁Sor
▁Sorg
▁Soro
▁Sort
▁Sot
▁Sou
▁Soul
▁Sound
▁Source
▁South
▁Sove
▁Sow
▁Sozi
▁Sozial
▁Sp
▁Spa
▁Space
▁Spain
▁Spal
▁Span
▁Spani
▁Spanien
▁Spann
▁Spannung
▁Spar
▁Spark
▁Spart
▁Spe
▁Spec
▁Special
▁Speed
▁Speicher
▁Spek
▁Spende
▁Sper
▁Spezi
▁Spezia
▁Spezial
▁Spi
▁Spider
▁Spiegel
▁Spiel
▁Spiele
▁Spieler
▁Spin
▁Spinn
▁Spirit
▁Spiritu
▁Spiritual
▁Spit
▁Spitz
▁Spitze
▁Spitzen
▁Split
▁Spo
▁Sponsor
▁Spor
▁Sport
▁Sports
▁Spot
▁Spr
▁Sprach
▁Spre
▁Spring
▁Springs
▁Sprint
▁Sprit
▁Spru
▁Spur
▁Spy
▁Square
▁Sri
▁St
▁Sta
▁Staat
▁Staats
▁Stab
▁Stabil
▁Stabili
▁Stack
▁Stad
▁Stadi
▁Stadion
▁Stadium
▁Stadt
▁Staff
▁Stag
▁Stage
▁Stahl
▁Stalin
▁Stall
▁Stamm
▁Stamp
▁Stan
▁Stand
▁Standard
▁Standards
▁Standart
▁Standort
▁Stap
▁Star
▁Stark
▁Stars
▁Start
▁Starter
▁Startseite
▁Startup
▁Stat
▁State
▁Statement
▁States
▁Stati
▁Station
▁Statist
▁Statistik
▁Statu
▁Status
▁Stau
▁Staub
▁Stav
▁Stay
▁Ste
▁Stea
▁Steck
▁Steel
▁Stefan
▁Stefano
▁Steg
▁Stei
▁Stein
▁Stell
▁Stella
▁Stelle
▁Stellen
▁Sten
▁Step
▁Stephan
▁Stephen
▁Ster
▁Stereo
▁Stern
▁Sterne
▁Sternen
▁Steuer
▁Stev
▁Steve
▁Steven
▁Stevens
▁Stewart
▁Sti
▁Stick
▁Stiefel
▁Stift
▁Stig
▁Stil
▁Still
▁Stimm
▁Stir
▁Sto
▁Stock
▁Stockholm
▁Stoff
▁Stol
▁Stone
▁Stop
▁Stor
▁Storage
▁Store
▁Storm
▁Story
▁Str
▁Stra
▁Straf
▁Strand
▁Strass
▁Strat
▁Strategi
▁Strategie
▁Strau
▁Straße
▁Straßen
▁Stre
▁Stream
▁Streaming
▁Street
▁Stress
▁Stri
▁Strick
▁String
▁Strip
▁Stro
▁Strom
▁Stru
▁Struktur
▁Ström
▁Stu
▁Stub
▁Stud
▁Student
▁Studenten
▁Studi
▁Studie
▁Studien
▁Studies
▁Studio
▁Studios
▁Study
▁Stuf
▁Stunde
▁Stunden
▁Stur
▁Stuttgart
▁Styl
▁Style
▁Stä
▁Städte
▁Stö
▁Su
▁Sub
▁Substan
▁Such
▁Sud
▁Suf
▁Suh
▁Suite
▁Suites
▁Sul
▁Sultan
▁Sum
▁Summe
▁Summer
▁Sun
▁Sunday
▁Sup
▁Super
▁Superior
▁Supermark
▁Supp
▁Support
▁Supra
▁Sur
▁Surf
▁Survey
▁Sus
▁Susan
▁Suzuki
▁Sven
▁Swa
▁Swan
▁Sweet
▁Swift
▁Swing
▁Swiss
▁Switch
▁Switzerland
▁Sy
▁Sydney
▁Syl
▁Sylv
▁Sym
▁Symb
▁Symbol
▁Symp
▁Syn
▁Sync
▁Synt
▁Syr
▁Syri
▁System
▁Systems
▁Sz
▁Szen
▁Sánchez
▁Sä
▁Sé
▁Só
▁Sö
▁Söder
▁Sü
▁Süd
▁T
▁TA
▁TAS
▁TB
▁TE
▁TFT
▁TH
▁THB
▁THE
▁TI
▁TO
▁TOP
▁TR
▁TRA
▁TRI
▁TS
▁TT
▁TU
▁TV
▁TW
▁Ta
▁Tab
▁Taba
▁Tabak
▁Tabelle
▁Tabellen
▁Table
▁Tablet
▁Tabu
▁Tac
▁Tach
▁Tad
▁Taf
▁Tag
▁Tage
▁Tages
▁Tags
▁Tai
▁Taille
▁Taiwan
▁Tak
▁Take
▁Tal
▁Tala
▁Talent
▁Talk
▁Tallinn
▁Talo
▁Tam
▁Tamar
▁Tamil
▁Tan
▁Tang
▁Tank
▁Tann
▁Tant
▁Tanz
▁Tao
▁Tap
▁Tapa
▁Tape
▁Tapi
▁Tar
▁Tara
▁Tarif
▁Tarn
▁Tas
▁Tasche
▁Taschen
▁Task
▁Tass
▁Tat
▁Tata
▁Tau
▁Tauch
▁Taur
▁Tax
▁Taxi
▁Tay
▁Taylor
▁Te
▁Tea
▁Team
▁Tec
▁Tech
▁Techni
▁Technik
▁Techno
▁Technologi
▁Technologie
▁Technologies
▁Technology
▁Ted
▁Tee
▁Teen
▁Teil
▁Teilnehmer
▁Tel
▁Tele
▁Telecom
▁Telefon
▁Telefoni
▁Telekom
▁Tell
▁Tem
▁Temp
▁Temper
▁Temperatur
▁Temperatura
▁Template
▁Temple
▁Tempo
▁Tempor
▁Ten
▁Tende
▁Tener
▁Tennis
▁Ter
▁Teras
▁Term
▁Terme
▁Termin
▁Terminal
▁Terra
▁Terrac
▁Terrasse
▁Terre
▁Territori
▁Terror
▁Terroris
▁Tess
▁Test
▁Testament
▁Teu
▁Tex
▁Texas
▁Text
▁Textil
▁Th
▁Tha
▁Thai
▁Thailand
▁Thal
▁Than
▁Thank
▁Thanks
▁That
▁The
▁Theater
▁Theatre
▁Theme
▁Themen
▁Theo
▁Theodor
▁Therapie
▁There
▁Therm
▁Thermo
▁Thi
▁Thin
▁Think
▁This
▁Thom
▁Thomas
▁Thompson
▁Thor
▁Thread
▁Three
▁Thu
▁Thur
▁Thy
▁Thé
▁Ti
▁Tian
▁Tib
▁Tibet
▁Ticket
▁Tickets
▁Tief
▁Tier
▁Tiger
▁Til
▁Till
▁Tim
▁Time
▁Times
▁Timo
▁Tin
▁Tina
▁Tint
▁Tip
▁Tipp
▁Tips
▁Tir
▁Tiro
▁Tisch
▁Tit
▁Titan
▁Titel
▁Title
▁To
▁Tobi
▁Tod
▁Todo
▁Toki
▁Tokyo
▁Tol
▁Toll
▁Tom
▁Tomat
▁Ton
▁Tong
▁Toni
▁Tool
▁Tools
▁Top
▁Tor
▁Tore
▁Torna
▁Toro
▁Toronto
▁Torre
▁Torres
▁Tort
▁Tot
▁Total
▁Tote
▁Tou
▁Touch
▁Tour
▁Tourism
▁Tourismus
▁Tourist
▁Tours
▁Tower
▁Town
▁Toyota
▁Tr
▁Tra
▁Trac
▁Track
▁Trade
▁Trading
▁Tradition
▁Traf
▁Trag
▁Trage
▁Trail
▁Trailer
▁Train
▁Trainer
▁Training
▁Trainings
▁Tram
▁Tran
▁Trans
▁Transfer
▁Transformation
▁Transi
▁Transit
▁Translation
▁Transparen
▁Transplant
▁Transport
▁Transportation
▁Transporte
▁Trap
▁Tras
▁Trau
▁Traum
▁Trauma
▁Trav
▁Travel
▁Tre
▁Treb
▁Tree
▁Trei
▁Trek
▁Tren
▁Trend
▁Trends
▁Trent
▁Tres
▁Trev
▁Tri
▁Trib
▁Tribun
▁Trich
▁Trick
▁Trim
▁Trink
▁Trio
▁Trip
▁Triple
▁Trist
▁Tro
▁Trocken
▁Troi
▁Trojan
▁Troll
▁Trom
▁Trop
▁Trot
▁Tru
▁Truck
▁True
▁Trump
▁Trust
▁Try
▁Trä
▁Tsch
▁Tu
▁Tub
▁Tube
▁Tug
▁Tul
▁Tum
▁Tun
▁Tune
▁Tunis
▁Tunnel
▁Tur
▁Turbo
▁Turist
▁Turk
▁Turm
▁Turn
▁Turner
▁Turnier
▁Tus
▁Tut
▁Tutorial
▁Tweet
▁Twin
▁Twitter
▁Two
▁Ty
▁Typ
▁Type
▁Tyr
▁TÜ
▁Tä
▁Tö
▁Tü
▁Tür
▁Türk
▁U
▁UC
▁UK
▁UL
▁UM
▁UN
▁UNA
▁UND
▁UNE
▁UNESCO
▁UNI
▁UP
▁UPS
▁URL
▁US
▁USA
▁USB
▁USD
▁UV
▁Uber
▁Ud
▁Ug
▁Uhr
▁Ukrain
▁Ukraine
▁Ul
▁Ull
▁Ultima
▁Ultimate
▁Ultra
▁Um
▁Umbr
▁Umgebung
▁Umsatz
▁Umwelt
▁Un
▁Una
▁Und
▁Under
▁Une
▁Unfall
▁Ung
▁Unge
▁Uni
▁Uniform
▁Union
▁Unit
▁United
▁Univers
▁Universal
▁Universit
▁University
▁Universität
▁Unter
▁Unterhaltung
▁Unterk
▁Unternehmen
▁Unternehmens
▁Unterrichts
▁Unterstütz
▁Untersuchung
▁Up
▁Update
▁Updates
▁Ur
▁Uran
▁Urb
▁Urban
▁Urhe
▁Uri
▁Urlaub
▁Urlaubs
▁Urs
▁Uruguay
▁Us
▁Use
▁User
▁Ut
▁Uw
▁V
▁VB
▁VER
▁VI
▁VII
▁VIII
▁VIP
▁VIS
▁VM
▁VN
▁VOL
▁VP
▁VPN
▁VR
▁VW
▁Va
▁Vad
▁Vag
▁Vakuu
▁Val
▁Vald
▁Valde
▁Vale
▁Valencia
▁Valentin
▁Valeri
▁Valid
▁Valk
▁Vall
▁Valle
▁Valley
▁Value
▁Van
▁Vancouver
▁Vand
▁Var
▁Vari
▁Varia
▁Variant
▁Vas
▁Vat
▁Vau
▁Ve
▁Ved
▁Vega
▁Vegan
▁Vegas
▁Vegeta
▁Vegetari
▁Veh
▁Vej
▁Vel
▁Vela
▁Vele
▁Velo
▁Ven
▁Vend
▁Vene
▁Venet
▁Venez
▁Venezia
▁Venezuela
▁Vent
▁Ventil
▁Ventilat
▁Venus
▁Ver
▁Vera
▁Veranstalt
▁Veranstaltung
▁Verb
▁Verbindung
▁Verbrauch
▁Verbraucher
▁Verd
▁Verda
▁Verde
▁Verdi
▁Vere
▁Verein
▁Vereins
▁Verfahren
▁Verfass
▁Verg
▁Verge
▁Vergleich
▁Vergleichs
▁Verhalten
▁Verhandlung
▁Verk
▁Verkauf
▁Verkaufs
▁Verkehr
▁Verkehrs
▁Verlag
▁Verme
▁Vermi
▁Vermögens
▁Verne
▁Verpackung
▁Vers
▁Versa
▁Versand
▁Versch
▁Verse
▁Versi
▁Versicher
▁Versicherung
▁Versicherungs
▁Version
▁Versorgung
▁Verst
▁Vert
▁Verte
▁Verteidigung
▁Vertrag
▁Vertrags
▁Vertrieb
▁Vertriebs
▁Verw
▁Verwaltung
▁Verwaltungs
▁Verze
▁Ves
▁Vesp
▁Vet
▁Veteran
▁Veterin
▁Vi
▁Via
▁Vibra
▁Vic
▁Vice
▁Vicen
▁Victor
▁Victoria
▁Vida
▁Video
▁Videos
▁Vie
▁Viel
▁Vien
▁Vienna
▁Vier
▁Vietnam
▁View
▁Views
▁Vign
▁Vigo
▁Viking
▁Viktor
▁Viktori
▁Vil
▁Vila
▁Villa
▁Village
▁Villas
▁Ville
▁Vilnius
▁Vin
▁Vincen
▁Vincent
▁Vino
▁Viol
▁Violet
▁Vir
▁Virgin
▁Virginia
▁Virtu
▁Virtual
▁Virus
▁Vis
▁Visa
▁Visi
▁Vision
▁Visit
▁Vista
▁Visu
▁Visual
▁Vit
▁Vita
▁Vital
▁Vitamin
▁Vitr
▁Viva
▁Vivi
▁Viz
▁Vladimir
▁Vo
▁Vog
▁Vogel
▁Voi
▁Voice
▁Voj
▁Vok
▁Vol
▁Volk
▁Volks
▁Volkswagen
▁Voll
▁Volt
▁Volta
▁Volume
▁Von
▁Vor
▁Vorbe
▁Vorder
▁Vos
▁Vot
▁Vr
▁Vul
▁Vulkan
▁Vy
▁Vá
▁Vä
▁Vé
▁Ví
▁Vö
▁W
▁WA
▁WAR
▁WC
▁WD
▁WE
▁WEB
▁WI
▁WLAN
▁WM
▁WP
▁WS
▁WWW
▁Wa
▁Waa
▁Wach
▁Wachstum
▁Wad
▁Waffen
▁Wag
▁Wagner
▁Wah
▁Wahl
▁Wai
▁Wal
▁Wald
▁Wales
▁Walk
▁Walker
▁Wall
▁Wallpaper
▁Walt
▁Walter
▁Wan
▁Wand
▁Wander
▁Wang
▁Wann
▁War
▁Ware
▁Waren
▁Warm
▁Warn
▁Wars
▁Wart
▁Was
▁Wasch
▁Washington
▁Wasser
▁Wat
▁Watch
▁Water
▁Watt
▁Wave
▁Way
▁We
▁Web
▁Weber
▁Website
▁Wechsel
▁Week
▁Weg
▁Wei
▁Weid
▁Weihnacht
▁Weihnachts
▁Wein
▁Weis
▁Weiss
▁Weiter
▁Weiterbildung
▁Weiß
▁Wel
▁Well
▁Wellen
▁Wellness
▁Welt
▁Wen
▁Wend
▁Wende
▁Wer
▁Werbe
▁Werk
▁Werkzeug
▁Wert
▁Wes
▁West
▁Wester
▁Western
▁Wet
▁Wett
▁Wettbewerb
▁Wetter
▁What
▁Whi
▁Whit
▁White
▁Who
▁Wi
▁WiFi
▁Wich
▁Wick
▁Wid
▁Wide
▁Wider
▁Wie
▁Wieder
▁Wien
▁Wier
▁Wies
▁Wii
▁Wij
▁Wik
▁Wiki
▁Wikipedia
▁Wil
▁Wild
▁Wilde
▁Wilhelm
▁Will
▁Willi
▁William
▁Williams
▁Wilson
▁Wim
▁Win
▁Wind
▁Window
▁Windows
▁Wine
▁Wing
▁Winkel
▁Winter
▁Wir
▁Wire
▁Wireless
▁Wirk
▁Wirtschaft
▁Wirtschafts
▁Wis
▁Wisconsin
▁Wissen
▁Wissens
▁Wissenschaft
▁Wit
▁With
▁Witt
▁Witte
▁Wo
▁Woche
▁Wochen
▁Woh
▁Wohl
▁Wohn
▁Wohnung
▁Wohnungs
▁Woj
▁Wol
▁Wolf
▁Woll
▁Women
▁Wonder
▁Wood
▁Woods
▁Wor
▁Word
▁WordPress
▁Work
▁Workshop
▁World
▁Wort
▁Wr
▁Wright
▁Wu
▁Wul
▁Wunder
▁Wunsch
▁Wur
▁Wy
▁Wyn
▁Wä
▁Wärme
▁Wür
▁X
▁XI
▁XII
▁XIII
▁XL
▁XML
▁XP
▁XT
▁XV
▁XVI
▁XVII
▁XX
▁Xe
▁Xen
▁Xeno
▁Xi
▁Xiao
▁Xin
▁Y
▁YOU
▁Ya
▁Yahoo
▁Yan
▁Yang
▁Yar
▁Yasu
▁Ye
▁Year
▁Yen
▁Yes
▁Yi
▁Yo
▁Yoga
▁York
▁You
▁YouTube
▁Young
▁Your
▁Yu
▁Yuan
▁Yuk
▁Yun
▁Z
▁ZU
▁Za
▁Zahl
▁Zahlung
▁Zahlungs
▁Zahn
▁Zak
▁Zan
▁Zand
▁Zap
▁Zapat
▁Zar
▁Zara
▁Zauber
▁Ze
▁Zealand
▁Zee
▁Zeh
▁Zeit
▁Zeitung
▁Zel
▁Zell
▁Zem
▁Zen
▁Zentr
▁Zentral
▁Zer
▁Zero
▁Zeu
▁Zhu
▁Zi
▁Zie
▁Zieg
▁Ziel
▁Zig
▁Zim
▁Zimmer
▁Zin
▁Zip
▁Zir
▁Zit
▁Ziv
▁Zo
▁Zoll
▁Zombie
▁Zone
▁Zoo
▁Zoom
▁Zor
▁Zu
▁Zubehör
▁Zucker
▁Zug
▁Zukunft
▁Zul
▁Zum
▁Zun
▁Zur
▁Zusammen
▁Zusatz
▁Zw
▁Zwe
▁Zwei
▁Zweit
▁Zwie
▁Zwischen
▁Zy
▁Zü
▁[
▁`
▁aan
▁ab
▁abas
▁abba
▁aber
▁abg
▁abge
▁abonn
▁about
▁above
▁abr
▁abri
▁abs
▁absen
▁absolut
▁absolv
▁absorb
▁abstrakt
▁absurd
▁abzu
▁ac
▁acc
▁accept
▁access
▁accommodat
▁accommodation
▁account
▁achte
▁acquis
▁action
▁active
▁activities
▁actual
▁ad
▁adapt
▁add
▁addition
▁address
▁adidas
▁administrativ
▁adopt
▁adress
▁adult
▁aero
▁af
▁afro
▁after
▁ag
▁again
▁ago
▁agree
▁agro
▁ah
▁ai
▁air
▁airport
▁ak
▁akademi
▁akku
▁aktiv
▁aktive
▁aktual
▁aku
▁akut
▁al
▁alarm
▁alban
▁album
▁ale
▁alg
▁alkohol
▁all
▁alla
▁alle
▁allen
▁aller
▁allergi
▁alles
▁allow
▁allt
▁alpha
▁alpin
▁als
▁also
▁alt
▁alta
▁alte
▁alter
▁altern
▁alternativ
▁alternative
▁am
▁amazing
▁ambi
▁ambiente
▁ambiti
▁ambulan
▁amerikan
▁amor
▁an
▁anal
▁analog
▁analys
▁analyti
▁anarch
▁anatomi
▁and
▁ander
▁andere
▁anders
▁ang
▁ange
▁angel
▁anglo
▁anh
▁anim
▁ank
▁anmelde
▁ann
▁annul
▁anonym
▁ans
▁ansehen
▁answer
▁ante
▁anti
▁antik
▁antiqu
▁antisemit
▁antra
▁any
▁anzeigen
▁anzu
▁ap
▁apart
▁apartment
▁apo
▁appar
▁appartement
▁appell
▁application
▁applications
▁approach
▁apt
▁aqua
▁ar
▁arab
▁arch
▁architecture
▁architekt
▁archiv
▁archive
▁are
▁area
▁arg
▁argentin
▁argument
▁ark
▁arm
▁arme
▁armen
▁aromat
▁around
▁arrange
▁array
▁arriv
▁arrive
▁art
▁article
▁artikul
▁artist
▁arts
▁as
▁asia
▁asiat
▁ask
▁aspect
▁ass
▁assimil
▁assist
▁astronom
▁at
▁atom
▁att
▁attack
▁attend
▁attenti
▁attention
▁au
▁audio
▁auf
▁aufge
▁aufzu
▁aug
▁augu
▁aus
▁auseinander
▁ausge
▁aussi
▁australi
▁auszu
▁aut
▁authenti
▁author
▁auto
▁automat
▁automatic
▁automatis
▁autonom
▁autor
▁autorit
▁aux
▁av
▁available
▁avanc
▁avant
▁award
▁away
▁az
▁año
▁años
▁b
▁ba
▁baby
▁back
▁bad
▁bagn
▁baig
▁bain
▁bajo
▁bakteri
▁bal
▁balcon
▁bald
▁ball
▁balt
▁banal
▁band
▁bang
▁bank
▁bar
▁barbar
▁bare
▁baro
▁bars
▁bas
▁base
▁basi
▁basis
▁bask
▁bat
▁bath
▁bathroom
▁bau
▁bay
▁be
▁beach
▁bean
▁beau
▁beautiful
▁bed
▁beda
▁bede
▁bedien
▁bedro
▁bedroom
▁beds
▁been
▁beer
▁bef
▁befa
▁before
▁beg
▁bega
▁bege
▁begin
▁beginn
▁begr
▁beh
▁beha
▁behandel
▁behar
▁behe
▁bei
▁beige
▁bein
▁bek
▁bekle
▁bekomm
▁bel
▁belang
▁belast
▁bele
▁beleg
▁beleid
▁belgi
▁beli
▁belle
▁belo
▁below
▁bem
▁ben
▁bene
▁ber
▁bera
▁berat
▁bere
▁berga
▁bericht
▁besch
▁bese
▁besi
▁beso
▁best
▁bestand
▁beste
▁bestellen
▁bestem
▁bet
▁bete
▁beton
▁betra
▁better
▁bev
▁bew
▁bewe
▁beweg
▁bez
▁bezw
▁bi
▁bibli
▁bieg
▁bien
▁big
▁bij
▁bilan
▁bild
▁billig
▁bin
▁bind
▁binnen
▁bio
▁biologi
▁bir
▁bis
▁bish
▁bist
▁bit
▁bitte
▁bitter
▁biz
▁bl
▁black
▁blank
▁blas
▁blau
▁ble
▁blend
▁blind
▁blo
▁bloc
▁blog
▁blu
▁blue
▁bo
▁board
▁body
▁bois
▁bombard
▁bon
▁bonus
▁book
▁booking
▁books
▁boom
▁boot
▁bord
▁bos
▁bot
▁botani
▁both
▁box
▁boy
▁br
▁bra
▁brand
▁brann
▁brasil
▁break
▁breakfast
▁brenn
▁bright
▁bring
▁bris
▁brit
▁browser
▁brutal
▁bu
▁buddh
▁budget
▁bug
▁build
▁building
▁bulgar
▁bun
▁bunt
▁bur
▁bus
▁busca
▁business
▁but
▁buy
▁by
▁bö
▁bör
▁bün
▁c
▁ca
▁cache
▁cada
▁cafe
▁café
▁calidad
▁call
▁calm
▁came
▁camera
▁camp
▁camping
▁can
▁cancell
▁cap
▁capital
▁car
▁card
▁care
▁cars
▁carta
▁carte
▁cas
▁casa
▁case
▁cash
▁casino
▁caso
▁category
▁ce
▁center
▁central
▁centre
▁centro
▁century
▁cerca
▁ces
▁cet
▁ch
▁cha
▁chair
▁chale
▁chambre
▁chance
▁change
▁chao
▁character
▁charakter
▁charge
▁charm
▁chat
▁che
▁cheap
▁check
▁chemi
▁cher
▁chi
▁chic
▁child
▁children
▁chirurgi
▁cho
▁choi
▁choice
▁christ
▁chrom
▁chroni
▁ci
▁circ
▁city
▁ciudad
▁class
▁classic
▁clean
▁clear
▁click
▁client
▁clients
▁climat
▁close
▁club
▁cm
▁co
▁cod
▁code
▁coffee
▁coin
▁col
▁cold
▁collection
▁color
▁colour
▁combin
▁come
▁comfort
▁comfortable
▁comme
▁comment
▁commercial
▁common
▁commun
▁communication
▁community
▁como
▁companies
▁company
▁compare
▁complete
▁complex
▁compliment
▁computer
▁con
▁concept
▁concern
▁condition
▁conditions
▁conference
▁confort
▁connect
▁connection
▁consider
▁consist
▁construction
▁contact
▁continue
▁contra
▁control
▁convenient
▁convert
▁conviv
▁cook
▁cool
▁copy
▁cor
▁correct
▁cosa
▁cost
▁count
▁countries
▁country
▁couple
▁cour
▁course
▁court
▁cover
▁cre
▁create
▁credit
▁cross
▁cré
▁cu
▁cuenta
▁cui
▁cuisine
▁cultural
▁culture
▁cup
▁current
▁custom
▁customer
▁cél
▁cô
▁d
▁da
▁dage
▁dah
▁daily
▁dal
▁dalla
▁dama
▁dami
▁dan
▁dank
▁dann
▁dans
▁dar
▁dara
▁dari
▁dark
▁das
▁dat
▁data
▁database
▁date
▁dato
▁dau
▁davo
▁day
▁days
▁de
▁deal
▁debatt
▁debe
▁decide
▁decor
▁decorat
▁dedi
▁defekt
▁defin
▁define
▁defini
▁definition
▁definitiv
▁degrad
▁deklar
▁dekor
▁del
▁deleg
▁delikat
▁deliver
▁dell
▁dem
▁demand
▁demande
▁demografi
▁demokrat
▁demokrati
▁demonstr
▁demonstrat
▁den
▁denk
▁denn
▁deport
▁deposit
▁der
▁des
▁description
▁design
▁desk
▁desp
▁destru
▁det
▁detail
▁details
▁determin
▁deutsch
▁development
▁deze
▁dh
▁di
▁dia
▁diagnosti
▁dialekt
▁dich
▁dicht
▁dick
▁did
▁die
▁dienst
▁dies
▁diese
▁diesel
▁diff
▁different
▁differenz
▁difficult
▁diffus
▁différent
▁digital
▁dikt
▁diktator
▁dimension
▁din
▁diplomat
▁diplomati
▁dir
▁direct
▁direction
▁director
▁direkt
▁dirigi
▁dis
▁disappoint
▁disco
▁discover
▁discussion
▁diskre
▁diskrimin
▁diskut
▁dispos
▁distan
▁distance
▁district
▁dit
▁div
▁diver
▁divers
▁diversifi
▁do
▁doch
▁document
▁dogmat
▁dokument
▁dokumentar
▁domain
▁domin
▁dominant
▁domini
▁don
▁done
▁donne
▁door
▁dos
▁dot
▁double
▁douche
▁down
▁download
▁dr
▁dra
▁dramat
▁dramati
▁dran
▁drast
▁draw
▁dre
▁drei
▁drin
▁drink
▁drive
▁dro
▁drug
▁dry
▁du
▁dual
▁duch
▁due
▁dul
▁dunk
▁duplica
▁dur
▁durch
▁durchge
▁dvd
▁dynam
▁dynami
▁dys
▁dé
▁déc
▁déco
▁día
▁dü
▁dün
▁eBay
▁easy
▁eat
▁eben
▁echo
▁economic
▁edit
▁een
▁effect
▁effective
▁effektiv
▁egal
▁egoist
▁ehe
▁ei
▁eigen
▁ein
▁eind
▁eine
▁einge
▁einh
▁eins
▁einst
▁einz
▁einzu
▁el
▁elast
▁electronic
▁elegant
▁elektro
▁elektromagnet
▁elektron
▁elektroni
▁element
▁elementar
▁elf
▁elimin
▁elit
▁elle
▁else
▁em
▁email
▁eman
▁emerge
▁emigr
▁emit
▁emotion
▁emp
▁empf
▁empfehlen
▁empir
▁emul
▁en
▁encontrar
▁end
▁endokrin
▁energet
▁energi
▁energie
▁energy
▁eng
▁engag
▁engen
▁engine
▁english
▁enjoy
▁enter
▁entertainment
▁entf
▁entgegen
▁entre
▁entri
▁entz
▁environment
▁epi
▁epidemiolog
▁equipment
▁er
▁era
▁erg
▁erga
▁ergonomi
▁erre
▁erreich
▁error
▁erst
▁erw
▁es
▁escal
▁eskal
▁español
▁esse
▁essen
▁essenti
▁est
▁esta
▁estado
▁estar
▁este
▁esto
▁está
▁et
▁etabl
▁etc
▁ethn
▁eu
▁euro
▁europa
▁euros
▁evaku
▁evalu
▁evangeli
▁even
▁event
▁events
▁eventu
▁ever
▁every
▁everyone
▁everything
▁evolution
▁ex
▁exact
▁example
▁excellent
▁except
▁exception
▁excit
▁exclusiv
▁exist
▁existen
▁existent
▁exo
▁exp
▁expand
▁expansi
▁expect
▁experience
▁experiment
▁explore
▁explosi
▁expon
▁export
▁express
▁extensi
▁extern
▁extra
▁extrem
▁extreme
▁eye
▁f
▁fa
▁fac
▁face
▁fach
▁facil
▁facilit
▁facilities
▁fact
▁facto
▁fair
▁fait
▁fakt
▁fakult
▁fall
▁fals
▁famili
▁familia
▁familien
▁families
▁family
▁fan
▁fand
▁fantastic
▁fantastis
▁far
▁farb
▁fas
▁fashion
▁fast
▁fatal
▁favor
▁fax
▁fe
▁features
▁feder
▁feel
▁feeling
▁fein
▁fel
▁felt
▁feminist
▁fen
▁fer
▁fest
▁feste
▁festival
▁fett
▁feu
▁fi
▁fie
▁fiel
▁field
▁fik
▁file
▁files
▁film
▁filter
▁fin
▁final
▁finale
▁finanz
▁finanzi
▁find
▁finde
▁fine
▁finn
▁fins
▁fire
▁firm
▁first
▁fisk
▁fiska
▁fit
▁fitness
▁five
▁fix
▁fixe
▁fl
▁fla
▁flag
▁flank
▁flash
▁flat
▁fle
▁flexib
▁flight
▁flo
▁floor
▁flor
▁flori
▁flott
▁flu
▁focus
▁fokus
▁fol
▁folg
▁follow
▁fond
▁food
▁foot
▁for
▁force
▁forest
▁form
▁forma
▁formal
▁format
▁forme
▁formul
▁fort
▁forum
▁forward
▁foto
▁fotograf
▁fotografie
▁found
▁four
▁fr
▁fra
▁frag
▁fragment
▁frakt
▁fran
▁frank
▁fre
▁free
▁frei
▁frem
▁frequent
▁fres
▁fresh
▁freu
▁friend
▁friendly
▁friends
▁fro
▁from
▁front
▁fru
▁fruit
▁frustr
▁ftp
▁fu
▁fue
▁fuer
▁ful
▁full
▁fun
▁function
▁fund
▁fundamental
▁fung
▁funk
▁funktion
▁funktionier
▁funktions
▁fur
▁furni
▁furniture
▁fusion
▁fut
▁futur
▁future
▁fär
▁fö
▁föd
▁för
▁fü
▁für
▁ga
▁gab
▁gal
▁gali
▁gallery
▁game
▁games
▁gan
▁gang
▁gar
▁garage
▁garant
▁garanti
▁garden
▁gare
▁gas
▁gast
▁gastronomi
▁gau
▁gave
▁ge
▁gear
▁geb
▁gebe
▁gebr
▁ged
▁gede
▁gee
▁geen
▁gef
▁gefa
▁gegen
▁geh
▁geha
▁gehe
▁geho
▁gek
▁geko
▁gel
▁geld
▁gele
▁gelin
▁gelo
▁gem
▁gema
▁gemi
▁gen
▁gene
▁gener
▁general
▁generation
▁geneti
▁genial
▁genie
▁geno
▁genu
▁geo
▁geografi
▁geometri
▁gepa
▁gepr
▁ger
▁gera
▁gere
▁geri
▁german
▁gero
▁ges
▁gesch
▁gesche
▁geschi
▁gesi
▁gesp
▁gest
▁gesta
▁gestalt
▁geste
▁gesti
▁gesto
▁get
▁geta
▁gew
▁gewa
▁gewe
▁gewo
▁gez
▁geze
▁gezi
▁gi
▁gib
▁gift
▁gigant
▁ging
▁girl
▁give
▁gl
▁glan
▁glas
▁glass
▁glei
▁gleich
▁gli
▁global
▁glor
▁gly
▁glü
▁go
▁god
▁goed
▁gold
▁golden
▁golf
▁good
▁got
▁gott
▁govern
▁government
▁gr
▁grad
▁gradu
▁gran
▁grand
▁grande
▁grandi
▁graph
▁grass
▁gratis
▁gratuit
▁gratul
▁grau
▁grav
▁gravi
▁great
▁green
▁gri
▁grie
▁gro
▁grob
▁gross
▁grote
▁ground
▁group
▁groups
▁groß
▁grund
▁grupp
▁grö
▁grün
▁gu
▁guest
▁guide
▁gut
▁gä
▁gü
▁gül
▁h
▁ha
▁haar
▁hab
▁habe
▁haben
▁habitaciones
▁hace
▁hacer
▁had
▁haft
▁hair
▁hal
▁half
▁hall
▁halt
▁han
▁hand
▁handel
▁handels
▁handle
▁happen
▁happy
▁har
▁hard
▁harm
▁harmoni
▁harmonis
▁hart
▁has
▁hast
▁hasta
▁hat
▁hau
▁haus
▁haut
▁have
▁hay
▁he
▁head
▁health
▁hear
▁heart
▁heat
▁heb
▁hef
▁hei
▁heik
▁heil
▁heim
▁hekt
▁held
▁hell
▁help
▁helpful
▁hemm
▁her
▁heran
▁heraus
▁here
▁herk
▁hero
▁herr
▁herum
▁herunter
▁hervor
▁herz
▁het
▁hetero
▁heterog
▁heu
▁heure
▁hi
▁hier
▁hierarch
▁high
▁hill
▁him
▁hin
▁hina
▁hinaus
▁hind
▁hinein
▁hing
▁hinge
▁hint
▁hinter
▁hinzu
▁his
▁historic
▁history
▁hitz
▁ho
▁hoc
▁hoch
▁hol
▁holiday
▁home
▁homo
▁homogen
▁homosexu
▁honor
▁hope
▁hor
▁hora
▁horizontal
▁hormon
▁host
▁hostel
▁hot
▁hotel
▁hotels
▁hour
▁hours
▁house
▁how
▁hr
▁http
▁human
▁humanit
▁humor
▁hung
▁hybrid
▁hydrauli
▁hydro
▁hygien
▁hyper
▁hypothe
▁hä
▁här
▁hö
▁höf
▁hör
▁hü
▁iPhone
▁iPod
▁iTunes
▁ib
▁ich
▁ide
▁idea
▁ideal
▁ideas
▁ident
▁identi
▁identifi
▁ideologi
▁idé
▁if
▁ignor
▁ihm
▁il
▁illustr
▁im
▁image
▁imagin
▁immer
▁immun
▁imperial
▁implant
▁implement
▁impli
▁import
▁important
▁importante
▁impos
▁impression
▁improve
▁improvis
▁in
▁inak
▁incl
▁include
▁included
▁ind
▁indem
▁indi
▁indian
▁individual
▁industrial
▁industrie
▁industriel
▁industry
▁inf
▁infi
▁info
▁inform
▁information
▁informations
▁informativ
▁infrastruktur
▁ingres
▁inhal
▁initi
▁initial
▁inkl
▁inklud
▁inn
▁inne
▁innen
▁inner
▁innovations
▁inside
▁inso
▁insolven
▁inson
▁inspir
▁instala
▁install
▁institution
▁instrumental
▁inte
▁integr
▁integra
▁integral
▁intellektu
▁intelligent
▁intensiv
▁inter
▁interdi
▁interessant
▁interessante
▁interest
▁interface
▁interior
▁intern
▁internal
▁international
▁internationale
▁interne
▁internet
▁interpret
▁interven
▁intervention
▁interview
▁intim
▁into
▁intra
▁invest
▁investi
▁invit
▁involv
▁ir
▁iron
▁irre
▁irrit
▁is
▁islam
▁islamist
▁island
▁isol
▁israel
▁issue
▁issues
▁ist
▁it
▁italien
▁items
▁its
▁ja
▁jag
▁jam
▁japan
▁jardin
▁je
▁jed
▁jede
▁jeden
▁jeg
▁jen
▁jene
▁jeu
▁jew
▁jo
▁job
▁jog
▁join
▁jou
▁jour
▁journalist
▁jours
▁ju
▁jug
▁juga
▁jung
▁jurist
▁just
▁jä
▁k
▁kW
▁ka
▁kabel
▁kalibr
▁kalkul
▁kalt
▁kam
▁kamb
▁kamen
▁kamer
▁kan
▁kanad
▁kanal
▁kandid
▁kann
▁kapit
▁kapital
▁kapitalist
▁kar
▁kart
▁kas
▁kassi
▁kata
▁kategori
▁kau
▁kaufen
▁ke
▁keep
▁kein
▁kel
▁kenn
▁kenne
▁kern
▁key
▁kg
▁ki
▁kids
▁kilometer
▁kind
▁kinder
▁kir
▁kitchen
▁kl
▁klapp
▁klar
▁klass
▁klasse
▁klassi
▁klein
▁klima
▁klimat
▁klini
▁klipp
▁klo
▁km
▁kni
▁know
▁knowledge
▁ko
▁kod
▁koh
▁kol
▁koll
▁kolla
▁kolleg
▁kollektiv
▁koloni
▁kom
▁kombin
▁komfort
▁komme
▁kommen
▁komment
▁kommer
▁kommun
▁kommunal
▁kommunik
▁kommunist
▁komp
▁kompakt
▁kompar
▁kompens
▁kompetent
▁komplement
▁komplet
▁komplex
▁kompli
▁kompon
▁kompromiss
▁kon
▁konf
▁konfi
▁konfigur
▁konflikt
▁konfront
▁kong
▁konkret
▁konkurr
▁konkurren
▁konn
▁konserv
▁konsolid
▁konstant
▁konstat
▁konstitu
▁konstru
▁konsul
▁konsult
▁konsum
▁kont
▁konta
▁kontakt
▁kontinent
▁kontinu
▁kontra
▁kontrast
▁kontroll
▁kontrolli
▁kontrover
▁konvert
▁kooper
▁kooperati
▁koordin
▁kop
▁kor
▁korrekt
▁korrig
▁korru
▁korrup
▁kosm
▁kosmet
▁kost
▁koste
▁kosten
▁kr
▁kraft
▁kras
▁kre
▁kreativ
▁kredit
▁krimin
▁kriminal
▁kritik
▁kritis
▁kro
▁krypt
▁ku
▁kultiv
▁kultur
▁kumu
▁kund
▁kunst
▁kur
▁kurd
▁kuri
▁kurs
▁kurz
▁kö
▁könn
▁könne
▁können
▁kü
▁kür
▁la
▁label
▁lady
▁lag
▁lage
▁lager
▁lake
▁lanc
▁land
▁lang
▁lange
▁langs
▁language
▁large
▁las
▁lassen
▁last
▁late
▁laten
▁later
▁laut
▁law
▁le
▁lead
▁leader
▁leaders
▁learn
▁learning
▁leben
▁lebens
▁leer
▁left
▁leg
▁legal
▁lege
▁legen
▁legend
▁legislativ
▁legitim
▁leh
▁lei
▁leid
▁leis
▁leistungs
▁leit
▁lenk
▁lern
▁les
▁lesen
▁less
▁let
▁lett
▁level
▁li
▁lib
▁liberal
▁license
▁licht
▁lieb
▁lief
▁lies
▁life
▁lift
▁light
▁ligne
▁like
▁lila
▁limit
▁limpi
▁line
▁linear
▁lingu
▁link
▁links
▁liquid
▁list
▁listen
▁lit
▁lita
▁literar
▁literature
▁litt
▁little
▁live
▁living
▁lleva
▁lo
▁loan
▁lob
▁lobby
▁local
▁location
▁lock
▁log
▁logisti
▁lokal
▁long
▁look
▁los
▁lost
▁lot
▁lounge
▁love
▁low
▁lu
▁lud
▁luft
▁lugar
▁lui
▁lux
▁luxu
▁lä
▁läng
▁lär
▁läs
▁lö
▁m
▁ma
▁maar
▁mach
▁mache
▁machen
▁machine
▁macht
▁made
▁mag
▁magazine
▁magnet
▁magnific
▁mah
▁mai
▁mail
▁main
▁mainstream
▁mais
▁maison
▁maj
▁major
▁mak
▁make
▁makro
▁mal
▁mala
▁malay
▁male
▁man
▁manage
▁management
▁manager
▁manch
▁manche
▁mange
▁manifest
▁manipul
▁mano
▁many
▁map
▁mar
▁marca
▁mare
▁marginal
▁marina
▁marine
▁mark
▁market
▁marketing
▁markt
▁marx
▁mas
▁mask
▁mass
▁master
▁mat
▁material
▁matt
▁matter
▁mau
▁max
▁maxim
▁may
▁mayor
▁maz
▁mb
▁me
▁meal
▁meaning
▁mechan
▁mechani
▁med
▁media
▁medikament
▁medio
▁meer
▁meet
▁meeting
▁mehr
▁mein
▁meist
▁mejor
▁melde
▁melodi
▁member
▁members
▁memory
▁men
▁mengen
▁mens
▁mental
▁mention
▁menu
▁mer
▁merk
▁mes
▁mess
▁message
▁met
▁meta
▁metall
▁meter
▁method
▁metro
▁meu
▁mexi
▁mg
▁mi
▁mich
▁micro
▁mid
▁middle
▁miet
▁migr
▁mikro
▁mil
▁miles
▁militar
▁million
▁min
▁mind
▁minder
▁mineral
▁mini
▁minim
▁minimal
▁minimalist
▁minimum
▁mins
▁minus
▁minut
▁minute
▁minutes
▁mir
▁mis
▁miser
▁mismo
▁miss
▁mission
▁mit
▁mitge
▁mitte
▁mix
▁ml
▁mm
▁mo
▁mobil
▁mobile
▁mod
▁mode
▁model
▁modell
▁moder
▁moderat
▁modern
▁moderne
▁modifi
▁modo
▁modul
▁moe
▁mold
▁molekul
▁moment
▁momento
▁mon
▁mona
▁monde
▁monet
▁money
▁mongol
▁mono
▁monopol
▁mont
▁month
▁months
▁monument
▁mor
▁moral
▁more
▁morgen
▁morning
▁most
▁motiv
▁moto
▁motor
▁mount
▁mountain
▁move
▁movie
▁movies
▁mp
▁mu
▁much
▁mucho
▁mult
▁multi
▁multifunk
▁multikultur
▁multimedia
▁multiple
▁multipli
▁mund
▁mundo
▁mus
▁music
▁musik
▁muslim
▁muss
▁must
▁mut
▁muy
▁my
▁myst
▁más
▁mé
▁mö
▁mög
▁möglich
▁mü
▁müd
▁müh
▁müs
▁na
▁naar
▁nach
▁nachge
▁nacht
▁nad
▁nada
▁nagel
▁nahr
▁naiv
▁nam
▁name
▁namen
▁names
▁nan
▁nano
▁nas
▁national
▁natu
▁natur
▁natural
▁nature
▁nauti
▁navig
▁ndi
▁ne
▁near
▁neben
▁need
▁needed
▁neg
▁negativ
▁nei
▁nel
▁neo
▁neoliberal
▁nerv
▁net
▁nett
▁netto
▁network
▁neu
▁neuro
▁neurologi
▁neutral
▁never
▁new
▁news
▁next
▁ng
▁ni
▁nice
▁nicht
▁nie
▁nieder
▁niet
▁night
▁nivel
▁no
▁noch
▁nombre
▁nomin
▁nominal
▁non
▁nor
▁nord
▁norm
▁normal
▁normale
▁normativ
▁nos
▁nostalgi
▁not
▁note
▁nous
▁novel
▁now
▁nr
▁nu
▁nuevo
▁nukle
▁number
▁numer
▁nummer
▁nun
▁nur
▁não
▁nä
▁näh
▁né
▁nö
▁nü
▁ob
▁obd
▁objekt
▁objektiv
▁obligatori
▁occup
▁occur
▁och
▁od
▁oder
▁of
▁off
▁offen
▁offer
▁offi
▁office
▁official
▁ofrec
▁og
▁ok
▁old
▁oli
▁olympi
▁om
▁on
▁one
▁online
▁only
▁ont
▁ook
▁op
▁open
▁oper
▁opera
▁operation
▁operativ
▁opportun
▁opposit
▁opt
▁optim
▁optimal
▁optimist
▁optimisti
▁option
▁options
▁or
▁oral
▁orang
▁orange
▁orden
▁order
▁ordin
▁organ
▁organis
▁organiz
▁orient
▁oriental
▁origin
▁original
▁originale
▁origine
▁ortho
▁oste
▁other
▁others
▁ou
▁our
▁out
▁outdoor
▁outside
▁over
▁own
▁owner
▁oxid
▁p
▁pH
▁pa
▁paar
▁pack
▁package
▁pag
▁page
▁pages
▁paid
▁pain
▁pakistan
▁pan
▁pane
▁panoram
▁paper
▁papier
▁par
▁para
▁paradox
▁parallel
▁parc
▁paris
▁park
▁parking
▁parlamentar
▁part
▁parte
▁parti
▁particular
▁partner
▁parts
▁party
▁pas
▁pass
▁passe
▁passion
▁passiv
▁password
▁past
▁patent
▁path
▁patriarc
▁patriot
▁pau
▁paus
▁pay
▁payment
▁pays
▁pazi
▁país
▁pe
▁peace
▁pen
▁pension
▁people
▁pequeñ
▁per
▁perfect
▁perfekt
▁perform
▁performance
▁period
▁permanent
▁permett
▁permit
▁pero
▁person
▁persona
▁personal
▁personas
▁personeel
▁personen
▁personnel
▁pervers
▁petit
▁peu
▁ph
▁phil
▁philosoph
▁philosophi
▁phone
▁photo
▁photograph
▁photos
▁physi
▁pi
▁pick
▁picture
▁pictures
▁pie
▁pied
▁pink
▁piscin
▁pit
▁pl
▁place
▁plag
▁plais
▁plan
▁plane
▁plant
▁plante
▁plast
▁plat
▁plau
▁play
▁player
▁plaz
▁ple
▁please
▁plug
▁plural
▁plus
▁pm
▁pneumati
▁po
▁pod
▁poder
▁poet
▁point
▁points
▁poker
▁pol
▁polar
▁polemi
▁poli
▁policy
▁polite
▁politis
▁poln
▁poly
▁pool
▁poor
▁pop
▁popul
▁popular
▁por
▁porn
▁port
▁porta
▁porte
▁portug
▁position
▁positiv
▁positive
▁poss
▁possibilit
▁possible
▁post
▁postal
▁postmodern
▁posts
▁pot
▁potenti
▁pou
▁pour
▁power
▁pr
▁pra
▁prach
▁practice
▁pragmat
▁pragmati
▁prakt
▁prakti
▁praktik
▁praktika
▁praktis
▁pre
▁precio
▁pred
▁preis
▁prek
▁premier
▁prepar
▁present
▁presiden
▁press
▁previous
▁pri
▁price
▁prices
▁prim
▁prima
▁primer
▁primitiv
▁principal
▁print
▁prior
▁priori
▁priorit
▁privacy
▁privat
▁private
▁privi
▁privileg
▁privilegi
▁privé
▁prix
▁pro
▁prob
▁problem
▁problema
▁problemati
▁problems
▁process
▁produce
▁product
▁production
▁products
▁produkt
▁produkti
▁produktions
▁produz
▁produzi
▁professional
▁profil
▁profit
▁profund
▁prognos
▁program
▁programma
▁programmi
▁programs
▁progressiv
▁project
▁projekt
▁promo
▁prompt
▁propag
▁proper
▁property
▁prophe
▁proportion
▁propos
▁propri
▁propriet
▁prosper
▁protection
▁protekt
▁protest
▁protestant
▁protokoll
▁proven
▁provid
▁provide
▁provis
▁provoca
▁provok
▁provoz
▁proximit
▁proximité
▁prä
▁pré
▁présent
▁pseudo
▁psych
▁psychi
▁psychiatr
▁psycho
▁psycholog
▁psychologi
▁pu
▁pub
▁publi
▁public
▁publik
▁puis
▁puls
▁punct
▁punkt
▁punto
▁pur
▁purchase
▁pure
▁purpose
▁put
▁pä
▁på
▁q
▁qu
▁qua
▁quadra
▁qual
▁qualifi
▁qualit
▁quality
▁qualité
▁quant
▁quanti
▁quantit
▁quart
▁quasi
▁que
▁quel
▁quell
▁question
▁questions
▁qui
▁quick
▁quiet
▁quo
▁ra
▁radi
▁radikal
▁radio
▁rag
▁rand
▁rang
▁range
▁rapid
▁rapide
▁rare
▁rasa
▁rass
▁rast
▁rate
▁ratifi
▁ratio
▁rational
▁rats
▁rau
▁raus
▁re
▁read
▁reading
▁reag
▁real
▁reale
▁realist
▁reason
▁rebel
▁rec
▁receive
▁recent
▁reception
▁recherch
▁recherche
▁recht
▁rechts
▁recommend
▁recommended
▁record
▁red
▁rede
▁refer
▁referen
▁reference
▁reflekt
▁reform
▁reg
▁regard
▁rege
▁regel
▁regen
▁regener
▁regi
▁regime
▁region
▁regional
▁registr
▁regn
▁regul
▁regular
▁regulator
▁reguli
▁rehabilit
▁rei
▁rein
▁reise
▁reiz
▁reklam
▁rekonstru
▁rekrut
▁rela
▁relation
▁relativ
▁relax
▁release
▁relevant
▁reli
▁religi
▁renov
▁renova
▁rent
▁repar
▁report
▁represent
▁reprodu
▁reprodukt
▁republika
▁request
▁required
▁research
▁reserv
▁reservation
▁resid
▁resort
▁resources
▁respect
▁respekt
▁ressource
▁rest
▁restaur
▁restaurant
▁restaurants
▁restri
▁result
▁results
▁ret
▁retour
▁retro
▁return
▁review
▁reviews
▁revolution
▁rhe
▁ri
▁rich
▁ride
▁right
▁rigo
▁ris
▁risiko
▁risk
▁ritu
▁rival
▁river
▁ro
▁road
▁robust
▁rock
▁roh
▁roll
▁rom
▁roman
▁romantis
▁room
▁rooms
▁root
▁rosa
▁rosi
▁rost
▁rot
▁roti
▁round
▁route
▁ru
▁rue
▁ruh
▁ruin
▁run
▁rund
▁running
▁russ
▁russi
▁rusti
▁ré
▁réserv
▁rö
▁sa
▁sabot
▁sach
▁safe
▁sah
▁said
▁saison
▁sak
▁sal
▁sale
▁sales
▁salon
▁sam
▁same
▁samt
▁san
▁sand
▁sang
▁sanit
▁sank
▁sans
▁satt
▁sau
▁saud
▁sauna
▁save
▁say
▁scann
▁sch
▁schade
▁schi
▁schilder
▁schli
▁schm
▁schme
▁schn
▁scho
▁school
▁schr
▁schreib
▁schro
▁schu
▁schuld
▁schw
▁schwarz
▁schwer
▁schön
▁science
▁screen
▁se
▁search
▁season
▁sech
▁second
▁section
▁sector
▁security
▁see
▁seem
▁seen
▁seg
▁sehe
▁sei
▁sein
▁seit
▁sektor
▁sekund
▁sel
▁selb
▁selbst
▁select
▁selection
▁selekt
▁self
▁sem
▁semana
▁semi
▁sen
▁send
▁sende
▁senk
▁sensi
▁sensibil
▁sensor
▁sent
▁separat
▁ser
▁sera
▁serb
▁seri
▁serie
▁series
▁server
▁servi
▁service
▁services
▁servicio
▁ses
▁session
▁set
▁setting
▁seu
▁sex
▁sexy
▁share
▁sharing
▁she
▁shop
▁shopping
▁short
▁should
▁show
▁shower
▁si
▁sia
▁sich
▁sicher
▁side
▁sie
▁sign
▁signal
▁signifi
▁similar
▁simple
▁simul
▁simultan
▁sin
▁since
▁sind
▁sing
▁single
▁sink
▁sinn
▁sino
▁sistema
▁sit
▁site
▁sites
▁situ
▁situa
▁situat
▁situation
▁six
▁size
▁sizi
▁siècle
▁skal
▁skandal
▁skepti
▁ski
▁skills
▁skru
▁sky
▁sl
▁sleep
▁slow
▁small
▁smart
▁so
▁sobre
▁social
▁sofa
▁soft
▁software
▁sog
▁soit
▁sol
▁solar
▁solid
▁solidar
▁solidari
▁soll
▁solo
▁solution
▁solutions
▁som
▁some
▁something
▁sommer
▁son
▁song
▁sono
▁soon
▁sorg
▁sort
▁sou
▁sound
▁source
▁sous
▁south
▁sozial
▁sp
▁spa
▁spac
▁space
▁spal
▁span
▁spar
▁spart
▁spaz
▁spe
▁speak
▁special
▁specific
▁speed
▁spektak
▁spekul
▁spend
▁spiel
▁spiele
▁spiritu
▁split
▁spontan
▁spora
▁sport
▁sports
▁spot
▁spr
▁spra
▁spre
▁spring
▁spä
▁spécial
▁sq
▁square
▁st
▁sta
▁staat
▁staats
▁stabil
▁stabilis
▁staff
▁stage
▁stagn
▁stalin
▁stand
▁standard
▁standards
▁star
▁stars
▁start
▁starte
▁stat
▁state
▁stati
▁station
▁stations
▁statisti
▁status
▁stay
▁steh
▁stelle
▁step
▁steril
▁stie
▁stil
▁still
▁stim
▁stimul
▁stir
▁sto
▁stock
▁stol
▁stop
▁stopp
▁stor
▁store
▁story
▁str
▁stra
▁straf
▁straffe
▁strand
▁strap
▁strateg
▁strategi
▁stre
▁stream
▁streaming
▁street
▁streng
▁stress
▁stri
▁strik
▁string
▁stro
▁strom
▁strong
▁struktur
▁stu
▁student
▁students
▁studier
▁studies
▁studio
▁study
▁stuff
▁styl
▁style
▁stö
▁su
▁sua
▁sub
▁subject
▁subsidi
▁substan
▁substanti
▁subtil
▁success
▁such
▁sud
▁suda
▁sugger
▁suggest
▁suite
▁suk
▁sul
▁summer
▁sun
▁sunn
▁suo
▁sup
▁super
▁superb
▁superior
▁support
▁supra
▁sur
▁sure
▁surf
▁surface
▁surprise
▁sus
▁suspend
▁sy
▁symbol
▁symboli
▁sympathi
▁sympt
▁symptom
▁syn
▁synchron
▁synthe
▁syr
▁system
▁systemat
▁systems
▁sä
▁sé
▁séjour
▁süd
▁ta
▁table
▁tabu
▁tad
▁tag
▁tage
▁tags
▁tak
▁take
▁takt
▁tal
▁talent
▁talk
▁tan
▁tang
▁tant
▁tapp
▁target
▁tarif
▁task
▁taste
▁tat
▁tau
▁tax
▁taxi
▁te
▁tea
▁team
▁techno
▁technologi
▁technologie
▁technology
▁teil
▁tel
▁tele
▁telefon
▁television
▁tell
▁tempo
▁tempor
▁temps
▁ten
▁tend
▁ter
▁term
▁termin
▁terms
▁terra
▁terrasse
▁terre
▁territorial
▁terror
▁terrorist
▁test
▁teu
▁text
▁th
▁thai
▁than
▁thank
▁thanks
▁that
▁the
▁them
▁thema
▁theme
▁then
▁there
▁therm
▁thermo
▁thing
▁things
▁think
▁this
▁though
▁thought
▁three
▁through
▁ti
▁tid
▁tiempo
▁tiene
▁til
▁till
▁time
▁times
▁tipo
▁tipp
▁title
▁to
▁toda
▁today
▁todo
▁todos
▁together
▁toilet
▁toler
▁tolerant
▁toll
▁too
▁tool
▁tools
▁top
▁torp
▁tot
▁total
▁touch
▁tour
▁tourist
▁tout
▁town
▁tr
▁tra
▁trabajo
▁track
▁trade
▁tradition
▁traf
▁traffic
▁trag
▁train
▁training
▁tram
▁tranquil
▁tranquill
▁trans
▁transfer
▁transform
▁translation
▁transparent
▁transport
▁tras
▁trat
▁traum
▁traumatis
▁travail
▁travel
▁tre
▁treatment
▁treff
▁tren
▁trend
▁tres
▁tri
▁trink
▁trip
▁trivi
▁tro
▁trop
▁trot
▁trouv
▁trova
▁tru
▁true
▁try
▁tu
▁tun
▁turbulen
▁turn
▁tut
▁tutti
▁tv
▁twin
▁two
▁typ
▁type
▁tä
▁télé
▁tö
▁tör
▁türk
▁ud
▁uit
▁ultima
▁ultra
▁um
▁uma
▁umf
▁umge
▁un
▁una
▁unbe
▁und
▁under
▁understand
▁une
▁unge
▁union
▁unique
▁univers
▁universal
▁universe
▁universit
▁uno
▁uns
▁unter
▁untersch
▁unver
▁up
▁update
▁upgrade
▁urban
▁usb
▁use
▁used
▁user
▁users
▁ut
▁utopi
▁v
▁va
▁valid
▁valor
▁value
▁van
▁var
▁vari
▁varia
▁variable
▁ve
▁vegetari
▁veh
▁venez
▁venta
▁ver
▁vera
▁verb
▁verbal
▁verbind
▁verbl
▁verbo
▁verd
▁verde
▁verdi
▁verdu
▁vere
▁verf
▁verfüg
▁verfügbar
▁verg
▁verge
▁vergi
▁verho
▁verifi
▁verk
▁verkauf
▁verkauft
▁verle
▁verlie
▁verme
▁vermi
▁vermo
▁verni
▁vero
▁verra
▁vers
▁versa
▁versch
▁verschi
▁verse
▁versi
▁version
▁versp
▁verst
▁verste
▁vert
▁verta
▁verte
▁vertra
▁verw
▁verwe
▁verwer
▁verze
▁vez
▁vi
▁via
▁vibr
▁vida
▁video
▁videos
▁vie
▁viel
▁vier
▁vietnam
▁view
▁views
▁villa
▁village
▁ville
▁vir
▁virtu
▁virtual
▁vis
▁visa
▁vision
▁visit
▁vista
▁visu
▁visualis
▁vital
▁vo
▁voi
▁vol
▁volatil
▁volks
▁voll
▁volle
▁volume
▁vom
▁von
▁voor
▁vor
▁vorb
▁vorbe
▁vorbei
▁vorge
▁vorm
▁vos
▁vot
▁vote
▁vs
▁vue
▁vulkan
▁vé
▁w
▁wa
▁wach
▁wag
▁wah
▁wait
▁walk
▁wall
▁wand
▁wandel
▁want
▁war
▁warm
▁warn
▁was
▁wat
▁watch
▁water
▁way
▁we
▁weather
▁web
▁website
▁week
▁weekend
▁weg
▁wegge
▁weh
▁wei
▁weigh
▁weit
▁weiter
▁weiß
▁wel
▁welcome
▁well
▁welt
▁wen
▁wer
▁werde
▁werden
▁were
▁werk
▁wert
▁west
▁wet
▁what
▁white
▁who
▁whole
▁wi
▁wid
▁wide
▁wider
▁wie
▁wieder
▁wifi
▁wild
▁will
▁win
▁wind
▁window
▁windows
▁wine
▁winter
▁wir
▁wird
▁wis
▁wish
▁wit
▁with
▁wo
▁woh
▁wohl
▁wohn
▁woll
▁women
▁won
▁wood
▁wor
▁word
▁worden
▁words
▁work
▁working
▁works
▁world
▁write
▁writing
▁wu
▁wunder
▁wurde
▁www
▁ya
▁year
▁years
▁yes
▁yet
▁you
▁young
▁your
▁yourself
▁z
▁za
▁zag
▁zahl
▁ze
▁zen
▁zi
▁ziem
▁zig
▁zijn
▁zir
▁zit
▁zo
▁zona
▁zone
▁zor
▁zu
▁zuge
▁zum
▁zun
▁zur
▁zurück
▁zurückge
▁zurückzu
▁zusammen
▁zusammenge
▁zutreffend
▁zw
▁zwar
▁zwei
▁{
▁}
▁~
▁
▁¡
▁£
▁§
▁©
▁«
▁·
▁»
▁¿
▁À
▁Á
▁Ä
▁Är
▁Å
▁År
▁É
▁Ó
▁Ö
▁Öko
▁Öl
▁Ör
▁Öst
▁Österreich
▁×
▁Ø
▁Ü
▁Üb
▁Über
▁än
▁är
▁ég
▁és
▁éta
▁étoiles
▁öf
▁ök
▁öko
▁öl
▁ön
▁ör
▁ört
▁üb
▁über
▁übersch
▁Č
▁Česk
▁Š
▁Še
▁Ši
▁Šp
▁Ž
▁́
▁̇
▁В
▁Г
▁в
▁з
▁с
▁у
▁€
▁→
▁−
