!
!"
!).
"
")
"),
").
",
".
":
";
">
"?
#
$
%
%)
%),
%).
&
'
')
(
("
('
()
(*)
)
),
).
):
);
)?
*
+
,
,"
-
->
.
."
/
/_
0
1
1000
1701
1848
1867
1868
1871
1882
2
2000
2002
2008
2009
2010
2370
2371
2373
3
4
5
6
7
8
9
:
;
=
="
=>
>
?
?"
@
A
AA
AC
ACE
ACHT
ACTA
AD
ADC
ADI
ADS
ADSL
AE
AF
AFP
AFTA
AG
AGB
AGEN
AIDS
AKP
ALDE
ALE
ALLE
ANGE
AO
AP
API
APS
AQ
ARCA
ARD
ARDO
ARE
ARS
AS
ASA
ASF
AT
ATS
AU
AUF
AUS
AV
AVEN
Aaron
Ab
Abbe
Abdullah
Aber
Abonnement
Abteilung
Account
Ad
Adapter
Administration
Admiral
Adobe
Adresse
Advanced
Advisor
Affiliate
Afrika
Afrikaner
Agenda
Agent
Agentur
Agrar
Agreement
Air
Airbus
Ak
Akademie
Aktion
Aktiv
Aktivitäten
Aktuell
Aktuelle
Al
Alarm
Alaska
Alba
Alberg
Album
Alfred
Algeri
Algorithm
Alicante
All
Alle
Allgemeine
Alpes
Alphabet
Als
Also
Alt
Alter
Although
Am
Ambassador
Ambiente
Amerika
Amerikan
An
Analyse
Analyst
Anbieter
And
Andere
Andorra
André
Andy
Anfrage
Ang
Angebot
Angebote
Angela
Angola
Angriff
Anhänger
Anker
Anlagen
Anleitung
Ant
Anti
Antiqu
Antivirus
Antoine
Antwerpen
Antworten
Anwendungen
Anzeigen
Apache
Apartamentos
Aparthotel
Apartment
App
Apparat
Appartement
Applikation
Aquarium
Ar
Arabi
Arb
Arbeitgeber
Arbeits
Arch
Archiv
Arco
Aristotel
Arm
Armstrong
Army
Arnold
Arr
Arrangement
Art
Artikel
Assa
Asset
Assistent
Astronomi
Atelier
Atlantik
Attack
Attribute
Auch
Audio
Auditori
Auf
Aufbau
Aufgabe
Aufgaben
Augsburg
August
Aus
Ausführung
Ausgabe
Ausstattung
Austausch
Australien
Auswahl
Auth
Authority
Auto
Autobahn
Automatik
Automation
Automobile
Automotive
Autonomi
Autor
Avatar
Axel
Azur
B
BA
BAE
BB
BC
BD
BE
BEG
BEI
BEN
BER
BF
BG
BH
BIOS
BIT
BM
BO
BODY
BRIDGE
BS
BSD
BSE
BSP
BT
BURG
BUS
Babylon
Back
Backup
Bad
Baden
Bahn
Bahrain
Balear
Ball
Baltic
Ban
Band
Bank
Banking
Bar
Barrier
Barry
Bas
Base
Based
Batch
Bau
Be
Beam
Bearbeiten
Bearbeitung
Becker
Beethoven
Befestigung
Beginn
Begleit
Behind
Bei
Beiträge
Bekleidung
Bel
Belarus
Beleuchtung
Belieb
Ben
Benchmark
Benedikt
Benz
Ber
Bereich
Berg
Bericht
Berichte
Berlin
Besonder
Best
Bestands
Bestseller
Bet
Betreu
Betriebssystem
Bewertung
Bi
Bibliothek
Big
Bilbao
Bild
Bilder
Bio
Biographi
Bistro
Bit
Bitte
Blackjack
Blanca
Blanche
Block
Blog
Blue
Bo
Board
Boeing
Bombard
Bonus
Book
Boot
Bosni
Bot
Boulevard
Box
Br
Bravo
Breite
Bremen
Brent
Brescia
Bretagne
Bri
Brille
Bring
Bristol
British
Broadcast
Broadway
Browser
Bruce
Bruno
Brücke
Bu
Buch
Buddhis
Budget
Bueno
Buffet
Builder
Bulletin
Bundes
Bundestag
Bungalow
Bur
Burma
Burundi
Bus
Business
Button
Buttons
Byte
Bürgermeister
Büro
C
CA
CAD
CAM
CAO
CAT
CC
CCD
CCP
CD
CDU
CE
CEF
CET
CF
CH
CHE
CHEN
CHER
CHR
CI
CIA
CID
CIS
CK
CKER
CM
CMS
CN
CNS
CO
COD
COM
CON
CORE
COS
CR
CS
CSI
CSR
CSU
CT
CV
Cache
Caesar
Café
Calder
Call
Cam
Cameron
Camp
Campos
Cannabis
Cannes
Canyon
Captain
Capture
Car
Card
Cardiff
Cargo
Caroline
Carrier
Casino
Castello
Castillo
Catania
Catering
Catherine
Center
Ch
Chaos
Char
Chart
Charter
Charts
Chat
Check
Chef
Chi
Chief
China
Chip
Chips
Chirurgi
Christ
Christine
Chrysler
City
Ciudad
Claude
Claudia
Client
Climate
Clip
Club
Cluster
Co
Coca
Code
Codes
Colin
Columbus
Com
Comics
Commander
Commerce
Community
Compil
Compliance
Composite
Computer
Computing
Con
Concierge
Consumer
Content
Continental
Control
Controller
Convention
Cookie
Copy
Cor
Corporate
Couch
Coupon
Crash
Creme
Crew
Cristina
Crop
Crown
Cube
Cultural
Curso
Cô
D
DA
DAC
DAP
DAX
DB
DC
DD
DE
DEC
DEM
DEMI
DEN
DF
DG
DHC
DI
DING
DIR
DL
DLL
DM
DO
DP
DR
DS
DSG
DSP
DSS
DT
DV
DVB
DVD
Dam
Danke
Dante
Darwin
Das
Data
Date
Dateien
Datenbank
Datum
Dayton
De
Debug
Decken
Default
Deklar
Dekoration
Delphi
Demand
Demo
Demonstration
Den
Dennis
Depot
Depression
Der
Des
Design
Designer
Desk
Dessert
Deut
Deutsche
Deutschland
Di
Dia
Dialog
Diana
Die
Dienst
Dienste
Dienstleister
Dienstleistungen
Diese
Digital
Dinner
Dinosaur
Direktor
Discovery
Disk
Display
Distributor
Distrikt
Dmitr
Do
Doc
Dokument
Dokumentar
Dokumentation
Dolce
Dollar
Domain
Domingo
Dominique
Domino
Don
Donner
Dor
Down
Download
Dr
Dresd
Drive
Druck
Drucker
Du
Dubr
Dump
Dungeon
Dur
Dutch
E
EACH
EAD
EAR
EC
ECHO
ECR
ECU
ED
EDER
EF
EG
EI
EIN
EINE
EIT
EL
ELLE
EMA
EMAS
EN
ENDE
ENER
ENIA
ENT
EO
EOS
EP
EQ
ER
EREN
ERLIN
ERN
ERP
ERS
ERT
ES
ESA
ESE
ESF
ESS
ET
ETF
ETH
ETON
ETS
EU
EUR
EW
EX
EZ
Earl
Early
Eben
Eclipse
Economics
Economy
Ecuador
Edgar
Edinburgh
Edition
Editor
Ef
Eigenschaft
Ein
Eine
Einführung
Einheit
Einstellungen
Eintrag
El
Elefant
Elegant
Element
Elemente
Elements
Elisabeth
Emission
Emmanuel
Emotion
Empfehlung
Empire
En
End
Energie
Engagement
Engine
Englisch
Enjoy
Ensemble
Ent
Enterprise
Entwickler
Epidemi
Er
Erasmus
Erdogan
Ergebnisse
Ericsson
Erika
Erinnerung
Eritre
Erk
Ernest
Ernst
Ersatzteil
Erscheinung
Erste
Erweiter
Erweiterung
Es
Espresso
Essay
Esta
Establ
Etat
Ethno
Etikett
Euro
Europa
Europe
European
Evaluation
Evans
Event
Events
Everest
Everything
Ex
Exempl
Exhibition
Existen
Expedition
Expert
Export
Exposition
Express
Extern
Extra
F
FA
FAO
FB
FBI
FC
FD
FDA
FE
FEN
FF
FG
FH
FI
FIN
FK
FL
FLEX
FM
FO
FON
FOR
FORD
FORM
FP
FR
FRE
FRONT
FRS
FS
FSA
FT
FTP
FX
FY
FZ
Fa
Fach
Fahr
Fahrzeuge
Faktor
Fakult
Falken
Fall
Familie
Fan
Fans
Farb
Farben
Farmer
Fast
Fax
Feed
Fel
Felix
Ferdinand
Ferienwohnung
Ferienwohnungen
Fernando
Fertigung
Fest
Festival
Festplatte
Feuchtigkeit
Fi
Fiat
Fiction
Fidel
Fiesta
Figue
File
Files
Film
Filter
Finale
Financial
Finanz
Find
Finder
Firenze
Firm
Fl
Flags
Flamen
Flamm
Flasche
Flash
Flex
Flickr
Florian
Flott
Flug
Flugzeug
Flyer
Flying
Focus
Fokus
Folie
Following
Fonds
Fontaine
Food
For
Foreign
Forge
Form
Format
Formation
Formular
Fort
Forum
Forums
Foto
Fotografie
Fr
Fra
Frag
Fragment
Fraktion
Frame
Francesco
Franchise
Frank
Frankreich
Französisch
François
Free
Freestyle
Frei
Freiheit
Freitag
Freunde
Freundschaft
Fri
Friendly
Fritz
Front
Fuchs
Fuer
Funktion
Funktionen
Fussball
Für
G
GA
GALI
GAP
GARANT
GATT
GB
GCC
GE
GEA
GEL
GEN
GER
GES
GF
GH
GHz
GI
GIF
GIS
GL
GMO
GNU
GP
GS
GT
GUE
GUS
GV
Galerie
Game
Gamma
Gandhi
Gang
Ganze
Garantie
Garni
Gary
Gas
Gast
Gastronomie
Gateway
Ge
Gebraucht
Gehäuse
Gelb
Geld
Gelände
Gem
Gemüse
Gen
Gender
General
Generation
Genesis
Genom
Genre
Geometri
Ger
Germain
German
Geschäftsführer
Get
Getriebe
Gewerkschaft
Gewinne
Gewinnspiel
Ghana
Gi
Gibraltar
Gigant
Giorgio
Girona
Gitarre
Giuseppe
Gl
Glasgow
Glauben
Global
Gloss
Glücksspiel
Go
Gold
Golden
Golf
Gottes
Gr
Gracia
Grad
Graffiti
Graham
Granada
Gratul
Gravit
Gre
Gregori
Group
Groß
Grund
Grundschule
Gruppe
Größe
Gründe
Gründer
Grüne
Gu
Guatemala
Guide
Guido
Guinea
Gut
Gymnasium
H
HA
HAF
HAL
HC
HCP
HD
HEN
HG
HI
HK
HL
HNE
HP
HR
HS
HT
HTC
HTML
HU
Ha
Habitat
Hacker
Haf
Haiti
Hal
Hall
Hampton
Hand
Handicap
Handling
Handy
Har
Harbour
Hardware
Harrison
Harvard
Haus
Haustier
He
Header
Heidelberg
Heim
Heinrich
Helikopter
Hepat
Her
Heraus
Herbert
Herr
Hersteller
Herz
Hessen
Hi
Hier
High
Highway
Hilfe
Hilton
Hinweis
Hit
Ho
Hoch
Hoffman
Hol
Holding
Holmes
Holocaust
Holstein
Home
Honduras
Host
Hostal
Hosting
Hot
Hotel
Hotels
House
How
Howard
However
Hugo
Hyde
Hygiene
Hyper
Hypothe
Hz
Hôtel
Höf
I
IA
IB
IBO
IC
ICA
ICC
ICH
ICHE
ICHT
ICO
ICON
ID
IDE
IE
IEC
IEEE
IEN
IER
IES
IF
IFA
IFF
IFT
IG
IGE
IGEN
IHR
II
III
IKT
ILO
IME
IMM
IMO
IMP
IN
IND
INE
INEN
INER
ING
INGTON
INI
INTERNATIONAL
ION
IP
IPC
IPS
IRA
IRC
IS
ISA
ISE
ISO
ISP
ISS
IST
IT
ITE
ITER
ITES
ITS
IV
IX
Ibiza
Ich
Id
Ideen
Ignor
Ihr
Il
Im
Image
Images
Immobilie
Imp
Implementation
Import
Impressum
In
Inclusive
Index
Indi
Indoor
Industrie
Infektion
Info
Informatik
Information
Ing
Initial
Initiat
Initiative
Inline
Innen
Input
Insel
Install
Installer
Institut
Instrument
Instruments
Integer
Integr
Intelligent
Inter
Interactive
Interface
Internal
International
Internet
Interpretation
Interval
Intervention
Interviews
Invalid
Invest
Irish
Is
Isle
Israel
It
Italie
Italienisch
J
JPEG
JPG
Ja
Jack
Jacques
James
Jan
January
Japan
Jardin
Jason
Javascript
Javier
Je
Jean
Jeep
Jennifer
Jensen
Jessica
Jet
Jetzt
Jh
Jimmy
Jo
Johannesburg
Johnny
Joint
Jonas
Jonathan
Joomla
Jorge
José
Journal
Jubiläum
Jugend
Jugosl
Jul
Jun
Just
Jährige
K
KAU
KB
KDE
KEI
KEN
KG
KIP
KK
KLM
KOM
KONTAKT
KORE
KR
KS
KTOR
KW
Ka
Kabel
Kabinet
Kal
Kaliningrad
Kalkul
Kam
Kambo
Kamera
Kampagne
Kan
Kanal
Kanon
Kanton
Kapitel
Kar
Kara
Karaoke
Karel
Karneval
Kart
Karte
Karton
Katalog
Kategorie
Kaufen
Kaufman
Kein
Kenn
Kensington
Ker
Kevin
Key
Ki
Kind
Kinder
King
Kir
Kirsch
Kit
Klasse
Klassiker
Klaus
Klavier
Klebe
Kleidung
Klein
Kleine
Klick
Klima
Know
Knowledge
Ko
Koffer
Kol
Kolleg
Kollektion
Kollektiv
Kolumbi
Kom
Kombination
Kommand
Kommen
Kommission
Komor
Kompatibil
Kompetenz
Komponente
Komponenten
Kon
Konferenz
Kongo
Kont
Kontakt
Konto
Kontrolle
Konven
Konzentration
Konzept
Konzern
Kop
Kor
Korean
Korrek
Kosovo
Kost
Kostenlose
Kr
Kraftstoff
Krebs
Kredit
Kreditkarte
Kreis
Krimi
Krise
Kroati
Krone
Kuchen
Kultur
Kunden
Kunst
Kur
Kurs
Kurse
Kuwait
Kö
L
LAB
LAF
LAN
LAND
LD
LDR
LE
LEGO
LEO
LEON
LER
LEX
LG
LI
LICH
LICK
LIE
LIM
LINK
LKW
LM
LN
LOS
LP
LR
LSA
LT
LUNG
LV
LW
LY
La
Lab
Labels
Lager
Laguna
Land
Lang
Larry
Las
Laser
Lauf
Lautsprecher
Layer
Layout
Le
Learning
Leh
Lei
Leiden
Leistung
Leistungs
Leitung
Leonardo
Leone
Leopard
Leopold
Les
Levant
Level
Li
Liban
Licht
Lido
Liebe
Liechtenstein
Lied
Lieferung
Liege
Life
Light
Line
Linie
Link
Links
Linux
Lisboa
List
Listen
Listing
Live
Lloyd
Lo
Lobby
Locker
Loco
Log
Logic
Logistic
Logo
Loire
Lokomotiv
Lorenzo
Los
Lotus
Louise
Lounge
Loyal
Lu
Luc
Luft
Lukas
Lunch
Lux
Luxury
LÄ
Läs
López
Lösungen
M
MA
MANN
MAP
MATIC
MAX
MB
MC
MD
ME
MEA
MEN
MEZ
MF
MG
MHz
MI
MIDI
MIND
ML
MM
MMER
MMO
MOS
MP
MPEG
MPP
MR
MS
MSN
MT
MTP
MTS
MTV
MU
MV
MX
MZ
Ma
Maastricht
Mac
Macintosh
Madam
Made
Madeira
Madison
Madonna
Maestro
Magazin
Magnesium
Mahmu
Mai
Mail
Main
Mal
Malaga
Malawi
Malware
Man
Management
Manager
Mandat
Mannheim
Mapping
Maps
Maqui
Mar
Marcus
Marie
Marion
Maritim
Mark
Marke
Marker
Marketing
Markt
Markus
Marques
Marrakech
Marriott
Marten
Martínez
María
Maschine
Mass
Massiv
Master
MasterCard
Mastercard
Material
Math
Matthi
Mau
Maurice
Mauritius
Max
Maximum
Mayor
Maß
McM
Me
Medi
Media
Medikamente
Medina
Meditation
Mehr
Mein
Meine
Meisterschaft
Melodi
Membran
Memorial
Men
Mengen
Menü
Mer
Mercure
Mes
Messing
Meta
Metal
Meter
Methode
Metz
Mexik
Mi
Migrant
Mikrofon
Mil
Millennium
Milliarden
Millionen
Min
Minder
Mini
Minimum
Minister
Minsk
Minute
Miranda
Mission
Missouri
Mit
Mitchell
Mitglied
Mitglieds
Mix
Mo
Mobil
Mobile
Mobilität
Mobiltelefon
Modal
Mode
Modell
Modem
Moderator
Moderne
Modul
Module
Modus
Mohammed
Mol
Mon
Monaco
Monica
Monitor
Monitoring
Monopol
Mont
Montenegro
Mor
Morph
Motor
Motorola
Mozilla
Mu
Mule
Multi
Multiplayer
Munich
Museo
Museum
Musik
My
MySQL
Myanmar
Märk
Möglichkeit
Mü
Münster
N
NA
NACH
NC
NCC
ND
NDEN
NDON
NE
NEN
NES
NET
NG
NH
NIC
NIS
NL
NO
NOME
NP
NR
NS
NSS
NT
NV
NX
Na
Nach
Nachfolge
Name
Namibia
Nancy
National
Nations
Native
Natur
Navigator
Ne
Neil
Nein
Net
Networking
Networks
Netzwerk
Neu
Neue
Nevada
New
Newcastle
News
Newsletter
Ni
Nicaragua
Nicht
Nicolas
Nicole
Nie
Niels
Nikon
Niveau
No
Noch
Noise
Nord
Norden
Nordic
Norm
Normandi
Northern
Norweg
Nostalgi
Not
Notes
Notre
Nous
Novotel
Nr
Nu
Nuevo
Null
Nummer
Nur
Nutzer
Nächste
Nürnberg
O
OCH
ODA
ODER
OECD
OEL
OEM
OF
OK
OL
OLAN
OM
ON
OPS
ORK
OS
OW
OX
Ob
Ober
Objekt
Objektiv
October
Odysse
Off
Office
Offline
Offset
Oh
Ohio
Okt
Olivier
Olympic
Olympus
Omar
On
One
Online
Opel
Open
Operation
Optik
Option
Optional
Or
Oracle
Orbit
Orchid
Ord
Organ
Organisation
Orion
Ort
Ost
Out
Output
P
PA
PAM
PARIS
PC
PCC
PCM
PD
PDA
PDF
PE
PEC
PF
PG
PGA
PI
PKK
PL
PM
PN
PNG
PO
POL
PP
PPC
PPE
PPP
PRINC
PRO
PROG
PRS
PS
PSE
PSN
PSP
PT
PV
Pa
Pablo
Pack
Packaging
Pak
Paket
Palau
Palermo
Palette
Pan
Panama
Panel
Panzer
Paolo
Pap
Par
Para
Parade
Paraguay
Parameter
Park
Parking
Parkplatz
Parlament
Parlamentar
Parque
Part
Partition
Partner
Party
Pas
Pascal
Pass
Passage
Passiv
Pat
Patent
Patio
Paul
Pauschal
Pause
Pay
PayPal
Pe
Peking
Pendant
Per
Perfekt
Performance
Perry
Person
Personal
Perspektiv
Peter
Pf
Pfa
Ph
Phase
Philippe
Philosophi
Phosph
Photo
Phuket
Piazz
Picasso
Pietro
Pigment
Pilot
Pin
Pittsburgh
Pix
Pla
Plan
Planet
Plat
Plattform
Platz
Play
Player
Players
Playlist
Please
Plugin
Plus
Po
Point
Pokal
Poker
Pol
Polen
Poli
Politik
Politiker
Polymer
Pool
Population
Popup
Port
Portal
Portrait
Position
Positive
Post
Power
Pr
Pre
Preis
Preise
Premiere
Press
Prestige
Preview
Print
Prinz
Privacy
Privileg
Prix
Pro
Problem
Probleme
Produkt
Produkten
Prof
Profil
Progno
Programm
Programme
Progressive
Projekt
Projektor
Promotions
Propaganda
Prophe
Prospekt
Prostitu
Protestant
Protokoll
Prototyp
Provence
Provider
Provision
Proxy
Prozessor
Präsen
Präsentation
Präsident
Publikation
Puerto
Pulver
Puma
Punkt
Punta
Pyramid
Q
QE
QF
QS
Qu
Quad
Qualifikation
Qualität
Quart
Quartier
Que
Quelle
Quiz
Qué
R
RA
RAG
RAID
RAL
RATE
RAW
RB
RC
RD
RDEN
RE
REG
REIS
REN
RER
RESS
RF
RFID
RG
RGB
RID
RIF
RIG
RIMO
RIO
RIT
RK
RL
RM
RO
ROM
RP
RS
RT
RUNG
RW
Ra
Rad
Radar
Radio
Radisson
Radius
Rah
Ramada
Ranking
Rat
Rates
Ratings
Ray
Re
Reader
Reag
Real
Rec
Reception
Recherche
Recht
Rechtsanw
Recording
Recovery
Recycling
Red
Reg
Regel
Regi
Regina
Region
Register
Registrierung
Registry
Rehabilitation
Reihe
Reise
Reisen
Relation
Relativ
Release
Relevan
Remote
Renaissance
Render
Report
Reporting
Reports
Repository
Republika
Reservation
Residencia
Residenz
Resolution
Ressourcen
Restaurant
Revers
Rheinland
Ri
Ricardo
Richtlinie
Riga
Rights
Ring
Ritter
Rival
Riviera
Ro
Road
Roberto
Rock
Roland
Roll
Roller
Rom
Roman
Romantik
Room
Rooms
Rot
Rotary
Roulette
Router
Routin
Royal
Ru
Rubri
Ruby
Rudolf
Runde
Runtime
Russell
Russisch
Russland
Ruth
RÜ
Rück
S
SA
SAP
SAR
SAT
SB
SC
SCH
SCHE
SD
SDG
SDK
SDL
SDN
SE
SEAN
SEK
SEM
SEN
SEPA
SER
SERVICE
SF
SG
SH
SIP
SIS
SITE
SIX
SK
SL
SLR
SM
SO
SOE
SOFTWARE
SOK
SOP
SP
SPAR
SPEED
SPS
SQL
SR
SS
SSEL
SSH
SSL
SSR
ST
STAT
SV
SW
SX
SYN
SYS
SZE
Sa
Safe
Sage
Sahara
Sal
Salmon
Salomon
Sam
Samen
Sample
San
Sandwich
Sar
Sat
Satellit
Sc
Scala
Scan
Scanner
Sch
Schaum
Scheiben
Schema
Schengen
Schlacht
Schlafzimmer
Schlei
Schleif
Schließ
Schnittstelle
Schon
Schott
Schrauben
Schritt
Schul
Schule
Schutz
Schwarz
Schwe
Schweiz
Schweizer
Schweiß
Schöne
Schönheit
Scout
Screen
Script
Scroll
Se
See
Seele
Segel
Sehr
Seine
Seite
Sekretari
Sektor
Sel
Semester
Sen
Senator
Sender
Senegal
Sensor
Separat
Ser
Serie
Server
Service
Services
Servo
Set
Setup
Share
Sharon
Shirt
Shirts
Shop
Shot
Show
Shuttle
Si
Sicherheit
Sicht
Sid
Sie
Sieben
Sieg
Sieger
Sierra
Sigma
Signal
Silicon
Simulation
Site
Sites
Situation
Skandal
Skandinavi
Ski
Skop
Slave
Slideshow
Smartphones
Snack
So
Socket
Sofort
Soft
Software
Sol
Solar
Soldat
Solid
Somalia
Sonic
Sorte
Sortiment
Sound
Sounds
Source
Southern
Sp
Spa
Space
Spam
Span
Spanish
Speak
Speed
Speise
Spencer
Spend
Spezialist
Spiel
Spiele
Spielzeug
Spiral
Sport
Sports
Sprache
Spread
Sprech
Sprecher
St
Sta
Stadt
Staffel
Stand
Standard
Stanley
Star
Start
Station
Status
Statut
Std
Stein
Stempel
Steril
Sterling
Sterne
Steuerung
Stich
Stick
Sticker
Stiftung
Stil
Stimul
Stop
Stopp
Store
Str
Stra
Strand
Strasse
Strategi
Straße
Stream
Strecke
Street
Streit
String
Stuart
Studie
Studio
Sturm
Stück
Su
Sub
Such
Suche
Sudan
Suisse
Suite
Super
Superior
Superstar
Support
Swarovski
Symbol
Symphon
Symptom
Sync
Synchron
Syndrom
Synthes
System
Szene
Süd
T
TA
TAC
TB
TC
TCP
TD
TE
TEC
TEN
TER
TEX
TG
TH
TION
TK
TL
TM
TOM
TOS
TP
TPP
TR
TRIP
TS
TT
TU
TUI
TUNG
TV
TW
TZ
Ta
Tab
Tag
Tak
Tal
Tales
Tampere
Tango
Tank
Target
Tarif
Tastatur
Taste
Te
Team
Teatro
Tec
Tech
Technical
Technik
Technische
Technologie
Teenage
Teil
Teile
Tel
Tele
Telefon
Teleskop
Tempel
Templates
Ter
Termin
Termine
Terra
Terrassen
Terrorism
Test
Tester
Testing
Text
Texte
The
Thema
Theme
Thermal
These
Thessaloniki
They
Third
Thro
Ti
Ticket
Tier
Tim
Time
Timer
Tipps
Titel
To
Toilette
Toledo
Toleran
Tom
Tony
Tool
Toolbar
Tools
Top
Tor
Toscan
Toulouse
Tour
Touren
Tr
Tra
Trace
Track
Tracking
Trade
Traffic
Training
Traktor
Trans
Transfer
Transport
Transporter
Tre
Treff
Treib
Trekking
Tri
Trial
Tribunal
Tribut
Trigger
Triumph
Tro
Troph
Tru
Tu
Tuber
Tulip
Tunes
Tuning
Turin
Turkmenistan
Turn
Tutorials
Typ
Type
Türk
U
UAB
UC
UCH
UCK
UEFA
UEN
UER
UK
UKA
UM
UNG
UNGE
UNH
UNO
UNS
UNTER
UP
URBAN
URL
US
USA
USB
USD
USE
USS
UTF
UTS
UU
UV
Ubuntu
Uganda
Uh
Um
Un
Und
Underground
Ungar
Union
Universität
Unser
Unter
Unterkunft
Unternehmen
Unternehmer
Unterstützung
Up
Update
Upgrade
Upload
Upper
Ur
Urte
User
Utrecht
V
VA
VD
VER
VG
VI
VIEW
VIS
VISA
VIT
VM
VN
VO
VON
VOR
VP
VST
VV
Va
Val
Variable
Variante
Vatikan
Ve
Vector
Venture
Ver
Veranstaltungen
Verantwort
Verarbeitung
Verfügbarkeit
Verhältnis
Verkauf
Vermittlung
Verona
Vers
Versandkosten
Version
Versuch
Very
Veröffentlichung
Vi
Via
Vibration
Video
Videos
Viel
View
Viewer
Villa
Vinci
Vinyl
Vir
Virus
Vision
Vo
Vol
Volleyball
Volvo
Vor
Vorbereitung
Vorlage
Vorsitzende
Vorstand
Vous
Voyage
W
WAP
WASH
WAV
WB
WC
WE
WEI
WEN
WF
WG
WHO
WI
WIFI
WIN
WIR
WK
WM
WMA
WN
WP
WR
WS
WT
WTO
WU
Wagen
Wal
Walking
War
Ware
Warner
Warren
Was
Wasser
Watson
We
Web
Webcam
Webseite
Website
Wege
Wei
Weiter
Weitere
Weiß
Welcome
Well
Welt
Wenn
Werbung
Werk
Werkstatt
Werner
Werte
Wertung
West
Westfalen
Westminster
When
Whirlpool
Whisk
Widerstand
Widget
Wie
Wifi
Willkommen
Win
Wind
Windows
Windsor
Wir
Wire
Wirtschaft
Wizard
Wochenende
Wohnung
Wohnzimmer
Wolfgang
Wood
Wordpress
Work
Works
World
Württemberg
X
XA
XI
XIV
XP
XX
Xbox
Y
Yamaha
Yorkshire
You
Your
Youth
Z
ZB
ZEN
ZF
ZIP
ZR
ZW
Za
Zagreb
Zahlen
Ze
Zeichen
Zeit
Zeitschrift
Zen
Zentrum
Zertifikat
Zi
Zimmer
Zo
Zone
Zu
Zum
Zurück
Zw
Zwang
Zwar
Zürich
[
\
]
],
].
]:
_
`
a
ab
aba
abba
abei
abel
abend
aber
abh
abhängig
ability
ablag
able
ables
ablon
ably
abnehmen
abre
abri
abs
abschluss
absolute
absolvent
abteilung
abung
abwer
abyrint
ac
acco
accueil
ace
aceful
ach
ache
achen
aches
achim
achmittag
acht
achten
achter
achtung
ación
acker
acqua
across
acs
act
actually
ad
ada
adar
adas
addam
added
additional
ade
adeleine
ades
adet
adi
adin
adiz
admin
administrat
administrative
ado
ador
ados
adresse
adressen
ads
aemon
af
afghan
afia
afrika
afrikan
after
ag
aga
against
agan
age
agen
agenda
agens
agent
agentur
ager
ages
aggio
aggiore
aggressiv
agrar
agré
agten
agung
agus
ah
ahm
ahrscheinlich
ahrung
ai
aine
air
aire
aires
ais
aison
ak
akademie
ake
akis
akkredit
aks
akt
akte
akti
aktion
aktionen
aktiv
aktive
aktiver
aktivier
aktuell
aktuelle
akuten
al
ala
alacio
alamanca
alazzo
album
ale
alement
alen
ales
algorithm
algun
ali
aliban
aliforni
alisation
alitativ
alität
alkohol
all
allah
alle
allem
aller
alles
allgemein
allows
allta
ally
alma
alone
along
alp
alpen
alphabet
alpine
already
als
also
alt
alta
altan
alte
alten
alter
altern
alternative
alternativer
alterung
altet
alto
altung
alus
always
am
ama
ambik
ambition
ame
amen
amenities
ament
amente
amento
amerika
amerikane
amerikanische
ami
amin
aming
ammen
ammlung
ammon
amo
amos
amount
amour
amp
ams
amstag
an
ana
analyse
analysen
anba
anbieter
ance
anche
ancy
and
anda
ande
andels
anden
ander
anderen
anderer
anders
andi
andkreis
ando
andro
andung
ane
anfall
anfang
ang
ange
angebot
angebote
angeboten
angel
angelo
angels
angere
angst
anhänger
ani
ania
anja
ankam
anker
ankt
anlage
anlagen
anleitung
anmu
ann
anna
anne
annen
annon
annoy
annt
annte
annual
année
ano
another
ans
anschluss
anse
ansicht
anski
anspruch
anstalt
ant
anta
antas
antastisch
ante
anteil
anten
antes
anthrop
anti
antitativ
anto
antrag
antrieb
ants
antworte
antworten
anwalt
any
anything
anza
anze
anzeige
anzeigen
ap
apartments
apazität
apie
app
apparat
appartement
appen
applika
ar
ara
arab
aradigm
arak
arakteristik
arald
arbeit
arbeiten
arbeiter
arbeitet
arbeitung
arch
archa
archi
archie
architektur
archiv
arcours
arcraft
ard
arde
ardi
ardinal
ardo
are
area
areas
aren
arena
arest
argo
argument
ari
aria
arian
ariat
ariety
arikat
ario
arios
arium
ark
arktplatz
arlehen
arlsruhe
arm
arme
armee
armen
armes
arnas
arney
arote
arr
arrang
arre
arren
arrer
arrest
arrett
arrival
arsenal
arsi
arsteller
arstellung
art
arte
arten
artet
artig
artige
artikel
artikeln
artnerschaft
arum
ary
arzt
as
ase
asi
asiat
asily
asis
asked
aspar
assau
asse
assen
assend
assende
asser
assette
assi
assistent
asso
assume
ast
at
ata
atastroph
atastrophe
ate
ated
ateur
atgeber
ath
athaus
athedral
ati
atik
atili
ation
ational
ationen
ations
ativ
ative
atives
atlanti
atmosph
atmosphere
ato
ator
atori
atorial
atorium
ators
atra
atratze
ats
attent
attoli
attr
attractions
atur
atürlich
au
auber
auch
audiovisu
auer
auern
auf
aufbau
aufgaben
aufnahme
auftrag
aufzeit
aug
auhaus
ault
auna
aunt
aus
ausanne
ausbildung
ausch
auschen
ausend
ausgabe
ausschuss
ausstattung
ausstellung
austausch
auswahl
ausweis
aution
auto
automat
automaten
autor
autre
aux
auße
av
ava
avano
avaria
avec
avez
avi
awi
axe
aya
ayette
aypal
az
azione
azprom
aßnahme
aßnahmen
año
años
b
ba
bach
back
backen
bad
baden
bah
bahn
bahnhof
bak
bal
bald
balk
balkan
ball
ban
band
banden
bandes
bands
bank
banken
banker
bankrot
bar
barak
bard
bare
baren
barer
bares
barkeit
barometer
barrier
barriere
bart
bas
base
based
basic
basiert
basierte
basis
bat
baten
batterie
bau
bauen
bauer
baum
baut
bauten
bay
bb
bbel
bbing
bd
bdeckung
be
beam
bearbeitung
beauftragte
bec
because
beck
becken
become
bed
bedarf
bede
bedienung
bedingt
bedingungen
bee
beek
beer
beg
begeister
begeistert
beginn
begleite
begren
begriff
beh
behandlung
beharr
behind
behörde
bei
beide
bein
being
beispiel
beitrag
bek
bekannt
bekleidung
bekomme
bekommen
bel
belang
belarus
bele
beleuchtung
bell
bella
bellen
bello
beln
bels
belt
ben
benden
bender
bene
benen
bener
benutz
beobacht
ber
bera
berater
beratung
bere
berechn
berechtigt
bereich
bereiche
bereit
bereite
bereits
bereitung
berg
berge
bergen
berger
bergs
bericht
berichte
berichten
berlin
bern
bernachtung
berry
bert
beruf
beruh
bes
bescha
beschreib
beschreibung
beschränk
beschwer
beschäftig
besitz
besitzer
besonder
besser
best
bestand
bestanden
beste
besten
bestimm
bestimmung
beständig
bestätig
besuch
bet
beteilig
beton
betrag
betreu
betreuung
betri
betrieb
betrieben
bett
bette
betten
between
beu
beutel
bewahr
bewegung
bewerbe
bewertung
bewertungen
bewu
bewusst
bez
bezahl
bezeichn
beziehung
bezogen
bezogene
bf
bg
bgeordnete
bh
bhängigkeit
bi
bian
bibliothek
bido
bie
bieg
bien
bier
biet
biete
bieten
big
biger
bik
bike
bikes
bil
bilan
bilateral
bild
bilde
bilden
bilder
bildet
bildung
bildungen
bilis
bilität
billig
billige
bin
bind
binde
binden
binder
bindung
bio
biologie
biotik
bir
bird
bis
bishe
bit
bl
blade
blage
blas
blatt
blau
ble
blech
bleib
bleiben
blend
blende
bler
bles
bliche
blick
bligatori
blitz
block
blocks
blog
blumen
blut
blätter
blö
bner
bo
board
boards
bock
boda
boden
body
bogen
bohr
bol
bola
bold
bolla
bomb
bon
bonds
bonne
bonus
book
booking
books
boom
boot
bor
bora
bord
borg
borgen
born
borough
bos
bot
boten
bots
bound
bour
bourg
boutique
box
boy
br
bra
brach
bracht
branche
branchen
brand
brandt
brann
brau
brauch
brauche
brauchs
braucht
braun
bre
brechen
brecher
brechnung
brede
breit
breite
brems
bremse
brenn
brett
bridge
brief
brig
brillant
bring
bringe
bringen
bringer
bris
britannien
bro
broche
brot
browser
bruch
bruck
brud
brunn
brunnen
brä
brö
brü
brück
brücke
brücken
bschnitt
bsolvent
bsorption
bst
bstand
bsurd
bu
buch
buchen
budget
buffet
build
built
bul
bund
bunden
bundes
bung
bungen
bur
burg
burger
burn
burt
bury
bus
business
bussen
buster
busy
but
buy
bw
bwe
bwehr
by
byen
byl
byte
bäck
bänder
bär
bö
börse
bücher
bür
bürger
büro
bürste
büt
c
ca
cache
cades
cadre
café
cal
calan
called
calme
cam
camp
can
car
card
cards
care
cars
cart
cas
case
cast
cat
cc
cca
ce
cel
celt
cen
center
ception
cer
certain
ces
cette
ch
cha
chach
chal
challenges
chan
chance
chang
char
chara
charme
chart
chas
chasi
chat
chatz
chaut
che
check
chef
chefs
cheinwerfer
chel
cheln
chem
chemie
chen
chenken
chenko
cher
chern
chers
ches
chester
chhaltig
chi
chicht
chicken
chieds
chief
chien
chienen
chiff
child
chilen
chiller
chimmel
chin
china
chines
ching
chip
chirurgie
chische
chlafzimmer
chlauch
chlepp
chleswig
chlich
chliche
chliess
chlor
chmal
chmaschine
chmitt
chmutz
chner
cho
chock
chor
chos
chow
chrank
chreibtisch
christ
chrome
chronologi
chsen
chsten
chtbar
chte
chten
chter
chtern
chtet
chtigkeit
chtung
chu
chung
chwach
chwanger
chwell
chwerpunkt
chwester
chwierig
chwierigkeit
chwil
chwä
chwäche
chy
chäden
chüler
ci
cia
ciano
cier
cil
cio
cion
ciones
city
ción
ck
cke
ckel
cken
cker
ckert
ckig
ckner
cks
ckt
ckte
clav
cle
clear
clips
closed
club
clubs
cm
co
cock
cod
code
coder
codes
coeur
col
cole
colm
cological
com
coming
commerce
comoda
computer
con
conditioning
conf
config
confortable
container
contemporary
content
continental
control
controlled
controller
copter
cor
corder
core
cos
cosy
couch
could
couleur
cp
created
creme
crobat
cross
cu
cual
cuando
cup
curi
cus
cuzzi
cy
cz
czyński
d
da
dach
dacht
dachte
dad
dafi
dal
dale
dalen
dam
damer
damm
dan
danke
danken
dar
daran
darf
das
dass
dat
data
date
daten
dates
datum
dauer
day
dazu
db
ddington
de
deau
debatt
debatten
deck
decke
decken
deckung
default
defini
definition
dekorativ
del
delik
della
delle
deln
dels
delt
dem
demokrat
demonstration
demont
den
dende
denk
denke
denken
dens
depende
der
deral
dere
derlande
derma
ders
des
desde
design
designed
designer
desk
desse
desso
dest
det
details
dete
deutsch
deutsche
deutschland
deux
dev
df
di
dia
diagnose
diagram
dialog
dian
dicate
dicht
dichte
dick
dictionary
didakt
die
dien
dienen
diens
dienst
dienste
diensten
dient
diente
dies
diesel
diff
differenzi
dig
dige
digen
diger
digitale
digt
dijk
dik
diktatur
dimension
dimensional
diment
din
dine
ding
dingen
dining
dinner
dioxid
diploma
dir
dire
direkt
direkte
direktor
dirty
dis
disch
dische
disk
diskussion
display
disposition
dit
diteur
ditionen
div
divers
diverse
diz
dling
dll
do
doc
doch
dock
does
doktrin
dokument
dokumentation
dol
dolf
doll
dom
domain
don
donde
dones
dont
door
doppel
doption
dor
dores
dorf
dort
dos
dose
dosis
dot
dotti
down
download
downtown
dra
drah
drain
dreh
drei
dreif
drenalin
drig
dring
dringen
dritt
drogen
droh
droit
dron
dros
druck
dry
drück
drücken
dste
du
dua
duft
duktion
dul
dum
dung
dunkel
dur
durch
duren
during
dus
dusch
duziert
dwe
dy
dyn
dynami
dynamik
dzi
dä
dän
dé
dün
dürf
düs
e
each
eagle
early
eau
eb
ebe
ebel
eben
ebens
ebets
ebi
eblich
ebne
ebt
ebung
ebühr
ebühren
ecchi
ecchio
ecco
ech
echanism
eche
echisch
echos
echt
echte
echten
echter
eck
ecke
ecken
ecker
ecki
eckt
ed
edaille
edarf
ede
edel
eden
edenk
eder
edge
edienung
edingungen
edition
editions
editor
edu
edusa
eeds
eeland
ef
efahr
efe
efere
eferendum
efestig
eff
effekt
effekten
effektiv
effer
efficient
effizien
eft
efühl
eg
ega
egaard
egapixel
ege
egel
egemon
egen
eger
eggen
eggio
egisseur
egli
egna
egner
egnet
ego
egriff
egut
eheimnis
ehens
eher
ehl
ehn
ehr
ehrt
ehrung
eht
ehälter
ehörden
eich
eichnung
eidet
eien
eifen
eigene
eign
eignet
eile
eilen
eilige
eiligen
eilnahme
ein
einander
einbau
einde
einem
einen
einer
eines
einfach
eingang
einheit
einheiten
einig
einige
einiger
eink
einkommen
einrichtung
einrichtungen
eins
einsatz
einstellung
eintr
einwand
einzel
eira
eiro
eisen
eiser
eist
eisure
eit
either
eizen
eiß
eiße
eißen
ej
ejo
ek
eka
ekannt
eken
ekka
ekten
ektion
ektiv
ekuti
el
ela
elche
elder
ele
elefonnummer
elegante
elegenheit
elektrisch
elektron
elektronik
element
elementen
elen
eler
elfast
elfen
elfer
elho
elief
elige
elingen
elipe
ell
ella
elle
ellen
ellente
eller
elles
elli
ellige
ellini
ellis
ello
ellos
ellow
elmann
elo
els
elsen
elt
elte
elten
elva
ely
em
emand
embarg
embe
ember
embry
ement
ements
emikalie
emissions
emorandum
emos
emotional
emp
empfehlen
empfindlich
en
enachrichtigung
enario
enbach
enberg
enberger
enburg
ence
end
ende
enden
ender
endes
endet
endite
endlich
endo
endorf
endre
endung
ene
enehmigung
enei
energie
enes
enfeld
eng
enge
engem
enger
englisch
enheim
enheit
enhof
enia
enial
enice
enie
enig
enige
enkel
enkirchen
enkla
enkmal
enko
enkt
enkung
enland
enne
ennen
ennenlern
enntnis
enntnisse
enorm
enough
ens
enschaft
ense
ensemble
enses
ension
ensionen
enstein
enswert
ent
ente
entera
entes
entfern
enthal
enthalt
entier
entimeter
entin
entium
entre
entri
ents
entscheide
entscheidung
entspr
enttä
entwickel
entwicklung
entzündung
enwald
enza
enze
enzi
enziale
enä
epa
eppelin
eppich
epsi
equenz
equip
equipped
er
era
erade
erantwortung
eras
erat
erba
erbare
erbe
erbesserung
erbit
erd
erde
erden
ere
erechnung
erechtigung
erede
eredet
erei
ereinbarung
ereits
ereitschaft
eremo
eren
erend
erende
erer
eres
erfahren
erfahrung
erfahrungen
erfass
erfolg
erforder
erfreu
erfügung
ergangen
ergebnis
ergebnisse
ergib
ergän
erhaft
erhalten
erhard
erhof
erhält
erhöh
eri
erial
erie
erienhaus
erige
erin
erinnen
erinner
eripher
erische
erischen
erja
erkenn
erkennung
erklär
erklärung
erkmale
erksam
erkäufer
erland
erlang
erleben
erlebnis
erlei
erler
erletzung
erlusconi
erlä
erlängerung
ermann
ermietung
ermittel
erna
erne
erneu
ernhard
ernis
erno
ernst
ernstein
ero
eros
erpflichtung
errand
errege
erreira
error
errschaft
ers
ersailles
ersatz
erschein
erschieden
erschw
erse
erset
erson
erst
erstatt
erstattung
erste
erstellen
erstellung
ersten
erster
erständnis
ersönlich
ert
erte
ertifikat
ertrauen
ertrauens
ertreter
erugia
erusalem
erwart
erweise
erweiter
erwendung
erwer
erwor
erwä
erzeichnis
erzeug
erä
eränderung
eräusch
eröff
es
esch
eschirr
eschleunig
eschluss
eschrieben
eschwerde
esco
escu
ese
esen
esichts
esie
esitzer
esmal
espace
especially
esse
essel
essen
esser
essere
esses
essimis
essin
essione
essive
est
esta
este
esten
estens
ester
estern
esti
estimmungen
estä
estätigung
et
eta
etan
etano
etc
ete
eteiligung
eten
eter
etes
eth
ethanol
etik
etikett
eto
etreiber
etroffen
ets
etscher
ett
etta
ette
ettel
etten
etter
etti
etto
etwa
etz
etzte
euch
eugen
eugung
eur
eure
euren
europa
eurs
eus
euse
euses
eutel
eutet
eutung
eux
euze
ev
eva
evelt
even
evening
event
events
ever
eves
evi
evt
evölkerung
ew
ewalt
ewe
ewebe
ewer
ewertet
ewinde
ewu
ewusstsein
ewässer
ex
exclusive
exe
exemplar
exist
expansion
expected
expensive
expert
experten
explod
explosion
exponen
export
exposition
ext
extravagan
extreme
eye
ez
ezi
ezirk
ezza
ezzo
f
fa
fabrik
facet
fach
fache
fact
fad
fada
fade
faden
fah
fahr
fahren
fahrer
fahrt
fahrten
fahrzeug
fahrzeuge
fair
faire
fakt
faktor
faktoren
fal
fall
fallen
falls
false
falt
falz
familie
familien
famous
fan
fand
fang
fangen
fangs
fans
far
farbe
farben
farbig
farm
farr
faser
fass
fasse
fassung
fast
fax
fazi
fe
feat
feder
fee
fehl
fehlen
fehler
feier
feil
feind
feira
fekt
fekte
fel
feld
felder
feldt
fell
fels
felt
fen
fence
fensive
fenster
fer
ferenze
ferien
fern
fers
fert
fertig
fertigung
fest
feste
festen
fester
festival
fet
fett
fette
feucht
feuer
few
ff
ffe
ffel
ffen
ffensive
ffentlich
ffizi
ffizienz
ffler
ffnung
ffnungszeiten
ffshore
fft
fi
fiant
fick
fiel
field
fig
figur
figuren
fil
file
files
film
filme
filmen
filter
fin
finale
finanz
finanzierung
find
finden
finder
findung
finger
finitely
finition
firma
firme
fisch
fish
fit
fix
fizi
fl
fla
flagg
flamm
flasche
fle
fleck
fleisch
flex
flexibilit
flexible
flexion
fliegen
flies
flik
flog
flot
flow
flu
flug
fluss
flut
fly
fläche
flächen
flö
flüge
flügel
flüssig
fo
fokus
folg
folge
folgen
folie
folio
follow
following
folt
fon
fonds
food
for
force
ford
forder
forderung
forderungen
foreign
form
formal
format
formation
formel
formen
former
formular
formulier
fors
forschung
fort
forum
forums
fossil
fot
foto
fotograf
fotografie
fotos
fr
fra
frag
frage
fragen
fragil
fragment
fragt
franca
frank
frau
frauen
fre
fred
free
frei
freie
freien
freiheit
frem
frequenz
freud
freude
freund
freunde
freundlich
freundliche
fried
frig
frisch
frist
friste
front
frucht
frä
früh
fst
ft
fte
ften
fter
ftet
ftig
ftige
fu
fug
fuge
fuhr
ful
fully
fun
fund
funde
funden
fung
funk
funktion
funktionen
fur
furb
furt
fusion
fuss
futter
fuß
fÃ
fähig
fähige
fähigkeit
fähr
fäl
fälle
fällen
fällig
fällt
fält
fäng
fär
för
förder
förderung
fü
füg
fühl
fühle
führen
führer
führt
führung
füll
füllung
für
g
ga
gabe
gaben
gabung
gal
galerie
gallo
galt
game
games
gan
ganda
gang
gangen
gangs
gann
ganz
gar
garage
garanti
garantie
gard
garde
garten
garve
gas
gasse
gast
gate
gatt
gatta
gau
ge
geb
geben
geber
gebiet
gebiete
gebirg
geboren
geboten
gebracht
gebraucht
gebuch
gebunden
gebung
gebäude
gebühr
gebühren
ged
gedacht
geeignet
gefahr
gefahren
gefallen
gefunden
gefä
gefähr
gefü
gefühl
geführt
gegangen
gegeben
gegen
gegn
gegner
geh
gehalt
gehalte
geheim
gehen
gehend
gehol
geht
gehör
gehörig
geil
geist
gekommen
gel
gelade
gelang
gelassen
gelb
geld
gele
gelegen
gelegt
gelenk
geler
geln
gelt
gelungen
gelände
gem
gemacht
gemein
gemeinde
gemeins
gemeinschaft
gemis
gen
gena
genan
genau
gend
gende
gender
gene
genehm
gener
generation
generativ
generator
genes
geno
genommen
gens
genstand
gent
gento
genus
genze
geordnet
georgi
ger
gera
gere
gerecht
gerechten
gereg
gericht
gerichte
gerichtet
gerichts
gering
geringe
gern
gerne
gers
gerät
geräte
ges
gesamt
gesch
geschenk
geschichte
geschlagen
geschlossen
geschmack
geschnitten
gescho
geschoss
geschrieben
geschwindigkeit
geschäft
gesehen
gesellschaft
gesetz
gesetzes
gesetzt
gesi
gesicht
gesin
gespräch
gessen
gestalte
gestaltung
gestellt
gesteuert
gestor
gesund
get
getragen
getriebe
getting
gewalt
gewer
gewerk
gewicht
gewinn
gewo
gewor
gewöhn
gewöhnlich
gezogen
gezw
gg
ggage
gge
gger
ggf
gging
ggression
gh
gher
ghi
gi
gib
gie
gier
gift
gig
gige
gilt
gin
ging
gingen
gio
gir
gis
gislativ
gitter
given
gl
glas
glat
glaub
gle
gleich
gleiche
gleichen
gleicher
glement
gler
gli
glichen
glieder
gling
glio
glione
global
glä
glück
gnade
gner
gnet
gni
gno
go
going
gol
gold
golf
gon
gor
gos
got
gott
gouvernement
gr
gra
grab
graben
grad
grade
graden
grafen
grafik
grafisch
gram
gramm
grammat
gramme
grande
graph
graphie
grau
gre
grega
gregation
greif
greifen
gren
grenz
grenze
grenzen
gress
gression
gressiv
gri
grid
griff
griffe
griffen
grill
gripp
griturismo
grosse
group
growing
groß
grub
grund
grunde
grundlag
gruppe
gruppen
grä
größ
größe
grün
gründ
gründe
gründer
gründung
gst
gt
gte
gter
gu
guard
gue
guer
guess
guide
guin
guine
gummi
gun
gung
guns
gur
gus
gut
gute
gutes
gutschein
gué
gy
gypte
gypti
gä
gäng
gänge
gänger
gär
gäst
göt
gü
gül
günstig
günstige
gür
h
ha
haar
hab
habe
haben
haber
habi
habitació
hack
had
hael
hafen
haft
hafte
haften
hagen
hai
hain
haken
hal
halb
half
hall
halle
hallen
hals
halt
halte
halten
halter
haltige
haltung
ham
hammer
han
hand
handel
handeln
handels
handelt
handen
handler
handlung
handlungen
handwerk
handy
hang
hanol
hansa
har
hara
hard
hardt
harisma
harmon
harmonie
harra
hart
has
hassis
hat
hatte
hatten
haub
hauer
haupt
haus
hause
hausen
haushalt
haut
haven
having
hbar
he
head
heater
heb
hebel
heber
heen
heer
heft
hei
heid
heikh
heil
heilig
heim
heimer
hein
heira
heiss
heit
heiten
heiz
heizung
hel
held
helf
hell
heller
helo
hem
hemat
hemen
hemm
hen
hende
henden
hender
henti
her
heran
herbe
herberg
herein
hermometer
herr
herren
herrsch
hersteller
herz
hesi
het
hetik
hetto
heuer
heure
heut
hezu
hi
hiel
hier
hilf
hilfe
hill
him
hin
hina
hinde
hinder
hindert
hine
hinter
hinweise
hir
hirn
historical
historisch
historische
hit
hitz
hl
hle
hlen
hler
hlt
hmer
hne
hnen
hner
hnliche
hnt
hnte
hnung
ho
hob
hoben
hoch
hochschul
hof
hofen
hofer
hoff
hohe
hol
hold
hole
holen
holm
holt
holung
holz
home
hor
horizon
horn
hors
horst
hose
host
hotel
hotels
house
how
however
hr
hra
hre
hreb
hrem
hren
hrend
hrer
hrheit
hrlich
hrs
hrt
hrung
ht
hte
hti
html
http
hu
hub
huge
human
hund
hunderbird
hundert
hung
hunger
hus
hut
huttle
hy
hydrat
hygiene
hythm
hä
häl
hält
hän
händler
häng
hänge
hängen
här
häuser
hôn
hôtel
höf
höhe
höl
hön
hör
hörde
hören
hörig
hülle
hüt
hütte
i
ia
iab
iagonal
ial
iale
ian
ias
iaspora
ib
iba
ibe
ibel
ible
ibus
ic
ica
ical
ice
ich
iche
icht
ichtig
ichtige
ichtigen
ichtung
ici
icien
ick
ico
icon
ics
id
ida
idad
idades
idan
ide
ideale
ideen
iden
ident
ides
idet
idhi
idig
idium
idla
ido
idos
ids
idung
idyl
ie
ieb
ieber
iebhaber
ieder
iedlung
ief
iefer
ieferanten
iegel
iegend
iehen
ieht
iel
ielle
iendo
iens
ient
ier
ierbar
iere
ieren
ierend
ierende
ierenden
ieri
ierig
iers
iert
ierte
iertel
ierten
ierter
iertes
ierung
ierungen
ierungs
ies
iese
ietet
iets
ieu
ieurs
ieux
ieß
ießen
if
ife
iff
iffel
iffer
ified
ifika
ifikation
ifiziert
ifizierung
ig
igarette
igaretten
ige
igen
igenschaften
igentum
iger
iges
igh
ightseeing
igi
igkeit
igkeiten
ignan
ignano
ignen
igner
igo
igste
igsten
igt
igte
igten
igu
igung
ih
ihen
ihn
ihr
ihre
ij
ijs
ik
ika
ikal
ikan
ikat
ike
iken
iko
iks
il
ila
ilateral
ile
ilen
iler
ilfreich
ili
ilig
ilitär
ill
illa
illard
illary
illas
ille
illegal
iller
illi
illiard
illion
illo
illon
illus
illusion
illy
ils
ilte
im
ima
image
images
imate
ime
imi
imin
imini
imit
imler
imme
immediate
immel
immer
immig
immobilien
immt
imos
imousine
imp
impel
imper
implant
implement
import
importe
impuls
imulator
in
ina
includes
including
inclusive
ind
inde
inden
inder
inderung
indest
index
indi
indig
indigen
individuell
indkraft
indring
industrie
industriell
industrien
ine
inen
inense
inensis
iner
ineri
ines
infach
infektion
inflation
influ
influss
info
informatik
information
informationen
informations
infrastruktur
ing
ingabe
ingen
ingenieur
inger
ingesch
ingham
ings
ington
ingung
ingut
inha
inhalt
inhalte
inho
ini
inibus
init
initiative
ink
inkl
inladung
inn
innen
inner
innig
innovation
innovativ
innovative
ino
inos
inque
ins
insel
insi
inski
inson
inspektion
installation
installier
instieg
institut
institute
institution
institutional
instrument
instrumente
instrumenten
instruments
insätze
int
integr
integration
intel
inten
intens
intensit
intensive
inter
interaktiv
interesse
interessen
interessier
interessiert
interface
international
internet
interpretation
intervall
intervention
interviews
intritt
intuitiv
investiti
investor
inzelhandel
inzer
iologische
ion
ione
ionier
ionist
ions
ios
iosen
ip
ipe
ipfel
ipolar
ique
ir
ira
iraki
iran
irbag
irdi
ire
ires
irewall
irg
irge
irgend
irken
irker
irklich
irkt
irkul
irkung
irkus
irland
irmware
irobi
irola
irways
is
isa
isano
isation
isations
isburg
isch
ische
ischem
ischen
ischer
isches
ischof
ischt
ischung
ise
isen
iser
ish
isha
ished
ishing
ishment
isi
isieren
isiert
isierte
isierten
isierung
isk
isko
iskrimin
islam
ism
ismen
ismo
ismus
iso
isolation
ison
israel
issa
issant
isse
issen
isser
isses
isso
issy
ist
ista
istan
iste
isten
ister
istes
isti
istic
istik
istika
istin
istisch
istische
istischen
istri
isées
it
ita
italien
itan
itar
itas
itat
itate
itation
itative
ite
itektur
itel
item
itens
iter
itet
iteten
itges
ith
ithin
iti
itian
ities
itis
ito
itos
itrate
itronen
its
itsch
itt
itteilung
ittel
ittelalter
itten
itter
ittà
itual
ity
itz
itzen
itzer
itzung
ità
itä
ität
itäten
itäts
ité
ium
ius
iv
iva
ivat
ive
iver
ives
ivil
ivoli
ix
ixen
ixon
iz
iza
ization
ize
ized
izer
izi
izieren
izza
izzeria
ière
iù
ić
j
ja
jacke
jag
jah
jahr
jahre
jahres
jak
jan
jana
jani
jar
jas
je
jek
jen
jener
jer
jerr
jet
jeune
jevo
ji
jiang
jo
jobs
jon
jord
jordan
jos
jpg
js
ju
juego
jugend
jung
junge
junk
junta
just
jähr
jährige
jährigen
jü
jün
k
kHz
ka
kabel
kabine
kade
kal
kale
kalender
kali
kalkul
kalte
kalyp
kam
kamen
kamera
kammer
kampagne
kampf
kan
kanal
kandidat
kandidaten
kannt
kannte
kant
kanten
kanter
kapelle
kapit
kapital
kapitalism
kapsel
kaput
kar
karibi
karri
kart
karte
karten
kas
kasse
kassen
kasten
kat
katalog
kategori
kategorien
kauf
kaufen
kauft
kauka
kaum
kbar
kde
ke
keeper
kehr
kein
keine
keit
kel
keller
kem
ken
kende
kender
kennen
kennt
kenntnisse
kennzeich
kept
ker
kere
kern
kernel
kers
kes
ket
keten
kette
ketten
key
kg
ki
kien
killing
kilometer
kin
kina
kinawa
kind
kinder
king
kino
kirch
kirche
kirchen
kis
kissen
kistan
kit
kl
kla
klag
klage
klam
klang
klapp
klappen
klar
klare
klass
klasse
klassen
klassi
klat
klaus
klav
kle
kleber
kleid
kleidung
klein
kleine
kleiner
klemme
kler
klick
klima
klimat
kling
klingen
klinik
klon
klop
kloster
klub
klusiv
klusive
klär
klärung
km
knall
knapp
knappen
knot
known
ko
koch
kocht
kod
kode
koh
kol
koll
kollege
koloni
kom
kombination
komfort
komitee
kommand
kommando
komme
kommen
kommende
kommer
kommission
kommt
kommun
kommunikation
komp
kompetenz
kompil
komplett
komplex
kompli
komponente
kon
kondition
kone
konen
konferenz
konfigur
konflikt
konform
kong
konjunktur
konomi
konservativ
konsisten
konsol
konstruktion
konstruktiv
konsum
kontakt
kontakte
kontinen
kontingent
konto
kontroll
kontrollen
konvention
konzentr
konzept
konzern
konzert
koord
kop
kopf
kopi
kopier
koppel
koppl
kor
korb
kord
korea
korean
korn
korps
korrek
kos
kose
kosmo
kost
kosten
kostenlos
kot
kott
kou
kov
kow
kowi
kowski
kozy
kr
kra
kraft
kran
krank
kranken
krankheit
krat
krati
kraut
kre
krebs
kredit
kreis
kret
kreuz
krieg
kriminal
kript
krise
krisen
kristall
kriterien
kritik
kritisch
kron
krut
krä
kräft
kräfte
krö
ks
ksal
ksamen
kt
ktar
kte
kten
kter
ktionen
ktis
ktivität
ktor
ktu
ku
kuchen
kugel
kul
kular
kulinar
kulptur
kult
kultur
kulturell
kulturelle
kulturen
kum
kund
kunde
kunden
kundig
kundige
kundu
kunft
kung
kungen
kunst
kup
kur
kurs
kurse
kursen
kurve
kurz
kus
kw
ky
kÃ
kä
kämpf
käs
käufe
könig
köp
kör
körper
kös
kü
küche
kühl
kül
kün
kündig
künst
künstler
kür
l
la
lab
label
labor
lach
lacht
lack
lad
lade
laden
lader
ladi
lag
laga
lage
lagen
lager
lagerung
lagt
lagte
lah
lain
lak
lakat
laken
lam
lama
lampe
lampen
lan
lana
land
lande
landen
lander
landes
landet
lands
landschaft
lang
lange
langen
langer
languages
lank
lanke
lanz
laps
lar
las
lash
lass
lasse
lassen
lassung
last
laste
lasten
laster
lastung
lat
latan
lateau
lateral
latest
latine
lation
latte
lau
laub
lauben
lauf
laufen
laus
laut
law
lay
layout
laça
lb
lberg
lbrecht
ldende
lder
ldtimer
le
leading
learn
leasant
least
leave
leb
leben
lebt
lech
lecht
leck
lect
led
leder
ledig
leg
legal
legale
legation
lege
legen
legend
legende
leger
legi
legitim
legre
legt
legte
legung
leh
lehn
lehre
lehrer
lei
leicht
leichte
leid
leiden
leider
leier
lein
leiste
leisten
leistung
leistungen
leit
leite
leiten
leiter
leitung
lekt
lektion
lektiv
lem
lema
lemma
len
lender
lendi
lenium
lenk
lenty
lenz
ler
lere
leren
leri
lerin
lernen
lers
les
lesen
less
let
lets
lett
letter
letto
letzt
leuchte
leuchten
leur
leute
level
lever
ley
lez
lf
li
lia
lian
lib
liberal
liberale
liberalism
libri
lice
lich
liche
lichem
lichen
licher
liches
lichkeit
lichkeiten
licht
lichte
lichten
lichter
lick
lie
lieb
liebe
lieben
liebt
liebte
lied
lieder
lief
liefer
lieferung
liege
liegen
liegende
lieger
liegt
lieh
lier
liert
lierte
lies
liesen
liest
lieu
ließ
ließen
life
liff
lift
lig
liga
ligar
lige
ligen
light
ligt
lik
lika
like
lim
limit
limited
limmer
lin
lina
linder
line
linear
linen
liner
lines
liness
ling
linge
lingen
linger
lingon
lings
linie
linien
link
linken
linker
links
linna
lins
linux
lion
liquid
lis
lisse
list
liste
listen
listet
lit
lite
literatur
litt
litz
litzer
live
liz
lizi
lizzard
lja
lkommen
ll
lla
lle
llen
llende
ller
lles
llianz
llt
llusion
lly
lmost
lo
load
loader
located
location
loch
lock
locken
locker
log
logan
loge
logen
logg
loggen
logie
logik
logisch
logo
logramm
logs
loh
lohn
lok
lokal
lokale
lokaler
lom
lon
long
loo
looking
lope
lopp
lor
lord
lore
lors
los
lose
losen
losigkeit
loss
lossen
lot
lots
lott
lotte
lounge
lov
loved
lovely
low
loyal
lrich
lt
ltern
lthough
ltitude
lu
lucht
luck
luft
lug
lum
lund
lung
lungs
lur
lus
lush
lusion
lust
luste
lustig
lux
luxury
lv
lvarez
ly
lyn
lynn
lyse
lysé
lä
läd
läge
lägen
läger
läm
länd
länder
ländern
ländische
läne
läng
länge
länger
lär
läser
läss
lässig
läst
lätt
lätter
lätze
läu
läuf
läufer
lé
lö
lös
lösen
löst
lösung
lösungen
löt
lü
lüge
lügel
lüssigkeit
lüt
lüten
m
ma
mach
machen
macher
macht
mack
mad
mag
magazin
magnet
mago
mah
maha
mail
main
mak
make
maker
makes
making
mal
malen
malie
malig
mals
malt
malte
man
mana
management
manager
manches
mand
mandat
mande
manden
mando
mangel
mani
mania
manipul
manipulation
mann
manns
mannschaft
mans
mantel
manuell
map
mar
mara
maran
marc
marge
maritim
mark
marke
marken
market
marketing
markt
marok
marsch
mas
maschine
maschinen
mask
mass
massage
masse
massen
massiv
master
mat
material
materiell
mati
matic
matik
mato
matrix
matt
matten
mauer
max
maximal
maximum
maß
maßnahmen
mb
mbedded
mber
me
means
mechanik
med
media
medien
mediterrane
medium
medizin
medizinisch
meer
mehl
mehr
meid
meier
meile
mein
meine
meister
meisterschaft
mel
mela
melde
melden
meldung
meldungen
mell
meln
melt
men
mend
mende
mene
menge
mens
mensch
menschen
ment
mente
ments
menu
menü
mer
mere
meren
meria
merk
merken
merkt
mes
messe
messen
messer
messung
met
meta
metall
mete
meter
meters
methode
methoden
metres
metri
metropol
metter
mi
mick
mid
mie
mien
mier
miete
mig
mige
might
migrante
migration
mik
mikro
mil
milch
mild
mile
militant
militar
military
million
min
mination
minder
mine
minen
ming
mini
minister
ministeri
ministerin
ministerium
minute
mir
mis
misch
mischen
miss
missa
misse
mission
missions
mit
miten
mitglied
mitglieder
mitt
mittag
mitte
mittel
mitteln
mittels
mitten
mittent
mittler
mium
mix
mière
ml
mler
mlich
mm
mme
mmeln
mmen
mmende
mmense
mmer
mmern
mmert
mmigration
mmissa
mmung
mne
mo
mobil
mobile
mod
modal
mode
modell
modelle
modellen
modern
modi
modified
modul
modular
module
modus
mogen
mol
molto
moment
mon
mona
monat
mond
monda
monen
moni
monie
monitor
monopol
mont
montage
monumental
moon
moor
mor
moral
mord
more
morgen
morph
mos
motiv
motor
motoren
mouth
mp
mpel
mpfang
mpfehlenswert
mpfehlungen
mpfen
mpfänger
mphe
mts
mu
mugg
muito
mulier
multi
mun
mund
muni
munt
mur
mus
museum
museums
musik
musikal
musiker
muster
mut
muti
mutter
my
mysql
mysteri
myth
mÃ
mä
mäh
mäl
män
männ
märkte
mäss
mässig
mäß
mäßig
mäßige
mètre
même
mö
möbel
mögen
möglich
möglichkeit
möglichkeiten
mör
mü
mühle
mün
münd
müt
n
na
nab
nach
nachrichten
nacht
nachten
nachts
nachweis
nack
nade
nagog
nah
nahe
nahm
nahme
nahmen
nak
nal
nale
nam
name
namen
nan
nant
nar
nard
nari
narsa
nas
nate
nation
national
nationale
nationalist
native
natur
nau
nauer
nauf
navigation
nbsp
nche
nd
ndab
nde
nden
nder
nderen
ndersson
nderung
nderungen
ndez
ndi
ndikator
ndo
ne
nearby
necht
neck
needs
negative
nehm
nehme
nehmen
nehmer
nei
neid
neiden
nek
nel
nell
nella
nelle
nels
nem
nemark
nen
nende
nens
nent
ner
nergie
ners
nes
nesi
nesian
ness
nesse
nesti
nesty
net
nete
nette
netter
nettes
netz
netzwerk
neue
neuer
neutral
new
news
ney
nez
nfalls
nfang
nfe
nfl
nforderungen
nfänger
ng
ngabe
ngaben
ngel
nglich
ngsaktiv
ngspunkt
ngste
ngsten
ngu
ngwei
nh
nhalt
nhau
ni
nia
nian
nibus
nica
nice
nicht
nick
nie
nien
nig
nigen
niger
nigeria
nights
nik
nimm
nin
ning
nis
nisch
nisse
nissen
nitz
niveau
njeni
nkauf
nke
nmeldung
nna
nne
nnen
nner
nnig
nnige
nnovative
nnten
no
nobel
nobl
noble
noch
noche
nock
node
noise
nom
nome
nomen
nommen
non
none
nopf
nor
nord
norm
normal
normen
norte
nos
nost
nosti
not
note
nothing
nou
nov
nova
nové
now
ność
npassung
nsicht
nsinn
nso
nsolven
nspektor
nsprech
nspruch
nstige
nt
ntau
ntbijt
ntdeck
nte
nten
nter
nteressant
nteressante
ntergrund
nterlagen
nterschied
ntes
ntfernung
nthropolog
nthusias
nthusiast
ntsorgung
ntspann
ntzündung
nu
nuestr
nuit
null
num
nummer
nun
nung
nur
nus
nut
nutz
nutzung
nwalt
ny
nya
nym
nyone
nzahl
nze
nzend
nzu
nä
näht
näm
né
ní
nö
nöt
nü
nün
o
oalition
oase
oaster
ob
obby
oben
ober
obere
oberfläche
obern
objekt
obt
obten
obust
och
ocht
ochten
ochter
ochum
ock
ockdown
ocks
ocê
od
oder
odium
odka
odore
of
ofen
off
offene
offensive
offering
offers
offline
offre
offset
og
ogen
ogene
oggi
oggia
oghurt
ogne
ognitive
ografie
ographie
ographische
ohen
ohle
ohlen
ohlfühl
ohn
ohne
oins
oise
oj
ok
okay
oko
okrat
ol
ola
olan
old
older
ole
olen
oles
oleum
olgende
oli
olin
olini
olino
ollaboration
ollah
ollen
ollision
ollte
olo
olog
ologen
ologie
ologische
ologischen
ology
olski
om
omagna
omen
ometer
ometri
omfortabel
omiti
ommage
ommissari
ommonwealth
ommunist
omosexual
ompatibel
ompensation
ompliment
omponist
ompression
ompressor
ompromiss
on
ona
onale
onan
onarch
once
onde
onder
ondern
ondissement
ondo
one
onen
ones
onfession
ong
oni
onium
onkret
online
onne
onnell
onnen
onnier
ono
onrad
ons
onsensus
onsequent
onservative
onstellation
ont
ontinent
ontingent
ontrovers
onym
oodle
oordination
oordinator
op
opathi
opathie
open
openhagen
oper
opera
operation
operative
ophil
opie
opinions
opoulos
opposition
opt
optimier
option
optional
optionen
options
opä
or
ora
orama
orange
oraussetzung
oraussetzungen
orben
orbert
orca
orchester
orden
order
ordet
ordne
ordnet
ordnung
ore
oren
ores
org
organ
organis
organisation
organisationen
organisme
ori
orie
orientier
orientierte
origen
oritz
orium
orkflow
ormes
ormon
orrektur
orrelation
orridor
orrosion
orruption
ors
orschläge
orschriften
orsorge
orstellung
ort
orteil
orten
orthodox
orträt
orts
ortschritt
ortunately
orum
os
osa
ose
osin
osman
oso
ossier
ost
osta
ostasi
osten
ostüm
osur
ot
ote
otential
othek
otische
oto
otre
otschaft
otspot
ott
otte
otten
ottesdienst
otti
otto
ou
oucher
ouchscreen
ough
ould
oulou
oundtrack
ous
out
outer
outs
ouvenir
ouvre
ouvrir
ov
ova
oval
over
overnance
ovnik
ovo
ow
owa
owe
owerful
owie
owitz
owski
ox
oxid
oxide
oxin
oyer
oz
ozi
oût
p
pa
paar
pack
pad
page
paket
pakt
pal
palas
palette
palo
pan
panel
panisch
papier
par
para
paradi
parameter
parate
park
parken
parks
parlament
parlamentar
part
parte
partei
partement
parti
parties
partikel
partition
partner
partners
party
pas
pass
passen
passt
pat
patent
patente
path
pathi
pati
patienten
patron
pause
pay
paz
pazier
pc
pdf
pe
ped
pegel
pei
pektrum
pel
pello
peln
pels
pen
pende
pendium
pens
pension
per
perate
peri
periode
perioden
permanente
pers
person
personal
personen
personnes
perspektiv
pert
perto
pes
pest
petit
peut
pez
pf
pfel
pfen
pfer
pferd
pflanz
pflanzen
pfleg
pflege
pflicht
pfung
pg
ph
pha
phan
pharma
phase
phe
pher
phi
phil
phili
philosophie
phob
phol
phon
phone
phori
phos
php
phrase
phre
phyl
physi
physiolog
pi
pick
pige
pil
pilot
pin
ping
pipeline
pirate
pit
pital
pix
pl
pla
places
plage
plan
planen
planer
planes
planet
plant
plante
planten
planung
plast
platte
platten
plattform
plattformen
platz
play
player
plein
plex
plin
plitter
plung
plus
pläne
plätze
plö
pm
png
po
poche
poco
point
points
pol
poli
polis
politik
politiken
politiker
politisch
politische
polizei
polster
pon
pona
ponie
pool
popul
por
porn
port
portable
portal
portfolio
portion
pos
position
positions
positive
post
postel
posten
pot
potential
potenzi
potenzial
power
pp
ppe
ppel
ppen
pper
ppig
ppt
pr
pra
praktik
prang
praxis
pre
preis
preise
premier
prendre
press
presse
pressen
pression
pressive
prestige
pretty
pri
prich
priest
prim
prime
print
prinz
prinzip
prio
priv
private
pro
prob
probe
problem
problematik
probleme
problemen
proche
produkt
produkte
produkten
produktion
produktionen
produktiv
professionell
professor
profi
profil
profile
profilen
profit
prognose
programm
programme
progressive
projekt
promenade
prop
propor
propose
protest
protokoll
provided
prozess
prä
präsent
präsident
près
prüf
prüfung
pt
pte
ptimierung
pts
pu
public
publik
puede
puff
puis
pul
pult
pulver
pump
pumpe
pumpen
punkt
punkte
punkten
punkto
punktu
pupp
pur
pust
put
putation
putz
px
pyware
pä
pädagogi
pät
péra
pül
pür
q
qu
qual
qualitat
qualität
quart
quartier
quash
quat
que
quel
quelle
quem
quent
quer
quero
query
ques
quez
qui
quick
quid
quier
quin
quis
quisite
quisition
quite
quity
quivalent
quot
quote
qué
r
ra
rabatt
rac
rach
rache
racht
rachten
rack
rad
radikal
radio
rafat
raffin
rafik
raft
rag
ragen
ragend
ragende
rah
rahmen
rain
rak
raktisch
ral
ralen
rallen
ram
rami
ran
rand
rang
ranger
rangi
ranian
rank
ranken
rant
ranzösisch
raq
rar
ras
rasch
rassen
rat
rate
raten
rater
rates
rath
ration
rational
raton
rats
ratzen
rauben
raucher
rauf
raum
raunschweig
ray
raça
rbeitnehmer
rbt
rbán
rd
rdem
rdings
rdoba
re
rea
reach
reader
ready
reaktion
real
realistis
really
reben
rebre
rechne
rechner
rechnet
rechnung
recht
rechte
rechten
rechter
rechtlich
rechtliche
rechtlichen
rechts
reck
red
redak
redaktion
rede
reden
redne
redo
reduktion
reduzier
refer
reffer
reflex
reform
reformen
reg
regal
regel
regeln
regelung
regen
regierung
regime
region
regionale
regionen
register
registr
reglement
regler
regte
regul
rehen
reht
rei
reiber
reibt
reibung
reiburg
reich
reiche
reichen
reicher
reicht
reide
reif
reifen
reignis
reihe
reine
reinig
reinigung
reise
reisen
reisende
reist
reiste
reiten
reiter
reitung
reiz
reizen
rek
rekord
rel
relative
relevant
relevante
religi
rell
rem
rement
remo
ren
rend
rende
render
renge
rengi
rengt
rennen
rennung
renom
rent
renten
rentino
reparat
reppen
republik
rer
res
reservat
reserve
residential
residenz
resistent
resistente
resor
resp
respo
respond
ressemitteilung
ressor
rest
restaurant
reste
resten
ret
rete
rett
retten
retter
rettet
reuzfahrt
revid
revolution
rey
rez
rezept
rf
rfen
rgei
rgend
rgos
rgänzung
rgüt
rhein
rholung
rhythm
rhöh
ri
ria
rian
rib
ribu
rich
richt
richten
richter
richtet
richtig
richtlinie
richtung
rick
rico
rie
riechenland
rief
riel
riemen
rien
rientierung
rier
ries
riff
rift
rig
riga
rige
rigen
right
rigid
rigor
rik
rikan
rin
ring
ringe
ringen
ringend
ringer
rings
rini
rinzip
rio
ris
risi
risiko
rissen
rist
rit
riterien
riterium
rith
ritten
ritter
ritz
rium
riumph
rkenntnis
rklärung
rkrankung
rkrankungen
rlaub
rmina
rmittlung
rnehmung
rnier
ro
robe
robert
robot
robots
roch
rock
rod
roduzent
rogant
roh
rohe
rohen
rohr
roll
rolle
rollen
rom
roman
romenade
rominent
rommel
ron
rone
ront
roof
room
root
roove
rop
ropeller
ropolis
roport
ros
rosa
rose
roskopi
roso
rosserie
rost
rot
rotagonist
rotar
rote
roten
rotte
rotz
rouille
round
route
routine
row
roy
roz
rozent
rre
rsache
rse
rsprung
rstag
rt
rte
rteil
rteilung
rthin
rthodox
rthy
rtium
rtney
ru
ruch
ruder
rues
ruf
rufe
rufen
rufu
rug
rugs
ruh
ruhi
rum
run
rund
runde
runden
rundlage
rundlagen
rung
rungen
runk
runter
rup
rupt
ruption
rus
rut
rutsch
rwerb
ry
ryn
rys
rzeit
rzähl
rá
rán
rä
räder
räfte
räg
räng
ränk
räs
rät
räu
räum
räume
räumen
rävention
ré
ría
rö
röffnung
röh
rön
röst
röt
rü
rüb
rübe
rüber
rück
rücken
rückt
rüf
rüg
rühm
rühstück
rün
rüst
s
saal
saat
sab
sabon
sache
sachen
sack
safe
saft
sage
sagen
sagt
sah
sahara
saison
sak
saker
sal
sale
salle
salon
salz
sam
sama
same
samen
samer
samkeit
sammel
sammen
sammlung
samt
san
sang
sanierung
sans
sar
sat
satellite
satte
satz
sau
sauf
saug
saus
say
sberg
sbericht
sberichte
sbonus
sburg
sburger
sbury
scan
scanner
scape
sch
scha
schaden
schaff
schaffen
schaffung
schaft
schaften
schale
schalen
schall
schalt
schalte
schalten
schalter
schaltung
schar
schatten
schau
schauen
schauer
sche
schef
scheibe
scheiben
scheid
scheiden
scheidung
schein
schema
schen
schend
schenk
scher
schi
schia
schicht
schick
schie
schiebe
schied
schiede
schieden
schien
schier
schiff
schild
schilder
schirm
schl
schlaf
schlag
schlagen
schlecht
schlechte
schlechter
schlei
schleife
schlich
schließ
schließen
schloss
schlossen
schlu
schluss
schluß
schläg
schläge
schlüsse
schlüssel
schmerz
schmerzen
schmi
schmuck
schneiden
schneider
schnell
schnitt
schoen
schon
schot
schrank
schraub
schrauben
schreck
schrei
schreiben
schreibung
schreit
schrieb
schrieben
schrift
schriften
schritt
schritte
schränk
schränkung
scht
schub
schuh
schuhe
schul
schuld
schuldig
schule
schulen
schuss
schutz
schw
schwan
schwarz
schweig
schweiz
schwer
schwimm
schwind
schwitz
schwäch
schä
schäd
schädig
schädigung
schätz
schätzung
schön
schöne
schöpf
schü
schüsse
schütte
schütz
schützen
scode
scope
screen
script
sdam
sdatum
sdorf
se
sec
secure
see
seen
segel
segment
seh
sehen
sehr
sei
seigne
seil
sein
seine
seite
seiten
seitig
seitige
seits
sek
sekretariat
sekretär
sektion
sektor
sektoren
sel
selbe
seler
self
selig
sell
seln
selt
sem
semi
seminar
sen
send
sende
senden
sender
sendes
sens
sensation
sensible
sensor
sent
sentiment
separate
ser
serba
sere
serem
serer
seres
serie
serien
sert
serv
served
server
service
services
servierung
session
set
sets
sett
setzen
setzt
setzte
setzung
seum
sex
sexuell
sey
sfeld
sfrist
sh
sha
shaft
shall
share
she
shed
sheim
shi
shift
ship
shire
shock
shop
shops
shot
show
shows
shton
si
sia
sian
sible
sicher
sichere
sicherheit
sichert
sicherung
sicht
sichtig
sichtigung
sichtlich
side
sidence
sident
sidi
sie
siedl
sieg
sieger
sieh
sien
sier
sig
siger
sign
signal
significant
silber
silien
sim
simile
simulation
sin
sinn
sins
sion
sions
sior
sis
sistenz
site
situation
situationen
sitz
sitzen
sius
siv
sive
size
sk
ska
skala
skalender
skandal
skandinav
skap
ske
skep
ski
sko
skode
skosten
skraft
skript
skripti
sku
skulptur
skurs
sky
skype
ská
slau
sleeping
sley
slinie
sma
sman
sme
smell
smoking
smöglichkeiten
snummer
sofa
sofor
soft
software
sol
solation
soldat
sole
soleil
solid
solo
som
sommer
son
sonder
song
sons
sonst
sont
sorb
sorge
sorgen
sort
sorten
sortie
sortiment
sou
sounds
source
sozial
spa
space
spacio
span
spann
spanne
spannen
spannung
spar
sparen
spark
speaking
speed
speicher
speichern
speis
spek
spekt
spekte
spektive
spektrum
spender
speriode
sperr
spezi
spezialis
spezifische
sphalt
spiegel
spiel
spiele
spielen
spieler
spielt
spiral
spit
spitze
splan
spolitik
sponsor
spor
sport
sports
spot
spots
sprach
sprache
sprachen
sprachig
sprech
sprechen
sprechend
sprecher
sprechung
spreng
springen
spritz
sprochen
spruch
sprung
sprü
sprüche
spur
sql
squ
squared
srecht
ssa
ssage
sse
ssein
ssel
ssen
sser
ssl
ssland
ssler
sso
sson
ssonne
ssystem
ssä
st
sta
staat
stab
stabil
stabile
stabilis
stable
stad
stadion
stadium
stadt
staff
stage
stages
stahl
stair
stal
stale
stall
stamm
stamme
stan
stand
standard
standards
standen
standing
standort
stands
stante
stanz
stapel
star
stark
starke
stars
start
starten
stat
station
stationen
statistik
statt
statte
statu
statue
status
staub
ste
stead
steam
steck
stedt
stehen
stehend
stehende
steht
steig
steigen
steiger
stein
steine
steiner
stel
stell
stellbar
stelle
stellen
steller
stellt
stellte
stellung
stellungen
stem
stempel
sten
stens
steps
ster
stern
sterne
steroid
sters
stes
stest
stet
steuer
steuerung
sthma
sti
stich
stick
stieg
stift
stigen
stiger
stik
stil
stile
still
stille
stimme
stimmen
stimmt
stimmung
stink
stisch
stitution
stock
stoff
stoffe
stoffen
ston
stone
stop
stopp
store
storia
stot
stoß
str
stra
straf
straff
strahl
strand
strasse
strate
strategi
strategie
strategien
straße
stre
stream
streaming
streb
streck
strecke
strecken
streif
streifen
streik
streit
streng
strenge
stress
stri
strich
strick
strikt
string
strom
stru
struktur
strukturen
strup
strä
ström
stsee
stu
stub
student
studie
studien
studio
studios
studium
stuf
stufe
stufen
stuhl
stum
stunde
stunden
stur
style
stä
städt
stämm
stände
ständen
ständig
ständige
ständigkeit
stärk
stärke
stärker
stätte
stätten
stö
stör
stört
störung
störungen
stück
stücke
stün
stür
stütze
su
sub
subjektiv
substan
such
suche
suchen
sucht
suite
sum
summe
sun
sunami
sund
suppe
support
sur
surf
surround
sus
sverfahren
svoll
svolle
swald
swap
sweise
swerte
swimming
symbol
symmetr
symmetri
syn
sync
synchron
sys
system
systeme
systemen
systems
sz
sze
szenie
szent
szi
szin
szt
szö
sä
säg
säm
sätt
sätze
sätzen
sätzlich
säure
t
ta
taaten
tab
tabelle
tabellen
tabilität
table
tables
tach
tafel
tag
tage
tagen
tages
tagon
tags
tah
tain
taiwan
tak
take
takeholder
taken
taking
takt
tal
talan
talent
taler
tales
tals
talt
también
tan
tanam
tank
tanken
tanker
tano
tanto
tappe
tar
tari
tarif
tas
tasche
taschen
tasi
tast
taste
tat
taten
tato
tau
taub
taus
tausch
tbild
tch
te
team
teams
tec
tech
technik
technisch
technische
technologi
technologie
tecken
tection
ted
teen
teig
teil
teile
teilen
teilig
teilnehme
teilnehmer
teils
teilt
teilung
tek
tel
telang
tele
telefon
telephone
teller
telli
tellung
tels
tem
temperatur
temperaturen
tempo
ten
tenant
tend
tende
tenden
tender
tene
tenen
tener
tennis
tente
tention
ter
tera
teras
terben
tere
terem
teren
teres
teria
terie
terieur
tering
term
termin
terminal
termine
termini
tern
terra
terrasse
terre
territori
ters
terte
tes
test
teste
testen
testet
testing
tet
tete
teuer
teur
tex
text
texte
th
tha
thal
than
the
theater
their
thema
theme
then
theoreti
theorie
ther
therapeut
therapie
therm
these
thi
thik
thiopi
this
thn
thol
thologie
those
thumb
thur
thus
thy
thyl
ti
tian
tibet
tic
tica
ticket
tickets
tico
tie
tief
tien
tient
tier
tiere
tiers
ties
tif
tig
tige
tigen
tiger
tiges
tigste
tigt
tik
tika
til
tim
time
timmung
timo
tin
tina
tinente
ting
tini
tino
tio
tion
tional
tionell
tionen
tions
tipendi
tipp
tipps
tique
tir
tirol
tis
tisch
tische
tischen
titel
tium
tiv
tive
tiver
tives
tizen
tière
tland
tlang
tlar
tle
tler
tlich
tliche
tlichen
tlicher
tmosphäre
tner
to
toffwechsel
toile
toilette
told
toleran
tolle
toller
tom
ton
tone
tons
took
tool
tools
top
tor
toren
tori
toria
torino
torio
torium
torno
tors
tory
tos
tour
touren
tourism
tourist
tours
tous
town
tr
tra
tracht
tradition
traditional
traf
trag
trage
tragen
trahlen
trahlung
train
trainer
training
traktion
tral
tran
trance
trans
transaktion
transfer
transparente
transplantation
transport
traut
travel
tre
treff
treffen
treffend
treiben
treifen
tren
trend
trends
trenn
treten
tri
trich
triche
trick
tricks
trieb
trieben
trin
trip
tritt
tritts
trium
tro
trocken
trockne
troffen
trogen
tron
tronic
trop
troph
tropole
true
trug
truk
trunk
trupp
trus
träg
träge
trägen
träger
träglich
trè
trö
tsam
tsch
tse
tsis
tsä
tt
tta
ttawa
tte
ttentat
tter
ttern
ttet
tti
ttig
ttige
ttingen
tto
ttraktiv
ttä
tu
tuale
tualisierung
tube
tuch
tuck
tuhl
tum
tums
tun
tunes
tung
tunnel
tur
tura
ture
turen
turm
turnier
tus
tut
tv
tw
twa
twoch
twor
txt
ty
tylish
typ
type
typen
typisch
tyre
tze
tzen
tzlich
tzsche
tzt
tzten
tzung
tÃ
tán
tä
tärke
tät
tätig
tätigkeit
té
tö
tön
tör
tören
törer
tüm
tür
türe
türk
tüt
u
uan
uar
ub
ube
uber
ubern
ubert
ubjekt
ubmitted
ubung
ucci
ucco
uch
uche
ucht
uchten
uck
ucker
ucksack
ud
uda
ude
uden
uder
udet
udia
ueber
uel
uelta
uerta
uerte
uf
ufak
ufbewahrung
ufel
ufen
uff
uffer
ufig
uflage
uflösung
ufsichts
uftritt
ufung
ug
uga
uge
ugen
uger
ughes
uh
uhi
uhr
uhren
uitable
uk
ukra
uktion
ukushima
ul
ula
ulan
ulassung
ulation
uld
uldig
ule
ullah
ult
ulär
um
uma
umbi
ume
umen
umfang
ummel
ummen
umpf
umping
ums
umst
umut
umzu
un
una
unabhängig
und
undan
unde
unden
under
underbar
undet
une
unen
ung
ungar
unge
ungen
ungs
ungsprozess
unha
uni
union
univers
unk
unken
unlimited
unnel
unnit
unser
unt
unter
unterhalt
unternehmen
unternehmer
unterricht
unterschied
unterstütz
untersuch
until
unum
uomo
up
update
updates
uplex
upon
upp
uppen
upper
upplung
ups
ur
ura
ural
urante
urban
urbe
urchmesser
urchschnitt
ure
uren
ures
uretan
ureux
urgi
uri
urige
urious
urken
url
urlaub
uro
uropäische
uros
urs
urteil
urzel
us
usage
usbau
usch
uschel
uscht
usco
use
useinander
user
uses
usflug
usführ
usgezeichnet
usgleich
usi
using
usion
uskulatur
usmer
usrüstung
usschnitt
usse
ussen
usser
usses
ussicht
ussy
ust
usten
ustiz
usual
usw
usz
uszahlung
uszu
usée
ut
uta
utage
ute
uten
uter
utig
uto
utomatisch
uts
utsch
utschen
utsourcing
utter
utu
utz
uv
uvern
ux
uz
uze
uzzo
uß
ußball
ußen
ußer
uña
v
va
vage
vakuum
val
valu
van
vant
var
vara
variable
variante
varianten
various
vas
vasion
vat
ve
vedere
vel
ven
venida
vent
venti
ventil
vention
ventura
venue
ver
veral
veranstalt
veranstaltung
veranstaltungen
verantwortlich
verantwortung
verarbeitung
verb
verband
verbesser
verbind
verbindung
verbot
verbrauch
verd
verde
verdien
vere
verein
vereinbar
verfahren
verfolg
verge
vergleich
verhalten
verhältnis
verhältnisse
verk
verkauf
verkauft
verkehr
verkehrs
verken
verlag
verlauf
verleih
verletz
verletzung
verlor
verlust
verlänger
vermiet
vermögen
vern
verne
verordnung
verp
verpack
verpflicht
vers
versammlung
versand
versch
verschw
verse
versi
versicherung
versie
version
versionen
versions
versorg
versorgung
verstand
verständlich
verständnis
verstärk
versuch
versuche
vert
verteidig
vertikal
vertrag
vertrete
vertreter
verträge
verwalt
verwaltung
verwend
very
verzeichnis
verzicht
verän
veränder
veröffentlich
ves
vez
vi
via
viation
vic
vid
video
videos
vie
viel
vien
vier
vierte
viertel
view
viewer
vig
vignon
viktori
villa
ville
vin
vir
vira
virus
vis
vise
vision
vit
viv
vo
vod
voet
vogel
voir
voire
vol
voll
volle
vollen
volta
volte
volumen
volution
vom
von
vor
voraus
vorbereit
vorder
vore
vorlage
vorschlag
vorsitzende
vorteil
vote
votes
vous
vrier
vue
vv
vy
vät
vö
völl
w
wSt
wa
wach
wache
wachsen
wacht
waffe
wage
wagen
wah
wahl
wahr
wahrscheinlich
waist
wake
wal
wald
walking
wall
walls
wan
wand
wandel
wander
wanderung
wandt
wang
wann
wanne
wanted
wap
war
ward
wards
ware
waren
warf
warm
wart
warte
wartung
was
wasch
wasser
water
watt
wave
way
ways
we
web
wechs
wechsel
weck
wecke
wede
weder
weekly
weg
wege
wegen
wegs
wehr
wei
weib
weich
weiche
weih
weil
weile
wein
weis
weise
weisen
weiss
weisung
weit
weite
weitere
weiß
wel
well
welle
wels
welt
wen
wend
wende
wenden
wendig
wendungen
weni
wenn
went
wer
werbe
werbs
werbung
werden
werf
werg
werk
werke
werken
werkstatt
werkzeuge
wert
werte
werten
wertet
wertig
wertung
wesen
west
western
wet
wettbewerb
wetter
when
where
which
while
wi
wich
wicht
wichtig
wick
wickel
wicklung
wid
wide
wie
wier
wies
wiesen
wig
wiki
wil
wilde
will
willig
willing
wimming
win
wina
wind
wing
wingen
winkel
winnen
winning
winter
wir
wireless
wirk
wirkung
wirt
wirtschaft
wirtschaftlich
wirtschaftliche
wis
wise
wisse
wissen
wissenschaft
wissenschaften
wissenschaftlich
with
within
without
witz
wo
woche
wochen
wohl
wohn
wohner
wohnung
wohnungen
wolf
wolk
wolle
wollen
wonderful
wood
wor
worden
work
works
world
wort
worte
worth
would
wp
written
ws
wu
wuchs
wunder
wunsch
wur
wurf
wusst
www
wy
wähl
wählen
währ
wäl
wär
wärm
wärme
wärts
wäsche
wöhn
wörter
wünsch
wünsche
wür
würd
würdig
würfe
x
xample
xe
xes
xi
xion
xklusiv
xon
xpansion
xquisit
xx
y
ya
yan
yana
yard
yatt
ych
ye
year
yen
yens
yer
ykle
yklus
yl
ylan
yle
ylinder
yllis
ym
ymph
ymposium
yn
ynas
ynonym
yntax
yo
yon
you
yper
ypri
yra
yster
z
za
zahl
zahlen
zahlung
zahlungen
zahn
zal
zan
zano
zantin
zar
zarre
zauber
zb
zbar
zburg
zdem
ze
zeer
zehn
zei
zeichen
zeichne
zeichnet
zeichnung
zeichnungen
zeig
zeigen
zeile
zeit
zeiten
zeitraum
zeitung
zek
zel
zele
zell
zellen
zeln
zelt
zem
zen
zend
zenden
zender
zene
zens
zentral
zentrale
zentrum
zept
zer
zere
zern
zero
zers
zertifizier
zes
zettel
zeug
zeugen
zeugnis
zg
zgl
zi
zia
zicht
zida
zie
zieh
ziehen
ziel
ziele
zielen
ziell
zielle
zien
zier
zieren
ziert
zierte
zierten
zierung
zifik
zig
zigar
zige
ziger
zil
zilla
zim
zima
zimmer
zin
zing
zins
zio
zionale
zione
zip
zir
zis
zise
zisten
zit
zite
zium
zivi
zlei
zler
zlerin
zlich
znamen
zne
zo
zog
zogen
zol
zon
zone
zonen
zoom
zquierd
zte
zten
ztere
zu
zube
zubehör
zucht
zucker
zufrieden
zug
zugs
zuk
zum
zunehmen
zung
zur
zusammen
zustand
zustellen
zut
zuwa
zuzu
zw
zwan
zwang
zwe
zweck
zwei
zwi
zwischen
zy
zyk
zz
zza
zze
zähl
zöge
züg
züge
{
}
},
}:
}{





¤
§
©
«
¬
­
®
°
±
¶
»
»,
».
Â
Ã
Ä
ÄN
Ö
Österreich
Ü
ÜN
ÜR
Über
Überraschung
Übersetzung
Übersicht
Übertragung
Überwachung
Übung
ß
ßen
ßig
ßt
à
á
án
ás
â
ã
ão
ä
ächer
ächs
ächst
ächste
ächt
ächte
ächtig
äck
äcker
ädagog
ädchen
äder
äge
äger
äglich
äh
äher
ähigkeit
ählen
ähler
ählt
ähn
ähnlich
ähnliche
ährung
älde
äle
äll
älle
ällen
ält
älte
älter
ämm
ämme
ämmer
ämp
ämpfer
ämpfung
ämt
än
änd
ände
änden
änder
ändern
änderungen
ändig
änen
änge
ängel
ängen
änger
ängig
ängt
äni
änk
änner
är
ära
ärchen
äre
ären
ärer
ärger
ärm
ärt
ärzt
äsche
ässig
äst
ästi
ät
äter
ätet
ätigkeit
ätte
ätten
ätz
äuche
äuf
äufer
äule
äume
äumen
äuschen
äuser
även
å
ç
ça
ço
çon
ção
è
èche
ège
ème
ène
ère
ères
ès
é
ée
ées
élé
éléphone
én
éné
épartement
équip
équipe
ér
érez
éry
és
étai
étro
été
ê
ête
être
ë
ël
ì
í
ía
ín
ís
íî
î
îâ
ï
ð
ñ
ña
ñe
ñò
ò
ó
ón
ów
ô
ôte
õ
ö
öbl
öch
öchst
öck
öcke
öden
öder
ödi
öf
öffentlich
öffne
öglich
öh
öhle
öhn
öhr
ök
öl
öld
ölker
öll
ölle
öm
ömm
ön
önnen
öntgen
öpfe
ör
örd
örderung
ören
örf
örg
örs
ört
örter
örung
ös
ösch
öschen
öse
ösen
öss
össe
öst
öster
österreich
ötet
ött
ötter
över
öz
÷
ù
ú
ún
û
ü
üb
über
übersicht
überw
übung
üc
üch
ücher
üchte
üchtig
ücke
ücken
üd
üf
üfte
ügel
ügen
ühe
ühen
ühl
ühle
ühlen
ühne
ühren
ührt
ührung
üht
ül
üll
ülle
üm
üme
ümme
ün
ünd
ünde
ünden
ündig
ündigung
üne
ünf
ünft
ünk
ünsche
üp
ür
üren
ürg
ürge
ürt
ürz
ürze
üs
üsse
üssel
üssen
üst
üste
üsten
üter
ütte
üttel
ütter
ütz
ütze
ützt
üß
üße
ý
ÿ
ă
ć
č
ď
đ
ę
ě
ĺ
ń
ň
ō
œ
ŕ
š
ű
Ÿ
ž
β
μ
Г
С
а
е
и
о
у
ы
ь
я
і
ј
џ
€
▁
▁"
▁#
▁$
▁%
▁&
▁(
▁(*
▁*
▁+
▁->
▁>
▁@
▁A
▁AB
▁ABC
▁ABS
▁AC
▁AD
▁AF
▁AG
▁AI
▁AIR
▁AK
▁AL
▁ALL
▁ALT
▁AM
▁AMD
▁AN
▁AND
▁AP
▁API
▁AR
▁ARE
▁ART
▁AS
▁ASC
▁ASP
▁AT
▁AU
▁AV
▁AVI
▁Ab
▁Abb
▁Abba
▁Abbas
▁Abd
▁Abe
▁Abend
▁Abenteuer
▁Aber
▁Abg
▁Abh
▁Abi
▁Abo
▁Abraham
▁Abri
▁Abs
▁Abschluss
▁Absolut
▁Abu
▁Ac
▁Academy
▁Acc
▁Access
▁Accessoires
▁Account
▁Ace
▁Ach
▁Acht
▁Act
▁Action
▁Active
▁Ad
▁Ada
▁Adam
▁Adams
▁Adapter
▁Add
▁Addi
▁Address
▁Ade
▁Adel
▁Adi
▁Adler
▁Admin
▁Administration
▁Administrator
▁Adress
▁Adria
▁Adrian
▁Advent
▁Adventure
▁Aero
▁Af
▁Aff
▁Afghan
▁Afghanistan
▁Africa
▁African
▁Afrika
▁Afro
▁After
▁Ag
▁Aga
▁Age
▁Agency
▁Agent
▁Agi
▁Agn
▁Agra
▁Agri
▁Agro
▁Agua
▁Ah
▁Ahmad
▁Ai
▁Aid
▁Air
▁Aires
▁Airline
▁Airlines
▁Airport
▁Ak
▁Akademi
▁Akku
▁Akro
▁Akt
▁Aktie
▁Aktien
▁Aktion
▁Aktions
▁Aktiv
▁Aktual
▁Aku
▁Al
▁Ala
▁Alam
▁Alan
▁Alarm
▁Alb
▁Alba
▁Alban
▁Albani
▁Albert
▁Albu
▁Album
▁Alc
▁Alca
▁Alco
▁Alde
▁Ale
▁Alex
▁Alexander
▁Alfa
▁Alg
▁Alham
▁Ali
▁Alice
▁Alien
▁Alka
▁Alkohol
▁All
▁Allah
▁Alle
▁Allen
▁Aller
▁Allergi
▁Allgemein
▁Alli
▁Allian
▁Alliance
▁Alltag
▁Alm
▁Alma
▁Alme
▁Almo
▁Alp
▁Alpen
▁Alpha
▁Alpin
▁Als
▁Alt
▁Alta
▁Alte
▁Alten
▁Alter
▁Alternativ
▁Alternative
▁Alters
▁Alto
▁Alu
▁Aluminium
▁Alvar
▁Alzheimer
▁Am
▁Amal
▁Amar
▁Amateur
▁Amazon
▁Ambi
▁America
▁American
▁Amerika
▁Amerikan
▁Amig
▁Ammo
▁Amp
▁Amsterdam
▁Amt
▁Amy
▁An
▁Ana
▁Anal
▁Analog
▁Analy
▁Analyse
▁Analytics
▁And
▁Andalu
▁Ander
▁Anders
▁Anderson
▁Andra
▁Andre
▁Andrea
▁Andreas
▁Andrew
▁Andro
▁Android
▁Ang
▁Ange
▁Angebot
▁Angebote
▁Angel
▁Angeles
▁Angeli
▁Angle
▁Anh
▁Animation
▁Ank
▁Ankara
▁Anla
▁Anlage
▁Anmelde
▁Ann
▁Anna
▁Anne
▁Anno
▁Ano
▁Anonym
▁Anonymous
▁Ans
▁Anschluss
▁Ansi
▁Ant
▁Antalya
▁Antar
▁Ante
▁Antenn
▁Anthony
▁Anti
▁Antik
▁Anton
▁Antoni
▁Antonio
▁Antra
▁Antriebs
▁Antwort
▁Anwend
▁Anwendung
▁Anwendungs
▁Any
▁Anzeige
▁Ap
▁Apart
▁Apartment
▁Apartments
▁Aper
▁Apfel
▁Apo
▁Apollo
▁Apotheke
▁App
▁Appar
▁Appel
▁Apple
▁Application
▁Apr
▁April
▁Aqua
▁Aquari
▁Aqui
▁Ar
▁Ara
▁Arab
▁Arabi
▁Aragon
▁Arbeit
▁Arbeits
▁Arc
▁Arca
▁Arch
▁Arche
▁Archi
▁Architekt
▁Architektur
▁Archiv
▁Archive
▁Ard
▁Are
▁Area
▁Arena
▁Arg
▁Argentin
▁Argument
▁Ari
▁Aria
▁Aristo
▁Ark
▁Arm
▁Arma
▁Arme
▁Armen
▁Armeni
▁Aro
▁Aroma
▁Array
▁Arro
▁Arsenal
▁Art
▁Arte
▁Arthur
▁Artik
▁Artikel
▁Artikeln
▁Artist
▁Arts
▁Arz
▁Arzneimittel
▁As
▁Ash
▁Asi
▁Asia
▁Ass
▁Assa
▁Assis
▁Asso
▁Association
▁Astro
▁Astronom
▁Asyl
▁At
▁Aten
▁Ath
▁Athen
▁Athens
▁Athlet
▁Atlant
▁Atlanta
▁Atlantic
▁Atlas
▁Atmos
▁Atom
▁Att
▁Attra
▁Au
▁Audi
▁Audio
▁Audit
▁Auf
▁Aufenthalt
▁Aufnahme
▁Auftrag
▁Aug
▁Auge
▁Augen
▁August
▁Augustin
▁Auk
▁Aura
▁Aus
▁Ausbildung
▁Ausbildungs
▁Ausgangs
▁Ausge
▁Ausland
▁Ausstellung
▁Austr
▁Australia
▁Austria
▁Aut
▁Author
▁Auto
▁Automat
▁Automobil
▁Autonom
▁Autor
▁Autos
▁Auße
▁Außen
▁Av
▁Ava
▁Avant
▁Ave
▁Avenue
▁Avi
▁Award
▁Awards
▁Ax
▁Ay
▁Aya
▁Az
▁B
▁BA
▁BBC
▁BE
▁BES
▁BEST
▁BI
▁BM
▁BMW
▁BR
▁BV
▁Ba
▁Babe
▁Baby
▁Bach
▁Bachelor
▁Back
▁Backpack
▁Bad
▁Bade
▁Baden
▁Badezimmer
▁Bag
▁Bah
▁Bahn
▁Bahnhof
▁Bai
▁Baj
▁Baja
▁Bak
▁Baker
▁Bakteri
▁Bal
▁Balance
▁Balaton
▁Bald
▁Bali
▁Balk
▁Balkan
▁Balkon
▁Ball
▁Ballet
▁Ballon
▁Balti
▁Bambu
▁Ban
▁Banan
▁Band
▁Bande
▁Bang
▁Bangkok
▁Bangla
▁Bank
▁Bann
▁Banner
▁Bar
▁Bara
▁Barbar
▁Barbara
▁Barcelona
▁Bari
▁Baro
▁Baron
▁Barra
▁Barre
▁Barri
▁Barro
▁Bars
▁Bart
▁Barth
▁Bas
▁Base
▁Baseball
▁Basel
▁Bash
▁Basic
▁Basili
▁Basis
▁Bask
▁Basketball
▁Bass
▁Bast
▁Basti
▁Bat
▁Bath
▁Batt
▁Batterie
▁Battle
▁Bau
▁Bauch
▁Bauer
▁Bauern
▁Baum
▁Baumwoll
▁Bay
▁Bayer
▁Bayern
▁Be
▁Beach
▁Bean
▁Beat
▁Beau
▁Beautiful
▁Beauty
▁Beck
▁Bed
▁Bedien
▁Bee
▁Beer
▁Beg
▁Beh
▁Behandlung
▁Behe
▁Bei
▁Beijing
▁Bein
▁Beispiel
▁Beitrag
▁Bek
▁Beka
▁Bel
▁Bela
▁Belast
▁Bele
▁Belgi
▁Beli
▁Bell
▁Bella
▁Belle
▁Belo
▁Bem
▁Ben
▁Bene
▁Beni
▁Benjamin
▁Benutzer
▁Benz
▁Benzin
▁Beobachter
▁Ber
▁Berat
▁Beratung
▁Beratungs
▁Bere
▁Berei
▁Berg
▁Berge
▁Bergen
▁Berger
▁Berlin
▁Bern
▁Berna
▁Bernard
▁Berni
▁Bert
▁Beruf
▁Berufs
▁Bes
▁Besa
▁Besch
▁Beschreibung
▁Beschäftig
▁Beschäftigung
▁Besi
▁Best
▁Bestand
▁Beste
▁Bestell
▁Besuch
▁Besucher
▁Bet
▁Beta
▁Beth
▁Beton
▁Betr
▁Betreuung
▁Betrieb
▁Betriebs
▁Bett
▁Bewe
▁Beweg
▁Bewegung
▁Bewegungs
▁Bewerb
▁Bewerbung
▁Bewertung
▁Bewertungen
▁Bez
▁Beziehung
▁Bezirk
▁Bezirks
▁Bi
▁Bibel
▁Bibi
▁Bie
▁Bien
▁Bier
▁Big
▁Bike
▁Bil
▁Bilan
▁Bild
▁Bilder
▁Bildschirm
▁Bildung
▁Bildungs
▁Bill
▁Billig
▁Bin
▁Bind
▁Bingo
▁Binnen
▁Bio
▁Biologi
▁Bir
▁Bird
▁Birmingham
▁Bis
▁Bisc
▁Bish
▁Bit
▁Bitte
▁Biz
▁Bl
▁Black
▁Blai
▁Blanc
▁Blank
▁Blas
▁Blatt
▁Blau
▁Blei
▁Blend
▁Bli
▁Blind
▁Blitz
▁Blo
▁Block
▁Blog
▁Blogger
▁Blogs
▁Blok
▁Bloom
▁Blu
▁Blue
▁Blues
▁Bluetooth
▁Blum
▁Blumen
▁Blut
▁Bo
▁Board
▁Bob
▁Boc
▁Bod
▁Boden
▁Body
▁Bog
▁Boh
▁Bol
▁Boli
▁Boll
▁Bologna
▁Bols
▁Bolt
▁Bomb
▁Bon
▁Bond
▁Boni
▁Bonn
▁Bonne
▁Bonus
▁Boo
▁Book
▁Booking
▁Boom
▁Boot
▁Boots
▁Bor
▁Bord
▁Bordeaux
▁Borg
▁Borgo
▁Boris
▁Born
▁Bos
▁Bosch
▁Boss
▁Boston
▁Bot
▁Botan
▁Bott
▁Bou
▁Bour
▁Bourg
▁Boutique
▁Bow
▁Bowl
▁Box
▁Boy
▁Boz
▁Br
▁Bra
▁Brad
▁Brain
▁Bran
▁Branche
▁Branchen
▁Brand
▁Brandenburg
▁Bras
▁Brasil
▁Brasili
▁Brat
▁Bratislava
▁Brau
▁Braun
▁Brav
▁Bre
▁Break
▁Breakfast
▁Breit
▁Brem
▁Brems
▁Brenn
▁Brett
▁Brexit
▁Bri
▁Brian
▁Bridge
▁Brief
▁Brig
▁Brill
▁Brin
▁Bris
▁Brit
▁Britt
▁Bro
▁Brok
▁Broker
▁Bron
▁Bronze
▁Brooklyn
▁Bros
▁Brot
▁Brothers
▁Brown
▁Browser
▁Bru
▁Brud
▁Brun
▁Brunn
▁Brust
▁Brut
▁Brutto
▁Brü
▁Bu
▁Buch
▁Buchung
▁Buck
▁Bud
▁Buda
▁Budapest
▁Buddha
▁Budget
▁Bug
▁Build
▁Building
▁Buiten
▁Buk
▁Bulgari
▁Bull
▁Bun
▁Bund
▁Bundes
▁Bundesliga
▁Bur
▁Bureau
▁Burg
▁Burk
▁Burn
▁Bus
▁Busc
▁Bush
▁Business
▁Buss
▁But
▁Butter
▁Button
▁Buy
▁By
▁Byr
▁Bé
▁Bö
▁Börse
▁Börsen
▁Bü
▁Bücher
▁Bür
▁Bürger
▁Büro
▁C
▁CA
▁CAD
▁CAM
▁CAN
▁CAP
▁CAR
▁CC
▁CD
▁CE
▁CEO
▁CH
▁CHF
▁CI
▁CIA
▁CNC
▁CO
▁CON
▁COP
▁COVID
▁CPU
▁CRM
▁CS
▁CSS
▁CV
▁Ca
▁Cabr
▁Cache
▁Cad
▁Cafe
▁Café
▁Cake
▁Cal
▁Cala
▁Cali
▁California
▁Call
▁Calle
▁Cam
▁Camar
▁Cambridge
▁Camera
▁Camp
▁Campan
▁Camping
▁Campo
▁Campus
▁Can
▁Canada
▁Canal
▁Canaria
▁Canc
▁Canon
▁Cao
▁Cap
▁Cape
▁Capital
▁Capo
▁Capp
▁Capri
▁Car
▁Cara
▁Carbon
▁Card
▁Cards
▁Care
▁Carl
▁Carlo
▁Carlos
▁Carmen
▁Carne
▁Carol
▁Carolina
▁Carr
▁Cars
▁Carta
▁Carter
▁Cas
▁Casa
▁Case
▁Cash
▁Casi
▁Casino
▁Cassi
▁Cast
▁Castel
▁Castell
▁Castle
▁Castro
▁Cat
▁Catalunya
▁Cau
▁Cava
▁Cavall
▁Cave
▁Ce
▁Cel
▁Cell
▁Cent
▁Center
▁Central
▁Centre
▁Centro
▁Centrum
▁Cer
▁Cerv
▁Ces
▁Cesar
▁Ch
▁Cha
▁Chain
▁Chair
▁Chal
▁Challenge
▁Cham
▁Chamber
▁Champ
▁Champagne
▁Champion
▁Champions
▁Championship
▁Chan
▁Chance
▁Chang
▁Change
▁Channel
▁Chap
▁Char
▁Charakter
▁Charles
▁Charlie
▁Charlotte
▁Charm
▁Chart
▁Chat
▁Che
▁Check
▁Chef
▁Chelsea
▁Chem
▁Chemi
▁Chen
▁Cher
▁Chi
▁Chia
▁Chic
▁Chicago
▁Children
▁Chile
▁Chill
▁China
▁Chine
▁Chinese
▁Chip
▁Chir
▁Chlor
▁Cho
▁Choice
▁Chol
▁Chor
▁Chr
▁Chris
▁Christ
▁Christen
▁Christi
▁Christian
▁Christo
▁Christoph
▁Christopher
▁Chrom
▁Chrome
▁Chroni
▁Chu
▁Church
▁Château
▁Ci
▁Cie
▁Cir
▁Circle
▁Circu
▁Citation
▁City
▁Cla
▁Clan
▁Clari
▁Clark
▁Class
▁Classic
▁Claudi
▁Claus
▁Clean
▁Clear
▁Click
▁Client
▁Clinton
▁Clip
▁Clo
▁Close
▁Cloud
▁Club
▁Co
▁Coach
▁Coaching
▁Coast
▁Coch
▁Cock
▁Cocktail
▁Cod
▁Code
▁Coffee
▁Col
▁Cold
▁Coll
▁Collection
▁College
▁Collins
▁Colom
▁Colomb
▁Colon
▁Color
▁Colorado
▁Columbia
▁Com
▁Come
▁Comfort
▁Comic
▁Comm
▁Command
▁Commission
▁Committee
▁Common
▁Commons
▁Communication
▁Communications
▁Community
▁Como
▁Comp
▁Compact
▁Company
▁Compost
▁Computer
▁Computers
▁Con
▁Concept
▁Concert
▁Concord
▁Condo
▁Conference
▁Congress
▁Connect
▁Cons
▁Consultant
▁Consulting
▁Contact
▁Container
▁Content
▁Contest
▁Conti
▁Control
▁Controll
▁Controller
▁Converter
▁Cook
▁Cookie
▁Cookies
▁Cool
▁Copa
▁Copenhagen
▁Copy
▁Copyright
▁Cor
▁Corb
▁Core
▁Corn
▁Cornel
▁Corona
▁Coronavirus
▁Corp
▁Corporation
▁Cors
▁Cort
▁Corte
▁Cos
▁Cost
▁Costa
▁Cot
▁Cottage
▁Council
▁Country
▁County
▁Coup
▁Course
▁Court
▁Cover
▁Covid
▁Cra
▁Cran
▁Cre
▁Creative
▁Credit
▁Cri
▁Cris
▁Cro
▁Croc
▁Cross
▁Crow
▁Cruise
▁Crus
▁Crusher
▁Cruz
▁Cry
▁Crystal
▁Cu
▁Cuba
▁Culture
▁Cum
▁Cup
▁Cur
▁Custom
▁Customer
▁Cut
▁Cyber
▁Czech
▁Cá
▁Cé
▁Có
▁D
▁DA
▁DAS
▁DB
▁DC
▁DDR
▁DE
▁DEL
▁DEN
▁DER
▁DES
▁DI
▁DIE
▁DIN
▁DJ
▁DM
▁DMC
▁DNA
▁DNS
▁DO
▁DOS
▁DR
▁DS
▁DSL
▁DU
▁DUR
▁DVD
▁Da
▁Dach
▁Dag
▁Dah
▁Daily
▁Dal
▁Dala
▁Dalma
▁Dam
▁Damas
▁Dame
▁Damen
▁Dami
▁Dampf
▁Dan
▁Dance
▁Dane
▁Dani
▁Daniel
▁Dank
▁Dann
▁Dans
▁Dap
▁Dar
▁Dara
▁Dari
▁Dark
▁Darm
▁Dart
▁Das
▁Dat
▁Data
▁Date
▁Datei
▁Daten
▁Datenschutz
▁Dau
▁Dauer
▁Dav
▁Dave
▁Davi
▁David
▁Davis
▁Day
▁Days
▁De
▁Dead
▁Deal
▁Dealer
▁Deb
▁Debat
▁Dec
▁Deck
▁Decke
▁Deco
▁Deep
▁Def
▁Definition
▁Dekor
▁Del
▁Delega
▁Delf
▁Delhi
▁Dell
▁Delta
▁Deluxe
▁Dem
▁Demo
▁Demokrat
▁Demokrati
▁Demonstra
▁Den
▁Deng
▁Denk
▁Denn
▁Depart
▁Department
▁Depo
▁Deposit
▁Der
▁Des
▁Desa
▁Desert
▁Design
▁Designer
▁Designs
▁Desk
▁Desktop
▁Dess
▁Destination
▁Det
▁Detail
▁Details
▁Detroit
▁Deutsch
▁Deutschland
▁Developer
▁Development
▁Devi
▁Device
▁Dez
▁Di
▁Dia
▁Diabetes
▁Diagnos
▁Diagnosti
▁Diagram
▁Dial
▁Dialog
▁Diamant
▁Diamond
▁Dich
▁Dick
▁Die
▁Diego
▁Dienst
▁Dies
▁Diese
▁Diesel
▁Differen
▁Digi
▁Digital
▁Dik
▁Dil
▁Dima
▁Dimension
▁Din
▁Ding
▁Dio
▁Diplom
▁Diplomat
▁Dir
▁Direct
▁Director
▁Directory
▁Direkt
▁Diri
▁Dis
▁Disc
▁Disco
▁Disk
▁Diskussion
▁Disney
▁Disp
▁Display
▁Distan
▁Distribution
▁District
▁Div
▁Diver
▁Divers
▁Divid
▁Division
▁Dj
▁Do
▁Doc
▁Dock
▁Document
▁Dog
▁Doh
▁Dokt
▁Doktor
▁Dokument
▁Dokumente
▁Dol
▁Doll
▁Dollar
▁Dolo
▁Dom
▁Domain
▁Domin
▁Domini
▁Dominik
▁Don
▁Donald
▁Donau
▁Dong
▁Donne
▁Door
▁Doppel
▁Dor
▁Dorf
▁Dori
▁Dorn
▁Dort
▁Dortmund
▁Dos
▁Dot
▁Double
▁Douglas
▁Dow
▁Down
▁Download
▁Downloads
▁Downtown
▁Dr
▁Dra
▁Drag
▁Dragon
▁Drah
▁Drama
▁Dre
▁Dream
▁Dreh
▁Drei
▁Dresden
▁Dress
▁Drink
▁Dritt
▁Drive
▁Dro
▁Drog
▁Drogen
▁Drop
▁Druck
▁Drug
▁Drum
▁Du
▁Dual
▁Dubai
▁Dublin
▁Due
▁Dul
▁Duma
▁Dun
▁Dunk
▁Dunkel
▁Duo
▁Dur
▁Durch
▁Durchschnitt
▁Dusch
▁Dy
▁Dyna
▁Dynami
▁Dynamic
▁Dys
▁Dä
▁Dé
▁Dí
▁Dü
▁Dün
▁Düsseldorf
▁E
▁EA
▁EB
▁EC
▁ECO
▁EF
▁EG
▁EL
▁EM
▁EN
▁EP
▁EPA
▁ES
▁ESP
▁ETA
▁EU
▁EUR
▁EURO
▁EUROP
▁EX
▁EZ
▁Earth
▁East
▁Easy
▁Ebe
▁Ech
▁Echo
▁Echt
▁Eck
▁Eco
▁Economic
▁Ed
▁Edel
▁Edelstahl
▁Eden
▁Edit
▁Edition
▁Editor
▁Education
▁Edward
▁Effe
▁Effekt
▁Ego
▁Eh
▁Ehe
▁Ehr
▁Ehren
▁Ei
▁Eich
▁Eiche
▁Eid
▁Eigen
▁Ein
▁Einbau
▁Eingangs
▁Einkauf
▁Einkaufs
▁Einkommen
▁Einrichtung
▁Einsatz
▁Einstein
▁Einstellung
▁Einzel
▁Eis
▁Eisen
▁Ek
▁El
▁Electric
▁Electronic
▁Electronics
▁Elegan
▁Elektri
▁Elektro
▁Elektron
▁Elektronik
▁Element
▁Elf
▁Elia
▁Elite
▁Elizabeth
▁Elle
▁Els
▁Eltern
▁Em
▁Email
▁Emb
▁Embr
▁Emilia
▁Emirat
▁Emma
▁Emp
▁En
▁End
▁Ende
▁Energie
▁Energy
▁Eng
▁Engel
▁Engine
▁Engineering
▁England
▁English
▁Enkel
▁Ent
▁Enter
▁Enterprise
▁Entertainment
▁Entre
▁Entscheid
▁Entscheidung
▁Entwicklung
▁Entwicklungs
▁Environment
▁Ep
▁Epi
▁Episode
▁Epo
▁Equipment
▁Er
▁Erb
▁Erd
▁Erde
▁Erfahrung
▁Erfolg
▁Erfolgs
▁Erg
▁Ergebnis
▁Ergo
▁Eric
▁Erik
▁Erke
▁Erlebnis
▁Ernährung
▁Ero
▁Erre
▁Ersatz
▁Erst
▁Erw
▁Erwachsene
▁Erz
▁Erzieh
▁Es
▁España
▁Esperanto
▁Ess
▁Essa
▁Esse
▁Essen
▁Est
▁Esta
▁Estate
▁Este
▁Et
▁Eta
▁Eth
▁Ethernet
▁Ethi
▁Etiket
▁Eu
▁Eugen
▁Eur
▁Euro
▁Europ
▁Europa
▁Europe
▁European
▁Eva
▁Evangeli
▁Event
▁Events
▁Ever
▁Evo
▁Evolution
▁Ew
▁Ex
▁Excel
▁Excellent
▁Exchange
▁Exe
▁Executive
▁Exo
▁Experiment
▁Expert
▁Experten
▁Explo
▁Explorer
▁Expo
▁Export
▁Express
▁Extension
▁Extr
▁Extra
▁Extrem
▁Extreme
▁Ey
▁Eye
▁F
▁FA
▁FAQ
▁FAR
▁FC
▁FE
▁FI
▁FIFA
▁FIS
▁FL
▁FM
▁FO
▁FOR
▁FREE
▁FS
▁FX
▁Fa
▁Fabr
▁Fabrik
▁Fac
▁Face
▁Facebook
▁Fach
▁Factory
▁Fad
▁Fah
▁Fahr
▁Fahrer
▁Fahrrad
▁Fahrzeug
▁Fair
▁Fak
▁Fakt
▁Fal
▁Falcon
▁Falk
▁Fall
▁Falls
▁Fals
▁Falt
▁Fam
▁Familie
▁Familien
▁Family
▁Fan
▁Fang
▁Fantasi
▁Fantasy
▁Far
▁Farb
▁Farbe
▁Farm
▁Faro
▁Fas
▁Fashion
▁Fass
▁Fast
▁Fat
▁Fata
▁Fau
▁Faust
▁Fav
▁Favorite
▁Fax
▁Fay
▁Faz
▁Fe
▁Feature
▁Features
▁Feb
▁Februar
▁Fed
▁Feder
▁Federal
▁Federation
▁Feed
▁Feedback
▁Fehl
▁Fehler
▁Fei
▁Fein
▁Fel
▁Feld
▁Felic
▁Fell
▁Feminis
▁Fen
▁Fenster
▁Fer
▁Feri
▁Ferien
▁Fern
▁Fernseh
▁Fernández
▁Ferr
▁Ferrari
▁Fertig
▁Fest
▁Festival
▁Fet
▁Fett
▁Feu
▁Feuer
▁Feuerwehr
▁Fi
▁Fic
▁Fid
▁Field
▁Figu
▁Figur
▁Figure
▁Fil
▁File
▁Fili
▁Film
▁Filme
▁Films
▁Filter
▁Filtr
▁Fin
▁Final
▁Finance
▁Finanz
▁Find
▁Fine
▁Finger
▁Finn
▁Fior
▁Fire
▁Firefox
▁Firma
▁Firmen
▁First
▁Fisch
▁Fische
▁Fischer
▁Fish
▁Fisk
▁Fit
▁Fitness
▁Fitz
▁Fix
▁Fl
▁Fla
▁Flach
▁Flag
▁Flam
▁Flan
▁Flash
▁Flat
▁Fle
▁Fleisch
▁Flex
▁Flexi
▁Flo
▁Flora
▁Floren
▁Florence
▁Florida
▁Flot
▁Flow
▁Flu
▁Flug
▁Flughafen
▁Fluor
▁Fly
▁Fläche
▁Flächen
▁Flüchtling
▁Fo
▁Focus
▁Fol
▁Folge
▁Foli
▁Folk
▁Follow
▁Fon
▁Fond
▁Font
▁Fontan
▁Food
▁Foot
▁Football
▁For
▁Force
▁Ford
▁Foren
▁Forest
▁Form
▁Formal
▁Format
▁Formul
▁Formula
▁Forschung
▁Forschungs
▁Forst
▁Fort
▁Forum
▁Fot
▁Foto
▁Fotograf
▁Fotografi
▁Fotos
▁Fou
▁Foundation
▁Four
▁Fox
▁Fr
▁Fra
▁Frag
▁Frage
▁Frame
▁Framework
▁Franc
▁France
▁Francis
▁Francisco
▁Franco
▁Frank
▁Franken
▁Frankfurt
▁Franklin
▁Franz
▁Frau
▁Frauen
▁Fre
▁Fred
▁Free
▁Frei
▁Freizeit
▁Fremd
▁French
▁Frequen
▁Fres
▁Freud
▁Freund
▁Fri
▁Fried
▁Frieden
▁Friedens
▁Friedrich
▁Friends
▁Fris
▁Frisch
▁Fro
▁From
▁Front
▁Frost
▁Fru
▁Frucht
▁Fré
▁Früh
▁Frühling
▁Frühstück
▁Fu
▁Fue
▁Fug
▁Fuji
▁Ful
▁Full
▁Fun
▁Function
▁Fund
▁Fundament
▁Fundamental
▁Funk
▁Funktion
▁Funktions
▁Fur
▁Fus
▁Fusion
▁Futter
▁Future
▁Fuß
▁Fußball
▁Fär
▁Fé
▁Fö
▁Förder
▁Fü
▁Führ
▁Führung
▁Führungs
▁Für
▁G
▁GAS
▁GB
▁GBP
▁GD
▁GE
▁GEN
▁GER
▁GI
▁GM
▁GO
▁GP
▁GPS
▁GR
▁GS
▁GSM
▁GT
▁GUI
▁Ga
▁Gab
▁Gabriel
▁Gad
▁Gai
▁Gal
▁Gala
▁Galax
▁Galaxy
▁Gale
▁Galeri
▁Gali
▁Galile
▁Gall
▁Galla
▁Gallery
▁Galli
▁Gallo
▁Gamb
▁Game
▁Gamer
▁Games
▁Gaming
▁Gan
▁Gand
▁Gang
▁Ganz
▁Gar
▁Gara
▁Garage
▁Garant
▁Garantie
▁García
▁Garda
▁Garde
▁Garden
▁Gardens
▁Gare
▁Garga
▁Garn
▁Garr
▁Garten
▁Gas
▁Gast
▁Gat
▁Gate
▁Gatt
▁Gau
▁Gaud
▁Gav
▁Gay
▁Gaza
▁Ge
▁Geb
▁Gebi
▁Gebrauch
▁Geburt
▁Geburtstag
▁Gebäude
▁Ged
▁Gedanken
▁Gef
▁Gefä
▁Gegen
▁Geh
▁Geheim
▁Geis
▁Geist
▁Gel
▁Geld
▁Gelen
▁Gem
▁Gemein
▁Gemeinde
▁Gemeins
▁Gen
▁Gene
▁Gener
▁General
▁Generation
▁Generator
▁Geni
▁Geno
▁Gent
▁Genu
▁Geo
▁Geografi
▁Georg
▁George
▁Georgi
▁Georgia
▁Gep
▁Ger
▁Gera
▁Gere
▁Geri
▁Gericht
▁Gerichts
▁German
▁Germany
▁Gerät
▁Geräte
▁Ges
▁Gesamt
▁Gesch
▁Geschenk
▁Geschichte
▁Geschlecht
▁Geschmack
▁Geschäft
▁Geschäfts
▁Gesellschaft
▁Gesetz
▁Gesicht
▁Gesichts
▁Gespräch
▁Gest
▁Gestalt
▁Gestaltung
▁Gesundheit
▁Gesundheits
▁Get
▁Getränke
▁Gew
▁Gewerbe
▁Gewicht
▁Gewinn
▁Ghi
▁Gi
▁Gia
▁Gian
▁Gib
▁Gift
▁Gil
▁Gill
▁Gin
▁Giovanni
▁Gir
▁Girl
▁Girls
▁Gitar
▁Giuli
▁Gl
▁Gla
▁Glas
▁Glass
▁Glei
▁Gleich
▁Glen
▁Gli
▁Glo
▁Glob
▁Global
▁Globe
▁Glu
▁Gly
▁Glück
▁GmbH
▁Go
▁Gob
▁God
▁Goe
▁Gol
▁Gold
▁Golden
▁Golf
▁Gome
▁Gond
▁González
▁Good
▁Google
▁Gor
▁Gordon
▁Gore
▁Got
▁Gott
▁Gourmet
▁Govern
▁Gr
▁Gra
▁Grab
▁Grad
▁Grade
▁Graf
▁Grafik
▁Gramm
▁Gramma
▁Gran
▁Grand
▁Grande
▁Granit
▁Grant
▁Graph
▁Graphi
▁Gras
▁Grass
▁Grat
▁Gratis
▁Grau
▁Graz
▁Gre
▁Great
▁Green
▁Grenz
▁Grey
▁Gri
▁Grie
▁Griff
▁Grill
▁Grim
▁Grip
▁Gro
▁Gros
▁Gross
▁Grot
▁Group
▁Groß
▁Gru
▁Grub
▁Grund
▁Grundstück
▁Grupp
▁Gruppe
▁Gruppen
▁Grä
▁Grö
▁Grön
▁Größe
▁Grün
▁Gründ
▁Gu
▁Gua
▁Guadal
▁Guan
▁Guer
▁Guest
▁Guesthouse
▁Gug
▁Gui
▁Guide
▁Guil
▁Guin
▁Gul
▁Gummi
▁Gun
▁Gur
▁Guru
▁Gus
▁Gustav
▁Gut
▁Gute
▁Gutschein
▁Guy
▁Gy
▁Gym
▁Gä
▁Gäste
▁Gö
▁Gör
▁Göt
▁Göteborg
▁Gü
▁Gül
▁Gür
▁H
▁HA
▁HAL
▁HD
▁HDR
▁HER
▁HF
▁HI
▁HIV
▁HO
▁HOTEL
▁HP
▁HR
▁HTML
▁HTTP
▁Ha
▁Haar
▁Hab
▁Habe
▁Haber
▁Hack
▁Had
▁Haf
▁Haft
▁Hag
▁Hah
▁Hai
▁Hak
▁Hal
▁Halb
▁Hall
▁Halle
▁Hallen
▁Hallo
▁Hals
▁Halt
▁Halte
▁Ham
▁Hama
▁Hamburg
▁Hamilton
▁Hamma
▁Hammer
▁Han
▁Hand
▁Handel
▁Handels
▁Handlung
▁Handlungs
▁Handwerk
▁Handy
▁Hang
▁Hann
▁Hannover
▁Hano
▁Hans
▁Hansen
▁Hap
▁Happy
▁Har
▁Hard
▁Hardware
▁Hari
▁Harm
▁Harmon
▁Harmoni
▁Harris
▁Harry
▁Hart
▁Has
▁Hash
▁Hass
▁Hast
▁Hat
▁Hatt
▁Hau
▁Haug
▁Haupt
▁Haus
▁Haushalt
▁Haushalts
▁Haut
▁Haute
▁Hav
▁Hava
▁Have
▁Hawaii
▁Hawk
▁Hay
▁Haz
▁He
▁Head
▁Health
▁Heart
▁Heat
▁Heath
▁Heb
▁Hebr
▁Heck
▁Heer
▁Hef
▁Hege
▁Hei
▁Heid
▁Heide
▁Heil
▁Heilig
▁Heim
▁Heimat
▁Hein
▁Heiz
▁Heizung
▁Hel
▁Held
▁Heli
▁Hell
▁Helm
▁Help
▁Helsinki
▁Hem
▁Hemm
▁Hen
▁Hendri
▁Henn
▁Henri
▁Henry
▁Her
▁Herbst
▁Here
▁Herman
▁Hermann
▁Hero
▁Herr
▁Herren
▁Hersteller
▁Herz
▁Hess
▁Het
▁Heu
▁Hex
▁Hey
▁Hi
▁Hier
▁High
▁Highlight
▁Highlights
▁Hil
▁Hilfs
▁Hill
▁Hills
▁Him
▁Himmel
▁Hin
▁Hind
▁Hindu
▁Hint
▁Hinter
▁Hintergrund
▁Hip
▁Hir
▁Hirsch
▁His
▁Histori
▁Historie
▁History
▁Hit
▁Hitler
▁Hits
▁Hitz
▁Ho
▁Hobby
▁Hoch
▁Hochschul
▁Hochzeit
▁Hochzeits
▁Hoe
▁Hof
▁Hoff
▁Hohe
▁Hohen
▁Hol
▁Hold
▁Holiday
▁Holland
▁Hollywood
▁Holo
▁Holt
▁Holz
▁Hom
▁Home
▁Homepage
▁Homo
▁Hon
▁Honda
▁Hong
▁Hongkong
▁Honor
▁Hop
▁Hopp
▁Hor
▁Horizont
▁Hormon
▁Horn
▁Horror
▁Hors
▁Hort
▁Hos
▁Hospital
▁Host
▁Hostel
▁Hot
▁Hotel
▁Hotels
▁House
▁How
▁Hu
▁Hua
▁Hub
▁Huh
▁Hul
▁Hum
▁Human
▁Humanit
▁Humor
▁Hun
▁Hund
▁Hunde
▁Hung
▁Hunt
▁Hur
▁Hus
▁Hut
▁Hy
▁Hybrid
▁Hydrauli
▁Hydro
▁Hyper
▁Hypo
▁Hä
▁Häl
▁Hän
▁Händ
▁Händler
▁Här
▁Hé
▁Hö
▁Höhe
▁Hör
▁Hü
▁I
▁IA
▁IBM
▁IC
▁ICE
▁ID
▁IE
▁IF
▁II
▁III
▁IM
▁IN
▁IND
▁INTER
▁IP
▁IR
▁IS
▁ISBN
▁ISO
▁IST
▁IT
▁IV
▁IX
▁Ian
▁Ib
▁Iber
▁Ibi
▁Ibrahim
▁Ice
▁Ich
▁Icon
▁Ide
▁Ideal
▁Idee
▁Ident
▁If
▁Igna
▁Ih
▁Il
▁Ill
▁Illinois
▁Illustration
▁Im
▁Image
▁Images
▁Imagin
▁Immo
▁Immobilien
▁Immun
▁Imp
▁Imper
▁Imperi
▁Imperial
▁Implant
▁Implement
▁Import
▁Impression
▁Improv
▁Impuls
▁In
▁Inc
▁Ind
▁Independent
▁Index
▁Indi
▁India
▁Indian
▁Individu
▁Individual
▁Indonesi
▁Industrial
▁Industrie
▁Industries
▁Industry
▁Infant
▁Infin
▁Infla
▁Info
▁Inform
▁Information
▁Informationen
▁Informations
▁Infos
▁Infra
▁Infrastruktur
▁Ing
▁Ingenieur
▁Inhalt
▁Ink
▁Inn
▁Innen
▁Inner
▁Innova
▁Innovation
▁Innovations
▁Inns
▁Insa
▁Insel
▁Inser
▁Insider
▁Inso
▁Inspe
▁Inspiration
▁Install
▁Installation
▁Instan
▁Instant
▁Institut
▁Institute
▁Institution
▁Instruk
▁Instrument
▁Insul
▁Int
▁Inte
▁Integr
▁Integration
▁Intel
▁Intelligen
▁Intelligence
▁Intens
▁Intensiv
▁Inter
▁Interes
▁Interesse
▁Interessen
▁Interface
▁Intern
▁Interna
▁International
▁Internet
▁Interpret
▁Interview
▁Intra
▁Invent
▁Invest
▁Investition
▁Investment
▁Investor
▁Ion
▁Ir
▁Irak
▁Iran
▁Iris
▁Irland
▁Iron
▁Irr
▁Is
▁Isa
▁Isabel
▁Isla
▁Islam
▁Island
▁Islands
▁Iso
▁Isol
▁Israel
▁Israeli
▁Ist
▁Istanbul
▁It
▁Italia
▁Italian
▁Italien
▁Italy
▁Ivan
▁J
▁JE
▁JO
▁JP
▁Ja
▁Jac
▁Jack
▁Jacke
▁Jackpot
▁Jackson
▁Jacob
▁Jag
▁Jagd
▁Jahr
▁Jahre
▁Jahres
▁Jahrhundert
▁Jak
▁Jakob
▁Jam
▁James
▁Jan
▁Jane
▁Janeiro
▁Januar
▁Japan
▁Jar
▁Jas
▁Java
▁JavaScript
▁Jay
▁Jazz
▁Je
▁Jean
▁Jed
▁Jeff
▁Jeg
▁Jel
▁Jen
▁Jens
▁Jer
▁Jersey
▁Jerusalem
▁Jes
▁Jesu
▁Jesus
▁Jet
▁Ji
▁Jia
▁Jiang
▁Jim
▁Jin
▁Jo
▁Joan
▁Job
▁Jobs
▁Joe
▁Jog
▁Johann
▁Johannes
▁John
▁Johnson
▁Jon
▁Jones
▁Jong
▁Jordan
▁Jos
▁Jose
▁Josef
▁Joseph
▁Journal
▁Journalist
▁Joy
▁Jr
▁Ju
▁Juan
▁Jud
▁Jude
▁Judi
▁Jugend
▁Jul
▁Juli
▁Julia
▁Julian
▁Jun
▁June
▁Jung
▁Juni
▁Junior
▁Jupiter
▁Jur
▁Jura
▁Juris
▁Just
▁Justi
▁Já
▁Jä
▁Jö
▁K
▁KB
▁KG
▁KI
▁KOM
▁KOS
▁KP
▁Ka
▁Kab
▁Kabel
▁Kabine
▁Kabu
▁Kad
▁Kaf
▁Kaffe
▁Kaffee
▁Kah
▁Kai
▁Kair
▁Kaiser
▁Kaka
▁Kal
▁Kala
▁Kalb
▁Kalender
▁Kali
▁Kaliforni
▁Kalk
▁Kalla
▁Kalo
▁Kam
▁Kame
▁Kamer
▁Kamera
▁Kamin
▁Kammer
▁Kamp
▁Kampan
▁Kampf
▁Kan
▁Kanad
▁Kanada
▁Kanal
▁Kandidat
▁Kann
▁Kant
▁Kap
▁Kapit
▁Kapital
▁Kapp
▁Kar
▁Kara
▁Karen
▁Kari
▁Karl
▁Karls
▁Karpa
▁Karriere
▁Kart
▁Karte
▁Karten
▁Kartoffel
▁Kas
▁Kasi
▁Kassa
▁Kasse
▁Kast
▁Kasta
▁Kaste
▁Kat
▁Kata
▁Katal
▁Katalo
▁Katalog
▁Katar
▁Kate
▁Kategorie
▁Kategorien
▁Kath
▁Kati
▁Katze
▁Katzen
▁Kau
▁Kauf
▁Kauk
▁Kaup
▁Kay
▁Ke
▁Keh
▁Kel
▁Kell
▁Keller
▁Kelly
▁Kemp
▁Ken
▁Kenn
▁Kennedy
▁Kent
▁Ker
▁Keramik
▁Kern
▁Kerr
▁Kette
▁Ketten
▁Key
▁Keyboard
▁Keys
▁Keywords
▁Khan
▁Khar
▁Ki
▁Kick
▁Kids
▁Kiel
▁Kies
▁Kil
▁Kill
▁Kilo
▁Kilometer
▁Kim
▁Kin
▁Kind
▁Kinder
▁Kindergarten
▁King
▁Kings
▁Kino
▁Kio
▁Kir
▁Kira
▁Kirch
▁Kirche
▁Kirchen
▁Kirk
▁Kiss
▁Kit
▁Kitchen
▁Kite
▁Kl
▁Kla
▁Klang
▁Klapp
▁Klar
▁Klass
▁Klasse
▁Klassen
▁Klassi
▁Klaus
▁Kle
▁Kleb
▁Kleid
▁Kleider
▁Klein
▁Klem
▁Kletter
▁Klient
▁Klima
▁Klimat
▁Klin
▁Kling
▁Klinik
▁Klip
▁Klo
▁Kloster
▁Klu
▁Klub
▁Km
▁Kne
▁Kni
▁Knie
▁Knight
▁Kno
▁Knochen
▁Know
▁Ko
▁Koch
▁Kod
▁Koda
▁Kode
▁Koh
▁Kohl
▁Kok
▁Koka
▁Kol
▁Kolb
▁Koll
▁Kolo
▁Koloni
▁Kom
▁Kombi
▁Kombin
▁Komfort
▁Komit
▁Komm
▁Kommenta
▁Kommentar
▁Kommentare
▁Kommun
▁Kommunal
▁Kommune
▁Kommunikation
▁Kommunikations
▁Komp
▁Kompa
▁Kompakt
▁Komple
▁Komplett
▁Kon
▁Kondi
▁Konf
▁Konfigur
▁Konflikt
▁Kong
▁Kongre
▁Kongress
▁Konkurren
▁Konkurs
▁Kons
▁Konser
▁Konservat
▁Konsol
▁Konstant
▁Konstitu
▁Konstruk
▁Konsul
▁Konsult
▁Konsum
▁Konsument
▁Kont
▁Kontakt
▁Kontin
▁Konto
▁Kontra
▁Kontrak
▁Kontrast
▁Kontroll
▁Konver
▁Konzert
▁Kooperation
▁Koordin
▁Koordina
▁Kop
▁Kopf
▁Kopi
▁Kopp
▁Kor
▁Korea
▁Korn
▁Korp
▁Kors
▁Kos
▁Kosmetik
▁Kosmo
▁Kost
▁Kosten
▁Kot
▁Kou
▁Koz
▁Kr
▁Kra
▁Krab
▁Kraft
▁Krak
▁Kran
▁Kranken
▁Krankenhaus
▁Krankheit
▁Krat
▁Krau
▁Kre
▁Kreat
▁Kreativ
▁Kredit
▁Kreis
▁Krem
▁Kreml
▁Kret
▁Kreuz
▁Kri
▁Krieg
▁Kriegs
▁Krim
▁Krimin
▁Kriminal
▁Kris
▁Kristall
▁Kritik
▁Kro
▁Krok
▁Kron
▁Kru
▁Krum
▁Krus
▁Krypto
▁Krä
▁Kräuter
▁Ku
▁Kuba
▁Kubi
▁Kugel
▁Kuh
▁Kul
▁Kuli
▁Kult
▁Kultur
▁Kun
▁Kund
▁Kunde
▁Kunden
▁Kunst
▁Kunststoff
▁Kupfer
▁Kur
▁Kurd
▁Kuri
▁Kuro
▁Kurs
▁Kurt
▁Kurz
▁Ky
▁Kyoto
▁Kä
▁Kär
▁Käs
▁Kö
▁Köln
▁Kön
▁König
▁Königs
▁Köp
▁Kör
▁Körper
▁Kü
▁Küche
▁Küchen
▁Kühl
▁Künstler
▁Kür
▁L
▁LA
▁LAN
▁LCD
▁LE
▁LED
▁LG
▁LIFE
▁LIN
▁LO
▁La
▁Lab
▁Label
▁Labor
▁Laboratori
▁Lac
▁Lach
▁Lack
▁Lad
▁Lade
▁Laden
▁Lady
▁Lage
▁Lager
▁Lago
▁Lagun
▁Lai
▁Lake
▁Lam
▁Lama
▁Lamb
▁Lambert
▁Lamm
▁Lamp
▁Lampe
▁Lan
▁Lance
▁Land
▁Landes
▁Lands
▁Landschaft
▁Landwirtschaft
▁Lane
▁Lang
▁Lange
▁Language
▁Lanka
▁Lanz
▁Laos
▁Laptop
▁Lar
▁Large
▁Lars
▁Las
▁Laser
▁Lass
▁Last
▁Lasten
▁Late
▁Latin
▁Lau
▁Lauf
▁Laura
▁Laurent
▁Laut
▁Lava
▁Law
▁Lawrence
▁Le
▁Lead
▁Leader
▁League
▁Learning
▁Leasing
▁Lebe
▁Leben
▁Lebens
▁Lebensmittel
▁Lech
▁Leder
▁Lee
▁Leer
▁Leg
▁Lega
▁Legal
▁Lege
▁Legend
▁Legi
▁Legion
▁Legislat
▁Leh
▁Lehr
▁Lehrer
▁Lei
▁Leib
▁Leic
▁Leicht
▁Leid
▁Leipzig
▁Leistung
▁Leistungs
▁Leit
▁Lek
▁Len
▁Lenin
▁Lenk
▁Lenn
▁Leo
▁Leon
▁Leonard
▁Lern
▁Les
▁Leser
▁Let
▁Lett
▁Letter
▁Leucht
▁Leuk
▁Level
▁Levi
▁Lewis
▁Ley
▁Li
▁Lib
▁Liber
▁Liberal
▁Libert
▁Library
▁License
▁Lich
▁Licht
▁Lid
▁Lie
▁Lieb
▁Liebe
▁Lieblings
▁Liefer
▁Lies
▁Life
▁Lifestyle
▁Lift
▁Lig
▁Liga
▁Light
▁Lille
▁Lim
▁Lima
▁Limit
▁Limited
▁Lin
▁Lincoln
▁Lind
▁Linda
▁Linde
▁Linden
▁Line
▁Ling
▁Lingu
▁Lini
▁Link
▁Links
▁Lins
▁Linux
▁Lion
▁Lip
▁Lipp
▁Liquid
▁Lis
▁Lisa
▁List
▁Liste
▁Lit
▁Lite
▁Liter
▁Literatur
▁Little
▁Liu
▁Live
▁Liverpool
▁Living
▁Lizenz
▁Ljubljana
▁Lo
▁Lob
▁Loc
▁Local
▁Locat
▁Location
▁Loch
▁Lock
▁Lodge
▁Loft
▁Log
▁Logi
▁Login
▁Logistik
▁Logo
▁Loh
▁Loi
▁Lok
▁Lokal
▁Lom
▁London
▁Long
▁Look
▁Loop
▁Lor
▁Lord
▁Lore
▁Los
▁Lot
▁Lou
▁Louis
▁Lounge
▁Love
▁Low
▁Ltd
▁Lu
▁Lub
▁Luc
▁Luca
▁Lucas
▁Luci
▁Lucia
▁Lud
▁Ludwig
▁Luft
▁Luga
▁Luis
▁Lul
▁Lumi
▁Lumpur
▁Lun
▁Luna
▁Lund
▁Lung
▁Lup
▁Lust
▁Lut
▁Luther
▁Lux
▁Luxembourg
▁Luxemburg
▁Luxus
▁Luz
▁Ly
▁Lyn
▁Lyon
▁Lä
▁Läh
▁Länder
▁Läng
▁Lé
▁Lö
▁Lösung
▁Lü
▁M
▁MA
▁MAC
▁MAD
▁MAG
▁MAI
▁MAN
▁MAP
▁MAR
▁MAS
▁MB
▁MC
▁MD
▁ME
▁MED
▁MEDIA
▁MIT
▁MO
▁MOS
▁MP
▁MR
▁MS
▁MW
▁Ma
▁Maat
▁Mac
▁Maca
▁Mach
▁Machine
▁Macht
▁Macro
▁Mad
▁Madagas
▁Made
▁Madr
▁Madrid
▁Mae
▁Mag
▁Magazin
▁Magazine
▁Magen
▁Magi
▁Magic
▁Magna
▁Magnet
▁Mah
▁Maha
▁Mahl
▁Mai
▁Mail
▁Main
▁Mais
▁Maison
▁Maj
▁Majest
▁Major
▁Mak
▁Makar
▁Make
▁Maker
▁Makro
▁Mal
▁Mala
▁Malaysia
▁Male
▁Mali
▁Mall
▁Mallorca
▁Malm
▁Malta
▁Mama
▁Man
▁Mana
▁Manage
▁Management
▁Manager
▁Manch
▁Manche
▁Manchester
▁Mand
▁Mandel
▁Mandr
▁Manga
▁Mange
▁Mango
▁Manhattan
▁Mani
▁Manifest
▁Manipul
▁Mann
▁Mannschaft
▁Mans
▁Manu
▁Manual
▁Manuel
▁Map
▁Mar
▁Mara
▁Marathon
▁Marc
▁Marcel
▁March
▁Marco
▁Mare
▁Marg
▁Margaret
▁Margin
▁Mari
▁Maria
▁Marian
▁Marie
▁Marin
▁Marina
▁Marine
▁Marino
▁Mario
▁Mark
▁Marke
▁Marken
▁Market
▁Marketing
▁Markt
▁Marmo
▁Marok
▁Marra
▁Mars
▁Marseille
▁Marshall
▁Mart
▁Martin
▁Martinez
▁Marx
▁Mary
▁Marí
▁Mas
▁Masa
▁Masch
▁Maschinen
▁Mask
▁Mass
▁Massa
▁Massachusetts
▁Massage
▁Masse
▁Massen
▁Master
▁Mat
▁Mata
▁Match
▁Mate
▁Materi
▁Material
▁Materiali
▁Materials
▁Mathemati
▁Matrix
▁Matt
▁Matte
▁Matthew
▁Mau
▁Mauer
▁Maul
▁Maur
▁Maus
▁Max
▁Maxim
▁May
▁Maya
▁Maz
▁Mc
▁McC
▁McCa
▁McCo
▁McDonald
▁McG
▁McK
▁Me
▁Mechani
▁Med
▁Medi
▁Media
▁Medical
▁Medici
▁Medien
▁Medikament
▁Medium
▁Medizin
▁Meer
▁Meeres
▁Meeting
▁Mega
▁Meh
▁Mehr
▁Mei
▁Meil
▁Mein
▁Meinung
▁Meist
▁Meister
▁Mel
▁Melbourne
▁Meld
▁Meli
▁Member
▁Memory
▁Men
▁Menge
▁Mensch
▁Menschen
▁Mental
▁Mentor
▁Menu
▁Mer
▁Merc
▁Mercedes
▁Meri
▁Merk
▁Merkel
▁Merl
▁Mes
▁Mess
▁Messag
▁Message
▁Messe
▁Messenger
▁Messer
▁Messi
▁Mest
▁Met
▁Meta
▁Metal
▁Metall
▁Meter
▁Method
▁Metro
▁Metropolitan
▁Mexico
▁Meyer
▁Mi
▁Miami
▁Mich
▁Micha
▁Michael
▁Michel
▁Michelin
▁Michigan
▁Micro
▁Microsoft
▁Mid
▁Middle
▁Miet
▁Migration
▁Miguel
▁Mike
▁Mikro
▁Mil
▁Milan
▁Milano
▁Milch
▁Mile
▁Miles
▁Mili
▁Milit
▁Militar
▁Militär
▁Mill
▁Miller
▁Milli
▁Million
▁Milo
▁Min
▁Mina
▁Mind
▁Mindest
▁Mine
▁Mineral
▁Mini
▁Miniatur
▁Minim
▁Minimal
▁Minister
▁Ministeri
▁Minu
▁Minute
▁Mio
▁Mir
▁Mira
▁Mirror
▁Mis
▁Misch
▁Miss
▁Mission
▁Mistr
▁Mit
▁Mitarbeiter
▁Mitglied
▁Mitglieder
▁Mitt
▁Mitta
▁Mitte
▁Mittel
▁Mix
▁Mlad
▁Mo
▁Mob
▁Mobil
▁Mobile
▁Mobili
▁Mod
▁Mode
▁Model
▁Modell
▁Modelle
▁Modern
▁Modi
▁Modul
▁Module
▁Moe
▁Mog
▁Moh
▁Mol
▁Mold
▁Mole
▁Moll
▁Moment
▁Mon
▁Monat
▁Monats
▁Mond
▁Monde
▁Monet
▁Money
▁Mongol
▁Monitor
▁Mono
▁Mons
▁Monster
▁Mont
▁Montag
▁Montage
▁Monte
▁Monter
▁Monti
▁Montre
▁Montreal
▁Monument
▁Moon
▁Moor
▁Moore
▁Mor
▁Mora
▁Moral
▁Mord
▁More
▁Morgan
▁Morgen
▁Mori
▁Moro
▁Morris
▁Mort
▁Mos
▁Mosc
▁Mose
▁Mosk
▁Moss
▁Most
▁Motel
▁Motion
▁Motiv
▁Motivation
▁Moto
▁Motor
▁Motorrad
▁Motors
▁Motorsport
▁Mount
▁Mountain
▁Mour
▁Movie
▁Mozart
▁Mr
▁Mu
▁Muhammad
▁Mul
▁Multi
▁Multifunktions
▁Multimedia
▁Multiple
▁Mumbai
▁Mun
▁Mund
▁Muni
▁Mur
▁Mura
▁Mus
▁Muse
▁Museum
▁Music
▁Musical
▁Musik
▁Muskel
▁Muslim
▁Muss
▁Muster
▁Mut
▁Mutter
▁My
▁Myth
▁Má
▁Mä
▁Mädchen
▁Män
▁Männer
▁Mär
▁Mé
▁Mö
▁Möbel
▁Mü
▁Müh
▁Mühl
▁Müll
▁Müller
▁Mün
▁Münch
▁München
▁Müs
▁N
▁NA
▁NASA
▁NATO
▁NE
▁NEU
▁NEW
▁NGO
▁NH
▁NI
▁NO
▁NORD
▁NS
▁NT
▁NU
▁NV
▁Na
▁Nach
▁Nachbar
▁Nachhaltigkeit
▁Nachricht
▁Nachrichten
▁Nacht
▁Nachwuchs
▁Nacional
▁Nag
▁Nagel
▁Nah
▁Nahrungs
▁Nam
▁Name
▁Namen
▁Nan
▁Nano
▁Nap
▁Napol
▁Napoleon
▁Napoli
▁Nar
▁Narr
▁Nas
▁Nase
▁Nation
▁National
▁Nato
▁Natur
▁Natura
▁Natural
▁Nature
▁Nau
▁Nav
▁Navarr
▁Navigation
▁Navy
▁Nazi
▁Ne
▁Nea
▁Neben
▁Need
▁Neg
▁Negativ
▁Negr
▁Neh
▁Nek
▁Nelson
▁Nem
▁Nen
▁Neo
▁Nepal
▁Nero
▁Nerv
▁Nest
▁Net
▁Nett
▁Netto
▁Network
▁Netz
▁Netzwerk
▁Neu
▁Neue
▁Neuro
▁Neutr
▁Neutral
▁Neve
▁Never
▁New
▁News
▁Newsletter
▁Newton
▁Next
▁Nga
▁Ni
▁Nice
▁Nichol
▁Nicht
▁Nick
▁Nickel
▁Nico
▁Nicol
▁Nicola
▁Nie
▁Nieder
▁Niger
▁Nigeria
▁Night
▁Nike
▁Niko
▁Nikola
▁Nil
▁Nine
▁Nintendo
▁Nitr
▁Nitro
▁No
▁Nobel
▁Nokia
▁Nom
▁Nomin
▁Nomina
▁Non
▁Nor
▁Nord
▁Norm
▁Normal
▁Norman
▁North
▁Not
▁Notar
▁Note
▁Notebook
▁Notfall
▁Nov
▁Nova
▁Novel
▁November
▁Novi
▁Novo
▁Now
▁Nr
▁Nu
▁Nuk
▁Null
▁Nun
▁Nur
▁Nutz
▁Nutzung
▁Nutzungs
▁Ny
▁Nä
▁Näh
▁Nö
▁Nü
▁O
▁OF
▁OK
▁ON
▁OP
▁OR
▁OS
▁Ob
▁Obama
▁Ober
▁Oberflächen
▁Objekt
▁Obst
▁Oc
▁Ocean
▁Och
▁Oct
▁Od
▁Odo
▁Of
▁Off
▁Offen
▁Offer
▁Office
▁Officer
▁Og
▁Oh
▁Ohr
▁Ok
▁Okt
▁Oktober
▁Ol
▁Ola
▁Old
▁Ole
▁Oli
▁Olive
▁Oliver
▁Olm
▁Olymp
▁Olympia
▁Om
▁Omega
▁Omni
▁On
▁One
▁Online
▁Only
▁Oost
▁Op
▁Opa
▁Open
▁Oper
▁Opera
▁Operati
▁Operation
▁Operations
▁Operator
▁Opti
▁Optim
▁Optima
▁Option
▁Options
▁Or
▁Ora
▁Orange
▁Orchest
▁Orchestra
▁Orden
▁Order
▁Ordn
▁Ordnung
▁Ore
▁Org
▁Organ
▁Organis
▁Organisa
▁Organisation
▁Organisations
▁Organization
▁Orient
▁Oriental
▁Original
▁Originals
▁Orlando
▁Orleans
▁Oro
▁Ort
▁Orts
▁Os
▁Oscar
▁Oslo
▁Osman
▁Ost
▁Osta
▁Oster
▁Ott
▁Otto
▁Ou
▁Our
▁Out
▁Outdoor
▁Outfit
▁Outlook
▁Over
▁Ox
▁Oxford
▁P
▁PA
▁PC
▁PCI
▁PDF
▁PE
▁PH
▁PHP
▁PIN
▁PL
▁PLAY
▁PM
▁POP
▁POS
▁PR
▁PRE
▁PRO
▁PS
▁PVC
▁Pa
▁Paar
▁Pach
▁Pacific
▁Pack
▁Package
▁Pad
▁Pag
▁Page
▁Paint
▁Pak
▁Paket
▁Pakistan
▁Pal
▁Pala
▁Palace
▁Palai
▁Palat
▁Pali
▁Palm
▁Palma
▁Palo
▁Pamp
▁Pan
▁Pana
▁Panasonic
▁Pande
▁Panel
▁Pani
▁Panorama
▁Panta
▁Panto
▁Pap
▁Papa
▁Paper
▁Papier
▁Papp
▁Papu
▁Par
▁Para
▁Paradi
▁Paradise
▁Parado
▁Parallel
▁Parc
▁Pari
▁Paris
▁Park
▁Parlament
▁Parma
▁Part
▁Partei
▁Parti
▁Partner
▁Partners
▁Party
▁Pas
▁Pass
▁Passa
▁Passag
▁Passe
▁Passion
▁Past
▁Pasta
▁Pastor
▁Pat
▁Patch
▁Patent
▁Pater
▁Path
▁Patient
▁Patienten
▁Patri
▁Patriar
▁Patrick
▁Patriot
▁Patron
▁Patt
▁Paul
▁Paulo
▁Paus
▁Pav
▁Pay
▁Paz
▁Pe
▁Peace
▁Pearl
▁Pech
▁Pedr
▁Pedro
▁Peer
▁Pel
▁Pen
▁Pende
▁Pennsylvania
▁Pension
▁Penta
▁People
▁Pepper
▁Per
▁Pere
▁Perfect
▁Performance
▁Period
▁Perl
▁Perle
▁Pers
▁Person
▁Personal
▁Personen
▁Persönlichkeit
▁Peru
▁Pes
▁Pest
▁Pet
▁Pete
▁Peter
▁Peters
▁Petersburg
▁Peti
▁Petit
▁Petr
▁Petra
▁Petri
▁Petro
▁Pf
▁Pfe
▁Pferd
▁Pferde
▁Pflanze
▁Pflanzen
▁Pflege
▁Pflicht
▁Ph
▁Phan
▁Phar
▁Pharma
▁Phase
▁Phil
▁Philadelphia
▁Philip
▁Philipp
▁Philippine
▁Philips
▁Philosoph
▁Phoenix
▁Phone
▁Photo
▁Photos
▁Photoshop
▁Physi
▁Pi
▁Pia
▁Pian
▁Piano
▁Pic
▁Pick
▁Picture
▁Pie
▁Pier
▁Pierre
▁Pik
▁Pil
▁Pill
▁Pilot
▁Pin
▁Pine
▁Ping
▁Pink
▁Pino
▁Pion
▁Pipe
▁Pir
▁Pirate
▁Pis
▁Pisa
▁Pitt
▁Pixel
▁Pizza
▁Pl
▁Pla
▁Place
▁Plak
▁Plan
▁Planet
▁Plans
▁Plant
▁Planung
▁Plasma
▁Plast
▁Plastik
▁Plat
▁Plata
▁Platform
▁Platin
▁Plato
▁Platte
▁Platten
▁Platz
▁Play
▁PlayStation
▁Player
▁Plaza
▁Ple
▁Plen
▁Plo
▁Plug
▁Plus
▁Plut
▁Po
▁Pocket
▁Pod
▁Podcast
▁Poet
▁Point
▁Points
▁Poker
▁Pol
▁Polar
▁Pole
▁Poli
▁Police
▁Policy
▁Polit
▁Politi
▁Politik
▁Polizei
▁Poll
▁Polo
▁Poly
▁Polyester
▁Pom
▁Pomp
▁Pompe
▁Pon
▁Pont
▁Ponte
▁Pool
▁Pop
▁Popul
▁Popular
▁Por
▁Porn
▁Porno
▁Porsche
▁Port
▁Porta
▁Portal
▁Porte
▁Portfolio
▁Porto
▁Portug
▁Portugal
▁Pos
▁Posi
▁Position
▁Positiv
▁Post
▁Poster
▁Pot
▁Poten
▁Poto
▁Potter
▁Pour
▁Power
▁PowerPoint
▁Pr
▁Pra
▁Practice
▁Prad
▁Prag
▁Prague
▁Praktik
▁Prat
▁Praxis
▁Pre
▁Pred
▁Preis
▁Premier
▁Premium
▁Pres
▁President
▁Press
▁Presse
▁Pri
▁Price
▁Prie
▁Prim
▁Prima
▁Prime
▁Prince
▁Princes
▁Print
▁Prior
▁Pris
▁Privat
▁Private
▁Pro
▁Prob
▁Probe
▁Problem
▁Process
▁Produ
▁Product
▁Production
▁Products
▁Produkt
▁Produkte
▁Produktion
▁Produktions
▁Prof
▁Profession
▁Professional
▁Professor
▁Profi
▁Profil
▁Profile
▁Profit
▁Program
▁Programm
▁Programme
▁Project
▁Projekt
▁Projekte
▁Promotion
▁Pron
▁Prop
▁Property
▁Pros
▁Prote
▁Protection
▁Protein
▁Protest
▁Provin
▁Provo
▁Prozess
▁Prä
▁Prüf
▁Prüfung
▁Pseudo
▁Psych
▁Psycho
▁Psycholog
▁Psychologi
▁Pu
▁Pub
▁Publi
▁Public
▁Publik
▁Publisher
▁Publishing
▁Pul
▁Pula
▁Pull
▁Puls
▁Pump
▁Punk
▁Punkt
▁Punkte
▁Pupp
▁Pur
▁Push
▁Put
▁Putin
▁Puzzle
▁Pyr
▁Python
▁Pä
▁Q
▁Qa
▁Qi
▁Qing
▁Qu
▁Qua
▁Quad
▁Quadra
▁Qual
▁Qualit
▁Quality
▁Qualität
▁Qualitäts
▁Quant
▁Quar
▁Quart
▁Que
▁Queen
▁Queens
▁Quell
▁Quelle
▁Quer
▁Quest
▁Qui
▁Quick
▁Quin
▁Quint
▁Quinta
▁Quo
▁Quote
▁R
▁RA
▁RAM
▁RC
▁RE
▁REM
▁RI
▁RM
▁RO
▁RS
▁RSS
▁RT
▁Ra
▁Rab
▁Rabatt
▁Race
▁Rach
▁Racing
▁Rack
▁Rad
▁Rade
▁Radi
▁Radio
▁Raf
▁Raff
▁Rag
▁Rahmen
▁Rai
▁Rail
▁Rain
▁Rak
▁Rally
▁Ram
▁Ramb
▁Ramp
▁Ran
▁Rand
▁Rang
▁Range
▁Rap
▁Rapid
▁Rapp
▁Ras
▁Rass
▁Rast
▁Rat
▁Rate
▁Rath
▁Rating
▁Ratt
▁Rau
▁Rauch
▁Raum
▁Raven
▁Ray
▁Raz
▁Re
▁Read
▁Reader
▁Reading
▁Real
▁Reality
▁Reb
▁Rebel
▁Rec
▁Rechnung
▁Recht
▁Rechts
▁Record
▁Records
▁Red
▁Redak
▁Redaktion
▁Rede
▁Redu
▁Reed
▁Ref
▁Refer
▁Referen
▁Referenz
▁Reflex
▁Reform
▁Reg
▁Regal
▁Regel
▁Regen
▁Regi
▁Regierung
▁Regierungs
▁Region
▁Regional
▁Register
▁Registr
▁Regl
▁Regul
▁Regula
▁Reh
▁Rei
▁Reich
▁Reichs
▁Reifen
▁Reim
▁Rein
▁Reinigung
▁Reinigungs
▁Reis
▁Reise
▁Reit
▁Reklam
▁Rekord
▁Rela
▁Relations
▁Relax
▁Release
▁Reli
▁Religion
▁Rem
▁Ren
▁Renault
▁Rend
▁Renn
▁Reno
▁Renov
▁Rent
▁Rep
▁Reparatur
▁Report
▁Reporter
▁Republik
▁Res
▁Research
▁Reserv
▁Reserva
▁Reserve
▁Residence
▁Resort
▁Resource
▁Ressource
▁Rest
▁Restaur
▁Restaurant
▁Restaurants
▁Resultat
▁Retail
▁Retro
▁Rett
▁Rettungs
▁Return
▁Revi
▁Review
▁Revision
▁Revolution
▁Rex
▁Rey
▁Rez
▁Rezept
▁Rhe
▁Rhein
▁Rhod
▁Ri
▁Ria
▁Rib
▁Rica
▁Ricc
▁Rice
▁Rich
▁Richard
▁Richt
▁Richter
▁Rick
▁Rico
▁Rie
▁Ries
▁Riesen
▁Rif
▁Rig
▁Rij
▁Rik
▁Rin
▁Rind
▁Ring
▁Rio
▁Rip
▁Ripp
▁Ris
▁Risik
▁Risiko
▁Risk
▁Rit
▁Riva
▁River
▁Ro
▁Road
▁Rob
▁Robb
▁Robert
▁Robin
▁Robinson
▁Robot
▁Roc
▁Roch
▁Roche
▁Rock
▁Rod
▁Rode
▁Rog
▁Roger
▁Roh
▁Rohr
▁Rok
▁Rol
▁Roll
▁Rolle
▁Rollen
▁Rom
▁Roma
▁Roman
▁Romano
▁Rome
▁Ron
▁Ronald
▁Rond
▁Roo
▁Room
▁Rooms
▁Roos
▁Root
▁Ros
▁Rosa
▁Rose
▁Rosen
▁Ross
▁Rossi
▁Rot
▁Rota
▁Rote
▁Roth
▁Roto
▁Rotterdam
▁Rou
▁Rouge
▁Round
▁Rouss
▁Rout
▁Route
▁Rov
▁Rover
▁Row
▁Rox
▁Roy
▁Royal
▁Ru
▁Rub
▁Rubin
▁Rud
▁Rue
▁Ruf
▁Rug
▁Ruh
▁Rui
▁Rum
▁Run
▁Rund
▁Rup
▁Rus
▁Russ
▁Russian
▁Rut
▁Ry
▁Ryan
▁Rä
▁Ré
▁Rí
▁Rö
▁Rü
▁Rück
▁Rücken
▁S
▁SA
▁SAP
▁SAS
▁SAT
▁SAVE
▁SC
▁SCH
▁SD
▁SE
▁SEK
▁SEO
▁SI
▁SIE
▁SIM
▁SIS
▁SL
▁SMS
▁SN
▁SO
▁SOL
▁SP
▁SPA
▁SPD
▁SQL
▁SS
▁ST
▁STE
▁STO
▁SW
▁SYN
▁Sa
▁Saa
▁Saal
▁Saar
▁Saat
▁Sab
▁Sac
▁Sach
▁Sachs
▁Sachsen
▁Sacr
▁Sad
▁Saf
▁Safari
▁Safe
▁Safety
▁Sag
▁Saga
▁Sai
▁Saint
▁Saison
▁Sak
▁Sal
▁Sala
▁Salam
▁Salat
▁Sale
▁Sales
▁Sali
▁Salin
▁Salo
▁Salon
▁Salt
▁Salvador
▁Salz
▁Salzburg
▁Sam
▁Samba
▁Samm
▁Samo
▁Samsung
▁Samuel
▁San
▁Sand
▁Sander
▁Sang
▁Sanit
▁Sankt
▁Sans
▁Sant
▁Santa
▁Santiago
▁Santo
▁Sao
▁Sar
▁Sara
▁Sarah
▁Sard
▁Sardi
▁Sarg
▁Sass
▁Sat
▁Satan
▁Satellite
▁Saturn
▁Sau
▁Saudi
▁Sauer
▁Sauna
▁Sav
▁Save
▁Savo
▁Sc
▁Scal
▁Scan
▁Scar
▁Sch
▁Scha
▁Schach
▁Schade
▁Schaden
▁Schaf
▁Schal
▁Schall
▁Schalt
▁Schar
▁Schatten
▁Schau
▁Schauspiel
▁Sche
▁Schei
▁Schein
▁Schel
▁Schem
▁Schen
▁Scher
▁Schi
▁Schic
▁Schie
▁Schiff
▁Schild
▁Schin
▁Schl
▁Schlaf
▁Schlag
▁Schle
▁Schloss
▁Schluss
▁Schlüssel
▁Schm
▁Schmerz
▁Schmid
▁Schmidt
▁Schmie
▁Schmuck
▁Schn
▁Schna
▁Schnee
▁Schneid
▁Schneider
▁Schnell
▁Schnitt
▁Scho
▁Schokolade
▁Schol
▁School
▁Schr
▁Schra
▁Schreib
▁Schrift
▁Schro
▁Schu
▁Schub
▁Schuh
▁Schuhe
▁Schul
▁Schuld
▁Schulter
▁Schutz
▁Schw
▁Schwa
▁Schwan
▁Schwangerschaft
▁Schwarz
▁Schwarzen
▁Schwe
▁Schwein
▁Schweiz
▁Schwer
▁Schwimm
▁Schä
▁Schö
▁Schön
▁Schü
▁Schüler
▁Schützen
▁Sci
▁Science
▁Sciences
▁Scient
▁Score
▁Scott
▁Screen
▁Screenshot
▁Script
▁Se
▁Sea
▁Search
▁Seattle
▁Sebastian
▁Sech
▁Second
▁Secure
▁Securit
▁Security
▁Sed
▁See
▁Seg
▁Segment
▁Seh
▁Sei
▁Seil
▁Sein
▁Seit
▁Seite
▁Seiten
▁Sekret
▁Sekt
▁Sekund
▁Sel
▁Selbst
▁Select
▁Self
▁Selv
▁Semi
▁Seminar
▁Sen
▁Senat
▁Send
▁Senior
▁Senioren
▁Sensi
▁Sensor
▁Seoul
▁Sep
▁September
▁Ser
▁Serb
▁Serbi
▁Serge
▁Seri
▁Serie
▁Serien
▁Series
▁Serra
▁Server
▁Service
▁Services
▁Session
▁Set
▁Sets
▁Seu
▁Seven
▁Sever
▁Sevilla
▁Sex
▁Sexual
▁Sh
▁Sha
▁Shakespeare
▁Sham
▁Shanghai
▁Share
▁She
▁Shel
▁Shell
▁Shi
▁Shift
▁Shin
▁Sho
▁Shoot
▁Shop
▁Shopping
▁Short
▁Show
▁Shu
▁Si
▁Sibi
▁Sicher
▁Sicherheit
▁Sicherheits
▁Sicherung
▁Sidd
▁Side
▁Sie
▁Sieg
▁Siege
▁Siemens
▁Sig
▁Sign
▁Signal
▁Signatur
▁Sil
▁Silber
▁Sili
▁Silikon
▁Silk
▁Silva
▁Silver
▁Silvest
▁Silvi
▁Sim
▁Simb
▁Simon
▁Simple
▁Simpson
▁Sin
▁Sina
▁Sind
▁Singapore
▁Singapur
▁Singh
▁Single
▁Sinn
▁Sir
▁Sit
▁Site
▁Sites
▁Situ
▁Sitz
▁Six
▁Siz
▁Sjö
▁Sk
▁Ska
▁Skal
▁Skel
▁Sketch
▁Ski
▁Skin
▁Skip
▁Skri
▁Sky
▁Skype
▁Sla
▁Slot
▁Slots
▁Slow
▁Small
▁Smart
▁Smartphone
▁Smith
▁Snow
▁Snowboard
▁So
▁Social
▁Society
▁Sock
▁Sofa
▁Sofi
▁Sofia
▁Soft
▁Software
▁Soh
▁Sok
▁Sol
▁Solar
▁Sole
▁Solid
▁Solidar
▁Soll
▁Solo
▁Solution
▁Solutions
▁Solv
▁Som
▁Some
▁Sommer
▁Son
▁Sonder
▁Song
▁Songs
▁Sonne
▁Sonnen
▁Sonntag
▁Sony
▁Sophi
▁Sor
▁Sorg
▁Sort
▁Sou
▁Soul
▁Sound
▁Source
▁South
▁Sow
▁Sozi
▁Sozial
▁Sp
▁Spa
▁Space
▁Spal
▁Span
▁Spani
▁Spanien
▁Spann
▁Spannung
▁Spar
▁Spark
▁Spart
▁Spe
▁Spec
▁Special
▁Speed
▁Speicher
▁Spek
▁Spende
▁Sper
▁Spezi
▁Spezial
▁Spi
▁Spiegel
▁Spiel
▁Spiele
▁Spieler
▁Spin
▁Spinn
▁Spirit
▁Spiritu
▁Spiritual
▁Spit
▁Spitz
▁Spitze
▁Spitzen
▁Split
▁Spo
▁Sponsor
▁Sport
▁Sports
▁Spot
▁Spr
▁Sprach
▁Spre
▁Spring
▁Springs
▁Sprit
▁Spru
▁Spur
▁Spy
▁Square
▁Sri
▁St
▁Sta
▁Staat
▁Staats
▁Stab
▁Stabil
▁Stabili
▁Stad
▁Stadi
▁Stadion
▁Stadium
▁Stadt
▁Staff
▁Stag
▁Stage
▁Stahl
▁Stalin
▁Stall
▁Stamm
▁Stan
▁Stand
▁Standard
▁Standards
▁Standart
▁Standort
▁Stap
▁Star
▁Stark
▁Stars
▁Start
▁Starter
▁Startseite
▁Stat
▁State
▁Statement
▁States
▁Stati
▁Station
▁Statist
▁Statistik
▁Statu
▁Status
▁Stau
▁Staub
▁Stay
▁Ste
▁Steck
▁Steel
▁Stefan
▁Steg
▁Stei
▁Stein
▁Stell
▁Stella
▁Stelle
▁Stellen
▁Sten
▁Step
▁Stephan
▁Stephen
▁Ster
▁Stereo
▁Stern
▁Sterne
▁Sternen
▁Steuer
▁Steve
▁Steven
▁Stevens
▁Stewart
▁Sti
▁Stick
▁Stift
▁Stig
▁Stil
▁Still
▁Stimm
▁Stir
▁Sto
▁Stock
▁Stockholm
▁Stoff
▁Stol
▁Stone
▁Stop
▁Stor
▁Store
▁Story
▁Str
▁Stra
▁Straf
▁Strand
▁Strass
▁Strat
▁Strategi
▁Strategie
▁Strau
▁Straße
▁Straßen
▁Stre
▁Stream
▁Streaming
▁Street
▁Stress
▁Stri
▁Strick
▁String
▁Stro
▁Strom
▁Stru
▁Struktur
▁Ström
▁Stu
▁Stub
▁Stud
▁Student
▁Studenten
▁Studi
▁Studie
▁Studien
▁Studies
▁Studio
▁Studios
▁Stuf
▁Stunde
▁Stunden
▁Stur
▁Stuttgart
▁Style
▁Stä
▁Städte
▁Stö
▁Su
▁Sub
▁Substan
▁Such
▁Sud
▁Suf
▁Suite
▁Suites
▁Sul
▁Sultan
▁Sum
▁Summe
▁Summer
▁Sun
▁Sunday
▁Super
▁Superior
▁Supermark
▁Supp
▁Support
▁Supra
▁Sur
▁Surf
▁Survey
▁Sus
▁Susan
▁Sven
▁Swing
▁Swiss
▁Switch
▁Switzerland
▁Sy
▁Sydney
▁Syl
▁Sym
▁Symb
▁Symbol
▁Symp
▁Syn
▁Sync
▁Synt
▁Syri
▁System
▁Systems
▁Szen
▁Sánchez
▁Sä
▁Sö
▁Söder
▁Sü
▁Süd
▁T
▁TA
▁TB
▁THB
▁THE
▁TO
▁TOP
▁TR
▁TRA
▁TU
▁TV
▁Ta
▁Tab
▁Tabak
▁Tabelle
▁Tabellen
▁Table
▁Tablet
▁Tabu
▁Tach
▁Tad
▁Tag
▁Tage
▁Tages
▁Tags
▁Tai
▁Taiwan
▁Tak
▁Take
▁Tal
▁Tala
▁Talent
▁Talk
▁Tallinn
▁Tam
▁Tamil
▁Tan
▁Tang
▁Tank
▁Tanz
▁Tao
▁Tap
▁Tapa
▁Tape
▁Tar
▁Tara
▁Tarif
▁Tarn
▁Tas
▁Tasche
▁Taschen
▁Task
▁Tass
▁Tat
▁Tata
▁Tau
▁Tauch
▁Taur
▁Tax
▁Taxi
▁Tay
▁Taylor
▁Te
▁Tea
▁Team
▁Tech
▁Technik
▁Techno
▁Technologie
▁Technologies
▁Technology
▁Tee
▁Teil
▁Teilnehmer
▁Tel
▁Tele
▁Telefon
▁Telekom
▁Tem
▁Temper
▁Temperatur
▁Temperatura
▁Template
▁Temple
▁Tempo
▁Ten
▁Tende
▁Tener
▁Tennis
▁Ter
▁Teras
▁Terme
▁Termin
▁Terminal
▁Terra
▁Terrac
▁Terrasse
▁Terre
▁Territori
▁Terror
▁Terroris
▁Tess
▁Test
▁Testament
▁Teu
▁Tex
▁Texas
▁Text
▁Textil
▁Th
▁Tha
▁Thai
▁Thailand
▁Thal
▁That
▁The
▁Theater
▁Theatre
▁Theme
▁Themen
▁Theo
▁Theodor
▁Therapie
▁There
▁Therm
▁Thermo
▁Thi
▁Think
▁This
▁Thom
▁Thomas
▁Thompson
▁Thor
▁Thread
▁Thu
▁Thy
▁Ti
▁Tib
▁Tibet
▁Ticket
▁Tickets
▁Tief
▁Tier
▁Tiger
▁Til
▁Tim
▁Time
▁Times
▁Timo
▁Tin
▁Tint
▁Tipp
▁Tips
▁Tir
▁Tiro
▁Tisch
▁Titan
▁Titel
▁Title
▁To
▁Tobi
▁Tod
▁Toki
▁Tokyo
▁Tol
▁Toll
▁Tom
▁Tomat
▁Ton
▁Toni
▁Tool
▁Tools
▁Top
▁Tor
▁Tore
▁Torna
▁Toronto
▁Torre
▁Torres
▁Tort
▁Total
▁Tote
▁Touch
▁Tour
▁Tourism
▁Tourismus
▁Tourist
▁Tours
▁Tower
▁Town
▁Toyota
▁Tr
▁Tra
▁Trac
▁Track
▁Trade
▁Trading
▁Tradition
▁Trag
▁Trage
▁Trailer
▁Train
▁Trainer
▁Training
▁Trainings
▁Tram
▁Tran
▁Trans
▁Transfer
▁Transformation
▁Transit
▁Translation
▁Transparen
▁Transplant
▁Transport
▁Transporte
▁Trap
▁Tras
▁Trau
▁Traum
▁Trauma
▁Travel
▁Tre
▁Tree
▁Trei
▁Trek
▁Tren
▁Trend
▁Trends
▁Trent
▁Tri
▁Trib
▁Trich
▁Trick
▁Trink
▁Trio
▁Trip
▁Trist
▁Tro
▁Trocken
▁Troi
▁Trojan
▁Troll
▁Trop
▁Trot
▁Tru
▁True
▁Trump
▁Trust
▁Try
▁Trä
▁Tsch
▁Tu
▁Tube
▁Tug
▁Tum
▁Tun
▁Tune
▁Tunnel
▁Tur
▁Turbo
▁Turk
▁Turm
▁Turn
▁Turnier
▁Tus
▁Tutorial
▁Twin
▁Twitter
▁Two
▁Ty
▁Typ
▁Type
▁Tyr
▁TÜ
▁Tä
▁Tö
▁Tü
▁Tür
▁Türk
▁U
▁UC
▁UK
▁UL
▁UM
▁UN
▁UND
▁UNESCO
▁UNI
▁UP
▁UPS
▁URL
▁US
▁USA
▁USB
▁USD
▁UV
▁Uber
▁Ud
▁Uhr
▁Ukraine
▁Ul
▁Ultra
▁Um
▁Umbr
▁Umgebung
▁Umsatz
▁Umwelt
▁Un
▁Una
▁Und
▁Under
▁Une
▁Unfall
▁Ung
▁Unge
▁Uni
▁Uniform
▁Union
▁Unit
▁United
▁Univers
▁Universal
▁University
▁Universität
▁Unter
▁Unterhaltung
▁Unterk
▁Unternehmen
▁Unternehmens
▁Unterrichts
▁Unterstütz
▁Untersuchung
▁Up
▁Update
▁Updates
▁Ur
▁Uran
▁Urban
▁Urhe
▁Urlaub
▁Urlaubs
▁Uruguay
▁Us
▁Use
▁User
▁Ut
▁V
▁VER
▁VI
▁VII
▁VIII
▁VIP
▁VIS
▁VM
▁VN
▁VP
▁VR
▁VW
▁Va
▁Vad
▁Vakuu
▁Val
▁Vald
▁Valencia
▁Valentin
▁Valid
▁Valk
▁Vall
▁Valle
▁Valley
▁Value
▁Van
▁Vancouver
▁Var
▁Vari
▁Variant
▁Vas
▁Vat
▁Ve
▁Ved
▁Vegas
▁Vegeta
▁Vegetari
▁Vel
▁Velo
▁Ven
▁Vend
▁Vene
▁Venet
▁Venezia
▁Venezuela
▁Vent
▁Ventil
▁Ventilat
▁Venus
▁Ver
▁Vera
▁Veranstalt
▁Veranstaltung
▁Verb
▁Verbindung
▁Verbrauch
▁Verbraucher
▁Verd
▁Verda
▁Verde
▁Verdi
▁Verein
▁Vereins
▁Verfahren
▁Verfass
▁Verg
▁Verge
▁Vergleich
▁Vergleichs
▁Verhalten
▁Verhandlung
▁Verk
▁Verkauf
▁Verkaufs
▁Verkehr
▁Verkehrs
▁Verlag
▁Verme
▁Vermi
▁Vermögens
▁Verne
▁Verpackung
▁Vers
▁Versa
▁Versand
▁Versch
▁Verse
▁Versi
▁Versicher
▁Versicherung
▁Versicherungs
▁Version
▁Versorgung
▁Verst
▁Vert
▁Verte
▁Verteidigung
▁Vertrag
▁Vertrags
▁Vertrieb
▁Vertriebs
▁Verw
▁Verwaltung
▁Verwaltungs
▁Verze
▁Ves
▁Vet
▁Veteran
▁Veterin
▁Vi
▁Via
▁Vic
▁Vice
▁Vicen
▁Victor
▁Victoria
▁Vida
▁Video
▁Videos
▁Vie
▁Viel
▁Vienna
▁Vier
▁Vietnam
▁View
▁Vign
▁Vigo
▁Viktor
▁Vil
▁Vila
▁Villa
▁Village
▁Villas
▁Ville
▁Vilnius
▁Vin
▁Vincent
▁Viol
▁Vir
▁Virgin
▁Virginia
▁Virtu
▁Virtual
▁Virus
▁Vis
▁Visa
▁Visi
▁Vision
▁Visit
▁Vista
▁Visual
▁Vit
▁Vita
▁Vital
▁Vitamin
▁Viva
▁Viz
▁Vladimir
▁Vo
▁Vog
▁Vogel
▁Voi
▁Voice
▁Voj
▁Vok
▁Vol
▁Volk
▁Volks
▁Volkswagen
▁Voll
▁Volt
▁Volta
▁Volume
▁Von
▁Vor
▁Vorbe
▁Vorder
▁Vos
▁Vot
▁Vulkan
▁Vá
▁Vä
▁Vö
▁W
▁WA
▁WC
▁WD
▁WE
▁WEB
▁WI
▁WLAN
▁WM
▁Wa
▁Wach
▁Wachstum
▁Wad
▁Waffen
▁Wag
▁Wagner
▁Wah
▁Wahl
▁Wai
▁Wal
▁Wald
▁Wales
▁Walk
▁Wall
▁Walt
▁Walter
▁Wan
▁Wand
▁Wander
▁Wang
▁Wann
▁War
▁Ware
▁Waren
▁Warm
▁Warn
▁Wars
▁Wart
▁Was
▁Wasch
▁Washington
▁Wasser
▁Wat
▁Watch
▁Water
▁Watt
▁Wave
▁Way
▁We
▁Web
▁Weber
▁Website
▁Wechsel
▁Week
▁Weg
▁Wei
▁Weid
▁Weihnacht
▁Weihnachts
▁Wein
▁Weis
▁Weiss
▁Weiter
▁Weiterbildung
▁Weiß
▁Wel
▁Well
▁Wellen
▁Wellness
▁Welt
▁Wen
▁Wend
▁Wende
▁Wer
▁Werbe
▁Werk
▁Werkzeug
▁Wert
▁Wes
▁West
▁Western
▁Wett
▁Wettbewerb
▁Wetter
▁What
▁Whit
▁White
▁Who
▁Wi
▁WiFi
▁Wich
▁Wick
▁Wid
▁Wide
▁Wider
▁Wie
▁Wieder
▁Wien
▁Wies
▁Wij
▁Wiki
▁Wikipedia
▁Wil
▁Wild
▁Wilhelm
▁Will
▁Willi
▁William
▁Williams
▁Wilson
▁Wim
▁Win
▁Wind
▁Window
▁Windows
▁Wine
▁Winkel
▁Winter
▁Wir
▁Wireless
▁Wirk
▁Wirtschaft
▁Wirtschafts
▁Wissen
▁Wissens
▁Wissenschaft
▁Wit
▁With
▁Witte
▁Wo
▁Woche
▁Wochen
▁Woh
▁Wohl
▁Wohn
▁Wohnung
▁Wohnungs
▁Wol
▁Wolf
▁Woll
▁Women
▁Wonder
▁Wood
▁Woods
▁Wor
▁Word
▁WordPress
▁Work
▁Workshop
▁World
▁Wort
▁Wu
▁Wul
▁Wunder
▁Wunsch
▁Wur
▁Wy
▁Wyn
▁Wä
▁Wärme
▁Wür
▁X
▁XI
▁XIII
▁XL
▁XML
▁XP
▁XV
▁XVI
▁Xe
▁Xi
▁Xiao
▁Xin
▁Y
▁YOU
▁Ya
▁Yahoo
▁Yan
▁Yang
▁Yar
▁Ye
▁Year
▁Yen
▁Yes
▁Yi
▁Yo
▁Yoga
▁York
▁You
▁YouTube
▁Young
▁Your
▁Yu
▁Yuan
▁Z
▁ZU
▁Za
▁Zahl
▁Zahlung
▁Zahlungs
▁Zahn
▁Zan
▁Zapat
▁Zar
▁Zara
▁Zauber
▁Ze
▁Zeh
▁Zeit
▁Zeitung
▁Zel
▁Zell
▁Zen
▁Zentr
▁Zentral
▁Zer
▁Zero
▁Zeu
▁Zi
▁Zie
▁Zieg
▁Ziel
▁Zig
▁Zimmer
▁Zin
▁Zip
▁Zir
▁Ziv
▁Zo
▁Zoll
▁Zone
▁Zoo
▁Zoom
▁Zor
▁Zu
▁Zubehör
▁Zucker
▁Zug
▁Zukunft
▁Zum
▁Zun
▁Zur
▁Zusammen
▁Zusatz
▁Zw
▁Zwe
▁Zwei
▁Zweit
▁Zwie
▁Zwischen
▁Zy
▁Zü
▁[
▁`
▁aan
▁ab
▁abba
▁aber
▁abg
▁abge
▁abonn
▁about
▁above
▁abs
▁absolut
▁absolv
▁absorb
▁abstrakt
▁absurd
▁abzu
▁ac
▁acc
▁accept
▁access
▁accommodation
▁account
▁achte
▁acquis
▁action
▁active
▁activities
▁ad
▁adapt
▁add
▁address
▁adidas
▁administrativ
▁adopt
▁adress
▁adult
▁af
▁after
▁ag
▁again
▁ago
▁ah
▁ai
▁air
▁airport
▁ak
▁akademi
▁akku
▁aktiv
▁aktive
▁aktual
▁aku
▁akut
▁al
▁alarm
▁alban
▁alg
▁alkohol
▁all
▁alla
▁alle
▁allen
▁aller
▁allergi
▁alles
▁allt
▁alpin
▁als
▁also
▁alt
▁alte
▁alter
▁altern
▁alternativ
▁alternative
▁am
▁amazing
▁ambi
▁an
▁analog
▁analys
▁analyti
▁and
▁ander
▁andere
▁anders
▁ang
▁ange
▁angel
▁anh
▁anim
▁ank
▁anmelde
▁ann
▁annul
▁anonym
▁ans
▁ansehen
▁anti
▁antik
▁antisemit
▁any
▁anzeigen
▁anzu
▁ap
▁apartment
▁apo
▁appartement
▁appell
▁application
▁apt
▁ar
▁arab
▁arch
▁architekt
▁archiv
▁archive
▁are
▁area
▁arg
▁argentin
▁argument
▁ark
▁arm
▁arme
▁armen
▁aromat
▁around
▁arrive
▁art
▁artikul
▁artist
▁as
▁asia
▁asiat
▁ask
▁aspect
▁ass
▁assist
▁astronom
▁at
▁atom
▁att
▁attack
▁au
▁audio
▁auf
▁aufge
▁aufzu
▁aug
▁augu
▁aus
▁auseinander
▁ausge
▁aussi
▁australi
▁auszu
▁authenti
▁author
▁auto
▁automat
▁automatis
▁autonom
▁autor
▁autorit
▁aux
▁av
▁available
▁avanc
▁avant
▁away
▁años
▁b
▁ba
▁baby
▁back
▁bad
▁bain
▁bajo
▁balcon
▁bald
▁ball
▁balt
▁banal
▁bank
▁bar
▁barbar
▁baro
▁bars
▁bas
▁base
▁basi
▁bask
▁bat
▁bath
▁bathroom
▁bau
▁bay
▁be
▁beach
▁bean
▁beau
▁beautiful
▁bed
▁beda
▁bede
▁bedien
▁bedro
▁bedroom
▁beds
▁been
▁bef
▁befa
▁before
▁beg
▁bega
▁bege
▁begin
▁beginn
▁begr
▁beh
▁beha
▁behandel
▁behar
▁behe
▁bei
▁beige
▁bein
▁bek
▁bekle
▁bekomm
▁bel
▁belang
▁belast
▁bele
▁beleg
▁beleid
▁belgi
▁beli
▁belle
▁belo
▁below
▁bem
▁ben
▁bene
▁ber
▁bera
▁berat
▁bere
▁bericht
▁besch
▁bese
▁besi
▁beso
▁best
▁bestand
▁beste
▁bestellen
▁bestem
▁bet
▁beton
▁betra
▁better
▁bev
▁bew
▁bewe
▁beweg
▁bez
▁bi
▁bibli
▁bieg
▁bien
▁big
▁bij
▁bild
▁billig
▁bin
▁bind
▁binnen
▁bio
▁biologi
▁bir
▁bis
▁bish
▁bist
▁bit
▁bitte
▁bitter
▁bl
▁blas
▁blau
▁ble
▁blind
▁blo
▁blog
▁blu
▁blue
▁bo
▁board
▁bombard
▁bon
▁bonus
▁book
▁booking
▁books
▁boom
▁boot
▁bord
▁bos
▁bot
▁botani
▁both
▁box
▁boy
▁br
▁bra
▁brand
▁brasil
▁break
▁breakfast
▁brenn
▁bring
▁brit
▁brutal
▁bu
▁buddh
▁budget
▁building
▁bulgar
▁bun
▁bunt
▁bur
▁bus
▁business
▁but
▁by
▁bö
▁bör
▁bün
▁c
▁ca
▁cache
▁cada
▁cafe
▁call
▁came
▁camera
▁camping
▁can
▁cap
▁capital
▁car
▁card
▁care
▁carte
▁cas
▁casa
▁case
▁casino
▁ce
▁center
▁central
▁centre
▁centro
▁century
▁cet
▁ch
▁cha
▁chale
▁chambre
▁chance
▁change
▁chao
▁charakter
▁charge
▁charm
▁chat
▁che
▁cheap
▁check
▁chemi
▁chi
▁children
▁chirurgi
▁choice
▁christ
▁chrom
▁chroni
▁ci
▁circ
▁city
▁class
▁classic
▁clean
▁clear
▁click
▁client
▁clients
▁climat
▁close
▁club
▁cm
▁co
▁code
▁coffee
▁col
▁cold
▁collection
▁color
▁come
▁comfort
▁comfortable
▁comme
▁comment
▁commercial
▁common
▁como
▁company
▁complete
▁complex
▁compliment
▁computer
▁con
▁condition
▁conditions
▁confort
▁connection
▁consider
▁contact
▁continue
▁contra
▁control
▁convenient
▁convert
▁cool
▁correct
▁cost
▁countries
▁country
▁couple
▁cour
▁course
▁court
▁cre
▁create
▁credit
▁cross
▁cré
▁cu
▁cuenta
▁cuisine
▁cultural
▁culture
▁current
▁d
▁da
▁dage
▁dal
▁dama
▁dami
▁dan
▁dank
▁dann
▁dans
▁dar
▁dara
▁dari
▁das
▁dat
▁data
▁database
▁date
▁dato
▁dau
▁davo
▁day
▁days
▁de
▁debatt
▁decor
▁decorat
▁defekt
▁defin
▁define
▁defini
▁definition
▁definitiv
▁degrad
▁deklar
▁dekor
▁del
▁deleg
▁delikat
▁dell
▁dem
▁demografi
▁demokrat
▁demokrati
▁demonstr
▁den
▁denk
▁denn
▁deport
▁der
▁des
▁design
▁desk
▁destru
▁det
▁detail
▁deutsch
▁development
▁deze
▁dh
▁di
▁dia
▁diagnosti
▁dich
▁dicht
▁dick
▁did
▁die
▁dienst
▁dies
▁diese
▁diesel
▁different
▁differenz
▁difficult
▁diffus
▁digital
▁dikt
▁diktator
▁din
▁diplomat
▁diplomati
▁dir
▁direct
▁direction
▁direkt
▁dis
▁diskre
▁diskrimin
▁diskut
▁dispos
▁distan
▁distance
▁district
▁div
▁divers
▁diversifi
▁do
▁doch
▁document
▁dogmat
▁dokument
▁domain
▁domin
▁dominant
▁don
▁done
▁door
▁dos
▁dot
▁double
▁douche
▁down
▁download
▁dr
▁dra
▁dramat
▁dramati
▁dran
▁drast
▁drei
▁drin
▁drink
▁drive
▁dro
▁du
▁dual
▁due
▁dul
▁dunk
▁duplica
▁dur
▁durch
▁durchge
▁dynam
▁dynami
▁dys
▁dé
▁déc
▁déco
▁dü
▁dün
▁eBay
▁easy
▁eat
▁eben
▁edit
▁een
▁effektiv
▁egal
▁ehe
▁ei
▁eigen
▁ein
▁eind
▁eine
▁einge
▁einh
▁eins
▁einst
▁einz
▁einzu
▁el
▁elast
▁elegant
▁elektro
▁elektromagnet
▁elektron
▁elektroni
▁elementar
▁elf
▁elimin
▁elit
▁else
▁em
▁email
▁emerge
▁emit
▁emp
▁empf
▁empfehlen
▁empir
▁en
▁end
▁energet
▁energi
▁energie
▁eng
▁engag
▁engen
▁english
▁enjoy
▁entf
▁entgegen
▁entre
▁entri
▁entz
▁environment
▁epi
▁epidemiolog
▁er
▁era
▁erg
▁erga
▁ergonomi
▁erre
▁erreich
▁erst
▁erw
▁es
▁escal
▁eskal
▁essen
▁essenti
▁est
▁esta
▁este
▁está
▁et
▁etabl
▁etc
▁ethn
▁eu
▁euro
▁europa
▁euros
▁evaku
▁evalu
▁evangeli
▁even
▁event
▁events
▁eventu
▁ever
▁every
▁everything
▁evolution
▁ex
▁example
▁excellent
▁exception
▁exist
▁existen
▁existent
▁exo
▁exp
▁expand
▁expansi
▁expect
▁experience
▁experiment
▁explosi
▁export
▁extensi
▁extern
▁extra
▁extrem
▁extreme
▁eye
▁f
▁fa
▁face
▁fach
▁facilit
▁facilities
▁fact
▁facto
▁fair
▁fait
▁fakt
▁fakult
▁fall
▁fals
▁famili
▁familia
▁familien
▁family
▁fan
▁fand
▁fantastic
▁fantastis
▁far
▁farb
▁fas
▁fast
▁fatal
▁favor
▁fax
▁fe
▁features
▁feder
▁feel
▁fein
▁fel
▁felt
▁feminist
▁fer
▁fest
▁feste
▁fett
▁feu
▁fi
▁fiel
▁field
▁fik
▁file
▁files
▁film
▁filter
▁fin
▁final
▁finanz
▁finanzi
▁find
▁finde
▁fine
▁finn
▁fins
▁firm
▁first
▁fisk
▁fit
▁five
▁fix
▁fl
▁fla
▁flank
▁flash
▁flat
▁fle
▁flexib
▁flo
▁floor
▁flor
▁flott
▁flu
▁fokus
▁fol
▁folg
▁follow
▁food
▁foot
▁for
▁force
▁form
▁forma
▁formal
▁format
▁formul
▁fort
▁foto
▁fotograf
▁fotografie
▁found
▁four
▁fr
▁fra
▁frag
▁fragment
▁frakt
▁fre
▁free
▁frei
▁frem
▁frequent
▁fres
▁fresh
▁freu
▁friend
▁friendly
▁friends
▁fro
▁from
▁front
▁fru
▁fruit
▁frustr
▁fu
▁fue
▁fuer
▁full
▁fun
▁function
▁fund
▁fundamental
▁fung
▁funk
▁funktion
▁funktionier
▁funktions
▁fur
▁furni
▁furniture
▁fusion
▁future
▁fö
▁föd
▁för
▁fü
▁für
▁gab
▁gal
▁gali
▁gallery
▁game
▁games
▁gan
▁gang
▁gar
▁garant
▁garanti
▁garden
▁gas
▁gast
▁gastronomi
▁gau
▁gave
▁ge
▁gear
▁geb
▁gebe
▁gebr
▁ged
▁gede
▁gee
▁gef
▁gefa
▁gegen
▁geh
▁geha
▁gehe
▁geho
▁gek
▁geko
▁gel
▁geld
▁gele
▁gelin
▁gelo
▁gem
▁gema
▁gemi
▁gen
▁gene
▁gener
▁general
▁geneti
▁genial
▁genie
▁geno
▁genu
▁geo
▁geografi
▁geometri
▁gepa
▁gepr
▁ger
▁gera
▁gere
▁geri
▁german
▁ges
▁gesch
▁gesche
▁geschi
▁gesp
▁gest
▁gesta
▁gestalt
▁gesti
▁gesto
▁get
▁geta
▁gew
▁gewa
▁gewe
▁gewo
▁gez
▁geze
▁gezi
▁gi
▁gib
▁gift
▁gigant
▁ging
▁give
▁gl
▁glas
▁glei
▁gleich
▁gli
▁global
▁glü
▁go
▁goed
▁gold
▁golden
▁golf
▁good
▁got
▁gr
▁gran
▁grand
▁grande
▁grandi
▁graph
▁gratis
▁gratul
▁grau
▁grav
▁gravi
▁great
▁green
▁gri
▁grie
▁gro
▁grob
▁gross
▁grote
▁group
▁groß
▁grund
▁grupp
▁grö
▁grün
▁gu
▁guest
▁guide
▁gut
▁gä
▁gül
▁h
▁ha
▁haar
▁hab
▁habe
▁haben
▁habitaciones
▁hace
▁hacer
▁had
▁haft
▁hair
▁hal
▁half
▁hall
▁halt
▁han
▁hand
▁handel
▁handels
▁handle
▁happen
▁happy
▁har
▁hard
▁harm
▁harmoni
▁harmonis
▁hart
▁has
▁hast
▁hat
▁haus
▁haut
▁have
▁hay
▁he
▁head
▁hear
▁heart
▁heb
▁hef
▁hei
▁heik
▁heil
▁heim
▁hekt
▁held
▁hell
▁help
▁helpful
▁hemm
▁her
▁heran
▁heraus
▁here
▁herk
▁herr
▁herum
▁herunter
▁hervor
▁herz
▁het
▁heterog
▁heu
▁hi
▁hier
▁hierarch
▁high
▁him
▁hin
▁hina
▁hinaus
▁hind
▁hinein
▁hinge
▁hint
▁hinter
▁hinzu
▁his
▁historic
▁history
▁hitz
▁ho
▁hoch
▁hol
▁holiday
▁home
▁homogen
▁homosexu
▁honor
▁horizontal
▁hormon
▁host
▁hostel
▁hot
▁hotel
▁hotels
▁hour
▁hours
▁house
▁how
▁hr
▁http
▁human
▁humanit
▁humor
▁hybrid
▁hydrauli
▁hydro
▁hygien
▁hyper
▁hypothe
▁hä
▁här
▁hö
▁höf
▁hör
▁hü
▁iPhone
▁iPod
▁iTunes
▁ib
▁ich
▁ide
▁idea
▁ideal
▁ideas
▁ident
▁identi
▁identifi
▁ideologi
▁idé
▁if
▁ignor
▁ihm
▁il
▁illustr
▁im
▁image
▁imagin
▁immer
▁immun
▁imperial
▁implant
▁implement
▁impli
▁import
▁important
▁importante
▁impos
▁improvis
▁in
▁inak
▁include
▁included
▁ind
▁indem
▁indi
▁individual
▁industrial
▁industrie
▁industriel
▁infi
▁info
▁inform
▁information
▁informations
▁informativ
▁inhal
▁initi
▁initial
▁inkl
▁inklud
▁inne
▁innen
▁inner
▁inside
▁inso
▁inspir
▁install
▁institution
▁instrumental
▁integr
▁integral
▁intellektu
▁intelligent
▁intensiv
▁inter
▁interdi
▁interessant
▁interessante
▁interest
▁interior
▁intern
▁international
▁internationale
▁interne
▁internet
▁interpret
▁interven
▁interview
▁intim
▁into
▁invest
▁involv
▁ir
▁iron
▁irre
▁irrit
▁is
▁islam
▁islamist
▁isol
▁israel
▁ist
▁it
▁italien
▁its
▁ja
▁jag
▁japan
▁jardin
▁je
▁jed
▁jede
▁jeden
▁jeg
▁jen
▁jene
▁jew
▁jo
▁job
▁jou
▁journalist
▁ju
▁jug
▁juga
▁jung
▁jurist
▁just
▁jä
▁k
▁kW
▁ka
▁kabel
▁kalkul
▁kalt
▁kam
▁kamb
▁kamen
▁kamer
▁kan
▁kanad
▁kanal
▁kandid
▁kann
▁kapital
▁kapitalist
▁kar
▁kategori
▁kaufen
▁ke
▁keep
▁kein
▁kenn
▁kenne
▁kern
▁key
▁kg
▁ki
▁kilometer
▁kind
▁kinder
▁kitchen
▁kl
▁klapp
▁klar
▁klass
▁klasse
▁klassi
▁klein
▁klima
▁klimat
▁klini
▁klipp
▁klo
▁km
▁know
▁ko
▁kod
▁koh
▁kol
▁koll
▁kollektiv
▁koloni
▁kom
▁kombin
▁komfort
▁komme
▁kommen
▁komment
▁kommer
▁kommun
▁kommunal
▁kommunik
▁kommunist
▁komp
▁kompakt
▁kompens
▁kompetent
▁komplement
▁komplet
▁komplex
▁kompli
▁kompon
▁kompromiss
▁kon
▁konf
▁konfigur
▁konflikt
▁konfront
▁kong
▁konkret
▁konkurr
▁konkurren
▁konn
▁konsolid
▁konstant
▁konstat
▁konstitu
▁konstru
▁konsul
▁konsult
▁konsum
▁konta
▁kontakt
▁kontinent
▁kontinu
▁kontra
▁kontrast
▁kontroll
▁kontrolli
▁kontrover
▁konvert
▁kooper
▁kooperati
▁koordin
▁kop
▁kor
▁korrekt
▁korrig
▁korrup
▁kosm
▁kosmet
▁kost
▁koste
▁kosten
▁kr
▁kraft
▁kras
▁kre
▁kreativ
▁krimin
▁kriminal
▁kritis
▁kro
▁ku
▁kultiv
▁kultur
▁kumu
▁kund
▁kunst
▁kur
▁kurd
▁kurs
▁kurz
▁kö
▁könn
▁könne
▁können
▁kü
▁kür
▁la
▁lag
▁lage
▁lager
▁lanc
▁land
▁lang
▁lange
▁langs
▁language
▁large
▁las
▁lassen
▁last
▁late
▁later
▁laut
▁law
▁le
▁lead
▁leader
▁leaders
▁learn
▁leben
▁lebens
▁leer
▁left
▁leg
▁legal
▁lege
▁legen
▁legend
▁legislativ
▁legitim
▁leh
▁lei
▁leid
▁leis
▁leistungs
▁leit
▁lenk
▁lern
▁les
▁lesen
▁less
▁let
▁lett
▁level
▁li
▁lib
▁liberal
▁licht
▁lieb
▁lief
▁lies
▁life
▁lift
▁light
▁ligne
▁like
▁limit
▁line
▁linear
▁lingu
▁link
▁links
▁liquid
▁list
▁listen
▁lit
▁lita
▁literar
▁litt
▁little
▁live
▁living
▁lo
▁lob
▁lobby
▁local
▁location
▁lock
▁log
▁logisti
▁lokal
▁long
▁look
▁los
▁lot
▁lounge
▁love
▁low
▁lu
▁lud
▁luft
▁lux
▁lä
▁läng
▁läs
▁lö
▁m
▁ma
▁mach
▁mache
▁machen
▁machine
▁macht
▁made
▁mag
▁magazine
▁magnet
▁mah
▁mai
▁mail
▁main
▁mais
▁maison
▁maj
▁major
▁mak
▁make
▁makro
▁mal
▁malay
▁man
▁manage
▁management
▁manager
▁manch
▁manche
▁mange
▁manifest
▁manipul
▁many
▁map
▁mar
▁marginal
▁marine
▁mark
▁market
▁marketing
▁markt
▁mas
▁mask
▁mass
▁mat
▁material
▁max
▁maxim
▁may
▁mb
▁me
▁meal
▁mechani
▁med
▁media
▁meer
▁meet
▁meeting
▁mehr
▁mein
▁meist
▁mejor
▁melde
▁men
▁mens
▁mental
▁menu
▁mer
▁merk
▁mes
▁mess
▁met
▁meta
▁metall
▁meter
▁method
▁metro
▁mexi
▁mg
▁mi
▁mich
▁micro
▁mid
▁middle
▁miet
▁mikro
▁mil
▁militar
▁million
▁min
▁mind
▁minder
▁mineral
▁mini
▁minim
▁minimal
▁minimalist
▁minus
▁minut
▁minute
▁minutes
▁mir
▁mis
▁miss
▁mit
▁mitge
▁mitte
▁mix
▁ml
▁mm
▁mo
▁mobil
▁mobile
▁mod
▁mode
▁modell
▁moder
▁moderat
▁modern
▁moderne
▁modifi
▁modul
▁mold
▁molekul
▁moment
▁momento
▁mon
▁mona
▁monde
▁monet
▁money
▁mono
▁monopol
▁mont
▁month
▁months
▁mor
▁moral
▁more
▁morgen
▁morning
▁most
▁motiv
▁motor
▁move
▁mp
▁mu
▁much
▁mucho
▁mult
▁multi
▁multifunk
▁multikultur
▁multimedia
▁multiple
▁multipli
▁music
▁muslim
▁muss
▁must
▁mut
▁muy
▁my
▁myst
▁más
▁mé
▁mö
▁mög
▁möglich
▁mü
▁müd
▁müh
▁müs
▁na
▁nach
▁nachge
▁nacht
▁nad
▁naiv
▁nam
▁name
▁namen
▁names
▁nan
▁nano
▁nas
▁national
▁natur
▁natural
▁nature
▁navig
▁ne
▁near
▁neben
▁need
▁needed
▁neg
▁negativ
▁nel
▁neo
▁neoliberal
▁nerv
▁net
▁nett
▁netto
▁network
▁neu
▁neuro
▁neutral
▁never
▁new
▁news
▁next
▁ng
▁ni
▁nice
▁nicht
▁nie
▁nieder
▁niet
▁night
▁no
▁noch
▁nombre
▁nomin
▁nominal
▁non
▁nor
▁nord
▁normal
▁normale
▁normativ
▁nos
▁nostalgi
▁not
▁note
▁nous
▁now
▁nu
▁nuevo
▁nukle
▁number
▁numer
▁nummer
▁nun
▁nur
▁não
▁nä
▁näh
▁nö
▁nü
▁ob
▁obd
▁objekt
▁objektiv
▁obligatori
▁occur
▁och
▁od
▁oder
▁of
▁off
▁offen
▁offer
▁offi
▁office
▁ofrec
▁og
▁ok
▁old
▁olympi
▁om
▁on
▁one
▁online
▁only
▁ont
▁op
▁open
▁oper
▁operation
▁operativ
▁opportun
▁opt
▁optim
▁optimal
▁optimist
▁optimisti
▁option
▁options
▁or
▁orange
▁orden
▁order
▁ordin
▁organ
▁organis
▁organiz
▁orient
▁oriental
▁origin
▁original
▁originale
▁origine
▁oste
▁other
▁others
▁ou
▁our
▁out
▁outside
▁over
▁own
▁owner
▁p
▁pa
▁paar
▁pack
▁package
▁page
▁pages
▁paid
▁pakistan
▁pan
▁paper
▁par
▁para
▁paradox
▁parallel
▁park
▁parking
▁parlamentar
▁part
▁parte
▁parti
▁particular
▁party
▁pas
▁pass
▁passion
▁passiv
▁past
▁patent
▁path
▁pau
▁paus
▁pay
▁pazi
▁pe
▁people
▁per
▁perfect
▁perfekt
▁perform
▁performance
▁period
▁permanent
▁pero
▁person
▁personal
▁personen
▁personnel
▁pervers
▁petit
▁ph
▁philosoph
▁phone
▁photo
▁photos
▁physi
▁pi
▁pick
▁picture
▁pictures
▁pied
▁piscin
▁pl
▁place
▁plag
▁plan
▁plant
▁plast
▁plat
▁plau
▁play
▁player
▁please
▁plural
▁plus
▁po
▁pod
▁poder
▁poet
▁point
▁points
▁poker
▁pol
▁polar
▁policy
▁polite
▁poln
▁poly
▁pool
▁poor
▁pop
▁popul
▁popular
▁por
▁port
▁portug
▁position
▁positiv
▁positive
▁poss
▁possibilit
▁possible
▁post
▁posts
▁pot
▁potenti
▁pou
▁pour
▁power
▁pr
▁pra
▁prach
▁practice
▁pragmat
▁pragmati
▁prakt
▁prakti
▁praktik
▁praktika
▁praktis
▁pre
▁pred
▁preis
▁prek
▁present
▁presiden
▁previous
▁price
▁prices
▁prim
▁prima
▁primitiv
▁print
▁prior
▁priorit
▁privat
▁private
▁privileg
▁privilegi
▁privé
▁pro
▁prob
▁problem
▁problema
▁problemati
▁problems
▁process
▁product
▁products
▁produkt
▁produkti
▁produktions
▁produz
▁produzi
▁professional
▁profil
▁profit
▁profund
▁prognos
▁program
▁programma
▁programmi
▁progressiv
▁project
▁projekt
▁promo
▁prompt
▁propag
▁property
▁prophe
▁proportion
▁propos
▁propriet
▁protection
▁protekt
▁protest
▁protestant
▁protokoll
▁proven
▁provide
▁provis
▁provoca
▁provok
▁provoz
▁proximité
▁prä
▁pré
▁psych
▁psychiatr
▁psycho
▁psycholog
▁psychologi
▁pu
▁publi
▁public
▁puis
▁puls
▁punct
▁pur
▁pure
▁put
▁pä
▁på
▁q
▁qu
▁qua
▁quadra
▁qual
▁qualifi
▁quality
▁qualité
▁quanti
▁quantit
▁quasi
▁que
▁quel
▁quell
▁qui
▁quick
▁quiet
▁quo
▁ra
▁radikal
▁radio
▁rang
▁range
▁rapid
▁rapide
▁rasa
▁rass
▁rate
▁ratifi
▁ratio
▁rational
▁rats
▁rau
▁raus
▁re
▁read
▁reading
▁reag
▁real
▁reale
▁realist
▁reason
▁rebel
▁rec
▁receive
▁recent
▁reception
▁recherch
▁recht
▁rechts
▁recommend
▁record
▁red
▁rede
▁refer
▁reflekt
▁reform
▁reg
▁regard
▁regel
▁regen
▁regener
▁regi
▁regime
▁region
▁regional
▁registr
▁regn
▁regul
▁regulator
▁rei
▁rein
▁reiz
▁rekonstru
▁rekrut
▁relativ
▁relax
▁relevant
▁religi
▁renov
▁renova
▁rent
▁repar
▁report
▁represent
▁reprodu
▁reprodukt
▁republika
▁request
▁required
▁research
▁reserv
▁reservation
▁resort
▁resources
▁respect
▁respekt
▁ressource
▁rest
▁restaur
▁restaurant
▁restaurants
▁restri
▁result
▁ret
▁return
▁review
▁reviews
▁revolution
▁rhe
▁ri
▁right
▁rigo
▁ris
▁risiko
▁risk
▁rival
▁road
▁robust
▁rock
▁roh
▁roll
▁rom
▁roman
▁romantis
▁room
▁rooms
▁root
▁rosa
▁rost
▁rot
▁route
▁ru
▁rue
▁ruh
▁ruin
▁run
▁rund
▁russ
▁russi
▁rusti
▁ré
▁réserv
▁rö
▁sa
▁sach
▁safe
▁sah
▁said
▁saison
▁sal
▁salon
▁same
▁samt
▁san
▁sand
▁sang
▁sanit
▁sank
▁sans
▁satt
▁sau
▁saud
▁sauna
▁say
▁scann
▁sch
▁schade
▁schi
▁schilder
▁schli
▁schm
▁schme
▁schn
▁scho
▁school
▁schr
▁schreib
▁schu
▁schuld
▁schw
▁schwarz
▁schwer
▁schön
▁screen
▁se
▁search
▁season
▁sech
▁second
▁security
▁see
▁seem
▁seg
▁sehe
▁sei
▁sein
▁seit
▁sektor
▁sekund
▁sel
▁selb
▁selbst
▁select
▁selection
▁selekt
▁self
▁semi
▁sen
▁send
▁sende
▁senk
▁sensi
▁sensibil
▁sent
▁separat
▁ser
▁sera
▁serb
▁seri
▁serie
▁server
▁servi
▁service
▁services
▁ses
▁set
▁setting
▁seu
▁sex
▁sexy
▁she
▁shopping
▁short
▁should
▁show
▁shower
▁si
▁sich
▁sicher
▁side
▁sie
▁sign
▁signal
▁signifi
▁simple
▁simul
▁simultan
▁sin
▁since
▁sind
▁sing
▁single
▁sink
▁sinn
▁sistema
▁sit
▁site
▁sites
▁situ
▁situat
▁situation
▁size
▁sizi
▁siècle
▁skal
▁skandal
▁skepti
▁ski
▁skru
▁sleep
▁slow
▁small
▁smart
▁so
▁sobre
▁social
▁soft
▁software
▁sog
▁sol
▁solar
▁solid
▁solidar
▁solidari
▁soll
▁solo
▁solution
▁som
▁some
▁something
▁sommer
▁son
▁sono
▁sorg
▁sort
▁sou
▁sound
▁source
▁sous
▁sozial
▁sp
▁spa
▁space
▁spal
▁span
▁spar
▁spart
▁spaz
▁spe
▁speak
▁special
▁speed
▁spektak
▁spekul
▁spend
▁spiel
▁spiele
▁spiritu
▁spontan
▁sport
▁sports
▁spot
▁spr
▁spra
▁spre
▁spring
▁spä
▁square
▁st
▁sta
▁staat
▁staats
▁stabil
▁stabilis
▁staff
▁stagn
▁stand
▁standard
▁star
▁start
▁starte
▁stat
▁state
▁stati
▁station
▁statisti
▁stay
▁steh
▁stelle
▁step
▁steril
▁stie
▁stil
▁still
▁stim
▁stimul
▁stir
▁stock
▁stol
▁stop
▁stopp
▁stor
▁store
▁str
▁straf
▁straffe
▁strand
▁strateg
▁strategi
▁stre
▁street
▁streng
▁stress
▁stri
▁strik
▁string
▁strong
▁struktur
▁student
▁students
▁studier
▁study
▁styl
▁style
▁stö
▁su
▁sua
▁sub
▁subsidi
▁substan
▁substanti
▁subtil
▁such
▁suda
▁sugger
▁suggest
▁suite
▁sul
▁sun
▁super
▁superb
▁superior
▁support
▁supra
▁sur
▁sure
▁surf
▁sus
▁suspend
▁sy
▁symbol
▁symboli
▁sympathi
▁symptom
▁synchron
▁synthe
▁syr
▁system
▁systemat
▁systems
▁sä
▁sé
▁séjour
▁süd
▁ta
▁table
▁tad
▁tag
▁tags
▁tak
▁take
▁talent
▁tan
▁target
▁tarif
▁taste
▁tat
▁tau
▁tax
▁taxi
▁te
▁tea
▁team
▁techno
▁technologi
▁technologie
▁technology
▁teil
▁tel
▁tele
▁telefon
▁television
▁tempor
▁temps
▁ten
▁tend
▁ter
▁term
▁termin
▁terms
▁terra
▁terrasse
▁territorial
▁terrorist
▁test
▁teu
▁text
▁th
▁thai
▁than
▁that
▁the
▁them
▁thema
▁theme
▁then
▁there
▁therm
▁thermo
▁thing
▁things
▁think
▁this
▁though
▁thought
▁three
▁through
▁ti
▁tiene
▁til
▁till
▁time
▁times
▁tipo
▁tipp
▁to
▁toda
▁today
▁todo
▁todos
▁together
▁toilet
▁toler
▁tolerant
▁toll
▁too
▁tool
▁top
▁tot
▁total
▁touch
▁tour
▁tourist
▁tout
▁town
▁tr
▁tra
▁trade
▁tradition
▁traf
▁trag
▁train
▁tranquil
▁trans
▁transfer
▁transform
▁transparent
▁transport
▁trat
▁traum
▁traumatis
▁travel
▁tre
▁tren
▁trend
▁tri
▁trink
▁trip
▁trivi
▁tro
▁trop
▁trot
▁trouv
▁tru
▁true
▁try
▁tu
▁tun
▁turbulen
▁turn
▁tut
▁tv
▁twin
▁two
▁typ
▁type
▁tä
▁télé
▁tö
▁tör
▁türk
▁uit
▁ultima
▁ultra
▁um
▁uma
▁umf
▁umge
▁un
▁una
▁unbe
▁und
▁under
▁une
▁unge
▁union
▁unique
▁univers
▁universal
▁universe
▁universit
▁uno
▁uns
▁unter
▁untersch
▁unver
▁up
▁update
▁upgrade
▁urban
▁use
▁used
▁user
▁utopi
▁v
▁va
▁valid
▁value
▁van
▁var
▁vari
▁variable
▁ve
▁vegetari
▁veh
▁venez
▁ver
▁vera
▁verb
▁verbal
▁verbind
▁verbl
▁verbo
▁verd
▁verde
▁verdi
▁vere
▁verf
▁verfüg
▁verfügbar
▁verg
▁verge
▁vergi
▁verho
▁verk
▁verkauf
▁verkauft
▁verle
▁verlie
▁verme
▁vermi
▁vermo
▁verni
▁verra
▁vers
▁versa
▁versch
▁verschi
▁verse
▁versi
▁version
▁versp
▁verst
▁verste
▁vert
▁verta
▁verte
▁vertra
▁verw
▁verwe
▁verwer
▁verze
▁vez
▁vi
▁via
▁video
▁videos
▁vie
▁viel
▁vier
▁vietnam
▁view
▁views
▁villa
▁village
▁ville
▁virtu
▁virtual
▁vision
▁visit
▁visu
▁visualis
▁vital
▁vo
▁voi
▁vol
▁volks
▁voll
▁volle
▁vom
▁von
▁voor
▁vor
▁vorb
▁vorbe
▁vorbei
▁vorge
▁vos
▁vote
▁vs
▁vue
▁vulkan
▁w
▁wa
▁wach
▁wag
▁wah
▁wait
▁walk
▁wall
▁wand
▁wandel
▁want
▁war
▁warm
▁warn
▁was
▁water
▁way
▁we
▁web
▁website
▁week
▁weekend
▁weg
▁wegge
▁weh
▁wei
▁weigh
▁weit
▁weiter
▁weiß
▁wel
▁welcome
▁well
▁welt
▁wen
▁wer
▁werde
▁werden
▁were
▁werk
▁wert
▁west
▁wet
▁what
▁who
▁whole
▁wi
▁wid
▁wide
▁wider
▁wie
▁wieder
▁wild
▁will
▁win
▁wind
▁window
▁windows
▁winter
▁wir
▁wird
▁wish
▁with
▁wo
▁woh
▁wohl
▁wohn
▁woll
▁women
▁won
▁wor
▁word
▁worden
▁words
▁work
▁working
▁works
▁world
▁write
▁writing
▁wu
▁wunder
▁wurde
▁www
▁ya
▁year
▁years
▁yes
▁yet
▁you
▁young
▁your
▁z
▁za
▁zag
▁zahl
▁ze
▁zen
▁ziem
▁zijn
▁zir
▁zit
▁zo
▁zona
▁zu
▁zuge
▁zum
▁zun
▁zur
▁zurück
▁zurückge
▁zurückzu
▁zusammen
▁zusammenge
▁zutreffend
▁zw
▁zwar
▁zwei
▁{
▁~
▁
▁£
▁§
▁©
▁«
▁·
▁»
▁¿
▁À
▁Á
▁Ä
▁Är
▁Å
▁År
▁É
▁Ö
▁Öko
▁Öl
▁Ör
▁Öst
▁Österreich
▁Ø
▁Ü
▁Üb
▁Über
▁än
▁är
▁ég
▁és
▁öf
▁ök
▁öko
▁öl
▁ört
▁üb
▁über
▁übersch
▁Česk
▁Š
▁Šp
▁́
▁̇
▁Г
▁в
▁с
▁у
▁€
▁→
▁−
